<unk>	0
<s>	0
</s>	0
.	-3.06206
▁the	-3.24421
,	-3.30917
▁of	-3.69744
s	-3.79221
▁a	-3.89976
▁and	-3.91357
▁to	-4.04611
▁is	-4.12888
▁in	-4.2286
▁for	-4.89155
-	-4.94249
▁The	-4.98245
▁or	-5.01629
▁	-5.07009
▁are	-5.0823
▁that	-5.14378
▁(	-5.15149
▁as	-5.30967
▁on	-5.42102
▁with	-5.42279
▁you	-5.42792
)	-5.52278
▁from	-5.55689
▁it	-5.57211
'	-5.5722
▁can	-5.58065
▁by	-5.60353
▁an	-5.60412
▁be	-5.60789
▁your	-5.64833
:	-5.73797
▁1	-5.82341
ing	-5.90078
▁A	-5.94888
▁2	-5.96511
▁at	-6.03353
▁have	-6.0778
▁which	-6.15684
ed	-6.1569
▁not	-6.18644
▁was	-6.23873
t	-6.24645
▁In	-6.31036
▁will	-6.31311
▁It	-6.3353
).	-6.35991
▁3	-6.36297
▁this	-6.36771
▁one	-6.38441
▁also	-6.38456
d	-6.4028
▁more	-6.40858
▁has	-6.44795
▁other	-6.4992
▁used	-6.50068
▁per	-6.52567
’	-6.54603
▁may	-6.56307
▁about	-6.58033
▁than	-6.58984
▁most	-6.59836
▁but	-6.62142
▁average	-6.6386
▁name	-6.64644
▁I	-6.66451
▁cost	-6.69449
▁This	-6.71789
/	-6.72867
er	-6.74284
▁all	-6.74348
e	-6.75424
▁they	-6.75639
ly	-6.79383
▁up	-6.79532
y	-6.80799
a	-6.82811
▁into	-6.84186
▁their	-6.85038
▁body	-6.86643
▁4	-6.8823
▁when	-6.89357
;	-6.8986
▁blood	-6.90194
▁between	-6.91038
▁if	-6.91945
▁two	-6.92658
▁If	-6.9291
▁time	-6.96628
▁its	-6.99259
▁such	-7.00699
▁called	-7.01291
▁water	-7.02549
▁year	-7.03312
▁years	-7.03422
▁first	-7.04247
▁use	-7.07285
al	-7.07425
▁some	-7.08066
),	-7.12883
S	-7.13836
▁people	-7.14598
or	-7.17011
▁out	-7.17165
▁only	-7.17533
re	-7.18648
n	-7.18679
▁over	-7.19233
▁For	-7.19416
▁do	-7.20675
▁many	-7.2152
▁system	-7.22696
▁who	-7.25403
▁5	-7.26533
▁cells	-7.27899
▁so	-7.29038
▁any	-7.29294
es	-7.29747
▁You	-7.29813
in	-7.30238
▁C	-7.30246
▁make	-7.30753
th	-7.31281
▁known	-7.31529
▁found	-7.32429
▁form	-7.33085
▁like	-7.34948
▁how	-7.35257
▁usually	-7.37453
▁there	-7.38333
▁after	-7.4074
▁been	-7.40912
r	-7.4092
▁common	-7.4103
▁type	-7.41925
▁10	-7.41981
▁through	-7.42591
▁get	-7.4324
▁should	-7.4421
▁salary	-7.45065
▁made	-7.45352
o	-7.45716
▁high	-7.45831
▁different	-7.46786
▁disease	-7.47468
▁often	-7.47728
▁part	-7.47895
▁need	-7.49444
▁these	-7.4996
▁days	-7.50304
▁around	-7.5042
▁day	-7.50482
▁each	-7.50647
▁then	-7.51018
▁where	-7.51126
▁long	-7.51371
▁what	-7.51674
▁very	-7.51809
▁S	-7.52172
▁much	-7.52343
▁well	-7.52644
▁were	-7.53147
▁...	-7.54383
▁food	-7.54421
m	-7.54723
C	-7.548
▁include	-7.54842
▁number	-7.55343
▁them	-7.55448
▁no	-7.55567
▁B	-7.55829
▁There	-7.57783
▁take	-7.58135
▁cause	-7.58198
▁cell	-7.59689
▁work	-7.60198
▁small	-7.61468
▁6	-7.61811
▁temperature	-7.6203
i	-7.62549
▁new	-7.63849
g	-7.64914
▁his	-7.6544
▁example	-7.66047
▁because	-7.66097
▁would	-7.66097
▁just	-7.66741
▁three	-7.66849
F	-7.6717
▁range	-7.67664
▁They	-7.68014
▁An	-7.68141
▁minutes	-7.68766
▁To	-7.68883
▁hours	-7.69936
▁less	-7.70348
▁skin	-7.71346
▁pay	-7.71902
▁we	-7.71968
▁same	-7.72084
▁costs	-7.72188
▁person	-7.72401
▁United	-7.72642
▁U	-7.73296
ic	-7.73711
▁home	-7.74257
▁heart	-7.74776
▁When	-7.75161
▁while	-7.75205
▁F	-7.75211
▁area	-7.76453
▁both	-7.77244
▁States	-7.78783
▁before	-7.78876
▁“	-7.79143
▁age	-7.80369
▁during	-7.80886
▁E	-7.81379
▁does	-7.81998
c	-7.82314
▁large	-7.82781
▁process	-7.82912
▁help	-7.83833
▁he	-7.84219
▁including	-7.84885
▁state	-7.85363
▁energy	-7.85552
▁under	-7.85719
▁types	-7.86044
l	-7.86851
▁means	-7.87261
▁within	-7.87627
▁re	-7.8763
▁amount	-7.87721
▁our	-7.8862
▁important	-7.88698
▁muscle	-7.88894
▁world	-7.89082
k	-7.9008
▁square	-7.91253
▁information	-7.91366
▁way	-7.91383
▁These	-7.91556
▁meaning	-7.92187
▁P	-7.92439
A	-7.9273
▁D	-7.93145
▁percent	-7.93753
▁good	-7.93918
▁–	-7.93927
▁As	-7.94156
▁back	-7.94261
▁rate	-7.94267
to	-7.94448
an	-7.94661
ers	-7.95091
ll	-7.95108
▁pain	-7.9514
▁20	-7.96095
▁hour	-7.96601
▁see	-7.97027
2	-7.97149
ve	-7.9718
▁down	-7.97747
▁term	-7.97918
▁18	-7.98309
▁group	-7.99104
▁had	-7.99406
▁test	-7.99461
▁must	-8.00134
▁side	-8.00468
▁being	-8.00899
▁T	-8.01035
▁New	-8.01183
▁using	-8.01519
▁symptoms	-8.01871
▁7	-8.02593
▁-	-8.02821
▁8	-8.03111
▁until	-8.03205
the	-8.03253
▁12	-8.03444
us	-8.03575
▁total	-8.03658
▁even	-8.03936
▁plant	-8.04704
▁'	-8.05532
▁foot	-8.05555
▁DNA	-8.0594
▁life	-8.06268
▁species	-8.06376
▁caused	-8.06745
▁level	-8.06864
▁price	-8.07062
▁place	-8.07463
▁size	-8.07683
▁below	-8.08553
▁15	-8.08578
▁right	-8.08751
▁lower	-8.08759
▁feet	-8.0931
▁best	-8.09413
▁those	-8.09803
▁located	-8.0992
▁low	-8.10052
▁job	-8.10121
on	-8.10227
▁American	-8.10348
▁my	-8.10357
▁health	-8.10592
▁Most	-8.10604
▁months	-8.10744
”	-8.10867
▁want	-8.11215
▁Some	-8.11283
▁non	-8.11581
▁degrees	-8.11691
D	-8.11917
▁normal	-8.12005
▁depending	-8.12755
▁However	-8.13051
x	-8.13239
▁based	-8.14417
▁period	-8.14453
!	-8.1499
▁four	-8.1503
▁top	-8.16117
▁brain	-8.16257
▁find	-8.16494
ion	-8.165
p	-8.16693
▁another	-8.16859
▁oil	-8.16934
▁infection	-8.1695
▁English	-8.17438
com	-8.17489
▁bacteria	-8.17506
▁baby	-8.17826
ation	-8.18046
h	-8.18676
▁every	-8.19675
able	-8.19806
▁last	-8.19984
▁plants	-8.20008
▁30	-8.20035
▁weeks	-8.20446
▁human	-8.20907
▁tissue	-8.21085
▁end	-8.21139
▁air	-8.21239
▁company	-8.21766
▁go	-8.2259
en	-8.22853
▁few	-8.23091
▁least	-8.23132
▁family	-8.23896
▁protein	-8.24065
▁typically	-8.24218
▁sugar	-8.24671
▁H	-8.24772
▁could	-8.24778
▁several	-8.25039
▁word	-8.25129
▁off	-8.25919
▁white	-8.26112
▁G	-8.26898
▁degree	-8.27002
▁s	-8.27143
▁red	-8.27818
B	-8.28216
▁month	-8.28304
▁annual	-8.28662
▁higher	-8.29079
▁de	-8.29174
▁above	-8.29452
▁know	-8.29624
▁without	-8.29762
▁acid	-8.29988
▁heat	-8.30201
▁set	-8.30342
▁experience	-8.30593
▁surface	-8.30691
▁causes	-8.3079
▁He	-8.31336
H	-8.31379
▁foods	-8.31506
K	-8.31549
▁become	-8.31562
▁Re	-8.31956
▁un	-8.32168
▁single	-8.3303
▁main	-8.33246
▁data	-8.3345
1	-8.33491
▁million	-8.33811
ine	-8.34155
▁weight	-8.3447
▁medical	-8.34667
▁due	-8.34992
3	-8.35034
▁order	-8.35043
T	-8.35061
▁We	-8.3511
▁full	-8.35252
▁M	-8.35401
▁O	-8.35404
b	-8.35505
▁don	-8.36141
it	-8.36228
▁On	-8.36331
▁pressure	-8.36356
▁light	-8.3641
▁chemical	-8.36594
le	-8.36679
▁treatment	-8.36716
▁her	-8.37176
▁commonly	-8.37405
▁live	-8.37598
▁tax	-8.37621
is	-8.37812
▁9	-8.38078
as	-8.3818
▁function	-8.38266
▁specific	-8.38343
▁care	-8.38747
▁generally	-8.38955
G	-8.39165
▁levels	-8.39364
▁car	-8.39521
▁result	-8.39549
▁own	-8.3965
▁color	-8.39675
f	-8.39815
?	-8.39931
▁available	-8.40078
▁major	-8.40211
▁either	-8.40232
▁--	-8.40308
▁free	-8.4061
▁products	-8.40754
▁business	-8.4091
L	-8.41471
▁according	-8.4154
P	-8.41556
▁K	-8.41798
▁vary	-8.41875
4	-8.41982
▁condition	-8.42311
ia	-8.42341
▁now	-8.42638
▁second	-8.42647
▁change	-8.43015
▁start	-8.43288
▁But	-8.43434
▁So	-8.43468
▁meat	-8.44977
▁certain	-8.45111
▁given	-8.45364
▁contains	-8.45853
▁How	-8.45942
▁considered	-8.46731
▁eggs	-8.46872
▁R	-8.47142
▁old	-8.47319
▁largest	-8.4759
▁&	-8.47767
▁Your	-8.48431
▁still	-8.48472
▁sometimes	-8.48656
ity	-8.49075
▁fat	-8.49098
▁similar	-8.49184
M	-8.49201
▁service	-8.49547
▁muscles	-8.49842
▁parts	-8.50064
▁One	-8.50109
▁might	-8.50372
▁natural	-8.50625
▁oven	-8.50821
▁keep	-8.50888
▁100	-8.51228
el	-8.51266
▁children	-8.51291
▁little	-8.51397
▁increase	-8.51456
▁school	-8.51497
and	-8.51616
um	-8.5172
▁popular	-8.51816
▁general	-8.51993
▁occur	-8.52088
▁following	-8.52179
▁All	-8.52232
▁L	-8.52439
co	-8.52488
▁oxygen	-8.52656
▁conditions	-8.53066
▁provide	-8.53215
u	-8.53437
▁point	-8.53484
E	-8.53595
▁produce	-8.54018
▁forms	-8.54533
ry	-8.54651
▁too	-8.54838
▁occurs	-8.54909
▁[	-8.55042
▁early	-8.55196
▁produced	-8.55232
▁50	-8.55483
W	-8.55556
▁power	-8.55802
▁location	-8.55818
▁material	-8.55836
▁gas	-8.55937
st	-8.55957
▁week	-8.56052
▁—	-8.56089
▁areas	-8.56096
▁takes	-8.56289
▁income	-8.56394
▁e	-8.56425
▁city	-8.56529
▁structure	-8.5667
ism	-8.56876
man	-8.57023
▁five	-8.5703
▁variety	-8.57144
▁since	-8.57253
▁country	-8.57424
▁liver	-8.57545
▁At	-8.57554
O	-8.57782
▁m	-8.5781
▁miles	-8.57822
▁animals	-8.57855
▁contain	-8.58012
▁child	-8.58743
▁control	-8.5876
▁inches	-8.58943
(	-8.59039
▁times	-8.59058
▁Earth	-8.59404
N	-8.5941
▁approximately	-8.59419
▁language	-8.59654
▁along	-8.60325
ment	-8.60484
▁nerve	-8.605
▁North	-8.60698
▁together	-8.6086
▁government	-8.60963
▁cancer	-8.61255
▁fee	-8.61444
▁1.	-8.61506
ra	-8.6168
▁come	-8.61866
▁short	-8.62112
▁living	-8.62181
▁left	-8.62243
▁half	-8.62276
▁mg	-8.62507
▁fish	-8.62522
▁credit	-8.62621
▁list	-8.62789
▁And	-8.62955
▁women	-8.63091
▁America	-8.63798
▁present	-8.64036
▁median	-8.6412
▁associated	-8.64241
▁add	-8.64311
▁carbon	-8.64377
▁treat	-8.64514
▁According	-8.65042
▁comes	-8.65469
▁region	-8.65474
▁South	-8.65719
▁salt	-8.65742
▁length	-8.65988
▁i	-8.66174
▁various	-8.66522
▁$1	-8.66622
▁source	-8.66755
▁head	-8.66804
▁program	-8.66834
▁grow	-8.66905
▁eat	-8.66909
▁look	-8.67046
▁N	-8.67142
▁doctor	-8.67169
▁give	-8.67265
▁land	-8.6736
▁bone	-8.67414
ar	-8.67509
▁16	-8.67737
ate	-8.67906
w	-8.68109
ol	-8.68222
▁cases	-8.68311
5	-8.68672
▁40	-8.69198
▁open	-8.69343
▁basic	-8.69377
▁base	-8.69439
▁mean	-8.69491
▁case	-8.69588
▁states	-8.69616
▁pre	-8.6972
▁longer	-8.69759
tic	-8.70043
▁required	-8.70324
ness	-8.70416
▁Definition	-8.70476
▁/	-8.70492
▁makes	-8.70636
6	-8.70784
▁unit	-8.70786
▁making	-8.70828
▁salaries	-8.70966
▁hair	-8.71155
▁project	-8.71561
ist	-8.71592
▁especially	-8.71618
8	-8.71784
▁product	-8.71819
▁risk	-8.71843
▁includes	-8.72179
▁me	-8.72227
up	-8.72233
▁check	-8.72264
▁charge	-8.72605
▁eye	-8.7268
▁related	-8.72706
▁run	-8.72828
▁great	-8.72902
▁however	-8.72907
▁depends	-8.73031
▁:	-8.7317
▁value	-8.7341
▁What	-8.73482
▁layer	-8.73511
la	-8.73796
ur	-8.73851
▁growth	-8.73902
na	-8.73903
R	-8.74073
▁here	-8.74223
▁complete	-8.74359
▁=	-8.74522
▁standard	-8.74609
▁highest	-8.74698
▁put	-8.74706
▁problems	-8.74803
▁law	-8.74976
▁With	-8.75014
▁dry	-8.7513
te	-8.75603
▁Many	-8.75631
▁14	-8.75742
v	-8.75747
▁c	-8.75887
lo	-8.75909
▁17	-8.76254
▁animal	-8.76599
▁money	-8.7663
▁account	-8.76638
▁soil	-8.76736
▁paid	-8.76745
▁sure	-8.76755
▁Answer	-8.76848
▁25	-8.76894
▁earn	-8.77053
▁pan	-8.77089
▁names	-8.77234
▁individual	-8.77282
▁line	-8.77357
0	-8.77542
at	-8.77781
ma	-8.77831
▁That	-8.7784
▁insurance	-8.77882
▁she	-8.77954
▁diet	-8.78062
▁cold	-8.78062
▁chicken	-8.78115
▁US	-8.78146
▁factors	-8.7828
°	-8.78339
ive	-8.78945
▁$2	-8.78947
▁disorder	-8.78977
est	-8.79011
ton	-8.79035
▁better	-8.79089
ne	-8.79423
▁Greek	-8.79528
de	-8.79609
▁production	-8.79629
▁co	-8.79904
▁effects	-8.80013
il	-8.80719
▁population	-8.80728
▁able	-8.80864
▁$	-8.81101
ta	-8.81157
9	-8.81178
▁24	-8.81196
▁show	-8.81222
ian	-8.81446
▁local	-8.81453
▁done	-8.8203
▁materials	-8.82089
▁current	-8.82107
like	-8.82199
▁damage	-8.82202
I	-8.82217
▁enough	-8.82462
▁loss	-8.82463
▁lot	-8.82476
▁rock	-8.82533
▁By	-8.8256
▁dog	-8.82601
et	-8.82819
▁origin	-8.82825
▁wide	-8.82894
▁services	-8.82909
▁anywhere	-8.82951
ant	-8.83095
▁addition	-8.83215
▁While	-8.8329
▁sea	-8.83333
▁patients	-8.83615
ous	-8.84054
▁milk	-8.84236
▁uses	-8.84444
▁From	-8.84781
ling	-8.84889
▁infections	-8.84956
▁things	-8.85081
▁formed	-8.85107
▁hard	-8.85283
▁green	-8.85465
▁room	-8.85626
▁six	-8.85633
▁history	-8.85691
▁W	-8.85693
▁simple	-8.85695
▁having	-8.86168
▁daily	-8.86185
▁house	-8.86292
▁ground	-8.86381
▁whole	-8.86473
▁against	-8.86543
▁Do	-8.8655
▁though	-8.86602
▁field	-8.86708
▁national	-8.8671
▁near	-8.86736
ty	-8.86828
one	-8.86968
▁move	-8.87229
▁earned	-8.87321
▁black	-8.8734
▁Other	-8.8744
▁membrane	-8.87535
▁After	-8.8757
li	-8.87801
▁always	-8.8793
▁60	-8.88133
▁inside	-8.88161
▁possible	-8.88315
▁p	-8.88563
▁referred	-8.8866
▁require	-8.88662
▁tree	-8.88751
ary	-8.89093
▁study	-8.89105
▁stomach	-8.89386
▁hand	-8.89431
ting	-8.8972
▁urine	-8.89895
▁something	-8.90079
▁fact	-8.90087
▁defined	-8.9012
—	-8.90223
▁cook	-8.90293
▁primary	-8.9041
▁computer	-8.90441
▁physical	-8.90504
▁rest	-8.9054
▁benefits	-8.90623
▁code	-8.90652
▁V	-8.90654
▁central	-8.90803
▁11	-8.91409
▁diseases	-8.91528
▁sub	-8.91572
▁countries	-8.91622
▁molecules	-8.9173
▁actually	-8.91888
▁No	-8.91941
▁medium	-8.91984
▁file	-8.92
▁typical	-8.92016
▁born	-8.92107
▁prevent	-8.92207
▁changes	-8.92208
▁See	-8.9221
▁minimum	-8.9222
ite	-8.92382
▁fluid	-8.92417
▁away	-8.92428
▁vitamin	-8.92539
▁May	-8.92633
▁provides	-8.92683
▁space	-8.9277
no	-8.92854
▁results	-8.92984
▁men	-8.93077
▁organisms	-8.93141
▁additional	-8.9331
▁throughout	-8.93319
▁French	-8.9344
▁working	-8.93495
▁cooking	-8.93508
Y	-8.93591
ies	-8.93613
V	-8.93768
▁healthy	-8.93976
▁contact	-8.94073
▁calories	-8.94107
▁click	-8.94177
▁glucose	-8.94365
▁refers	-8.94506
di	-8.94551
▁+	-8.94651
7	-8.94666
▁century	-8.94778
▁cover	-8.94782
▁California	-8.94814
▁useful	-8.94826
▁said	-8.9484
▁once	-8.95019
▁hot	-8.95096
▁hormone	-8.95131
▁Although	-8.95161
▁fees	-8.95191
▁upper	-8.95304
▁plan	-8.95425
▁cut	-8.9553
▁movement	-8.95627
am	-8.95905
▁think	-8.95911
age	-8.95951
▁later	-8.95993
▁next	-8.96002
▁egg	-8.96044
▁site	-8.96325
▁virus	-8.9646
▁proteins	-8.96641
ie	-8.96838
▁effect	-8.96854
▁leaves	-8.96858
▁support	-8.96864
▁Average	-8.96876
ul	-8.96949
▁quality	-8.9712
▁real	-8.97251
▁report	-8.97506
▁role	-8.97868
▁gland	-8.97877
▁center	-8.98017
▁needs	-8.98155
ium	-8.98323
▁t	-8.98622
▁De	-8.98652
▁whether	-8.98705
▁date	-8.98784
▁km	-8.988
z	-8.98815
▁organs	-8.98836
▁etc	-8.98844
▁Best	-8.98925
▁likely	-8.98941
ter	-8.98967
▁among	-8.98974
▁gene	-8.98996
▁Latin	-8.99017
▁ago	-8.99145
ated	-8.99147
▁words	-8.99177
▁wall	-8.99249
▁almost	-8.99325
▁receive	-8.9933
▁fiber	-8.99381
▁larger	-8.99427
▁n	-8.99523
▁others	-8.99873
▁us	-9.00234
▁position	-9.00263
▁particular	-9.00444
▁St	-9.00596
▁remove	-9.00663
▁drug	-9.00674
▁Each	-9.0074
▁turn	-9.00776
▁Of	-9.00984
▁terms	-9.01123
▁Act	-9.01136
▁going	-9.01169
▁genetic	-9.01173
▁wage	-9.01189
▁public	-9.0119
▁consists	-9.01253
▁building	-9.01362
▁humans	-9.0142
▁definition	-9.01857
▁development	-9.01994
▁course	-9.02047
▁$3	-9.02104
▁affect	-9.02296
▁spread	-9.02644
▁research	-9.02695
ca	-9.027
▁rare	-9.02822
▁Canada	-9.02973
▁helps	-9.03031
▁death	-9.0329
time	-9.03381
▁ranges	-9.0348
▁tissues	-9.03522
▁return	-9.03533
▁nervous	-9.03534
▁Here	-9.03543
▁key	-9.03774
▁internal	-9.03868
▁flow	-9.0387
▁complex	-9.03963
▁across	-9.0409
ch	-9.04178
▁create	-9.04186
·	-9.04396
▁immune	-9.04716
▁difference	-9.04746
▁Meaning	-9.04875
▁Co	-9.04943
▁13	-9.05113
▁itself	-9.05114
▁g	-9.05151
▁lead	-9.05221
▁Australia	-9.0528
▁roast	-9.0544
line	-9.05445
▁joint	-9.05469
ized	-9.05479
▁f	-9.05489
▁page	-9.05808
▁thyroid	-9.05847
▁My	-9.05895
▁needed	-9.05997
▁X	-9.06066
▁National	-9.06192
ce	-9.06246
▁b	-9.06264
▁York	-9.06288
▁vessels	-9.06565
▁mouth	-9.06607
▁Place	-9.06634
▁female	-9.06666
▁taken	-9.07027
os	-9.07336
▁derived	-9.07357
▁systems	-9.07509
▁post	-9.07782
▁iron	-9.07866
▁Also	-9.07868
▁inflammation	-9.0789
▁severe	-9.07957
per	-9.07974
▁reaction	-9.08209
▁call	-9.08473
▁man	-9.08545
▁surgery	-9.08603
▁Europe	-9.087
▁close	-9.08799
▁pro	-9.08912
▁social	-9.09094
▁class	-9.09101
id	-9.09127
▁smaller	-9.09134
▁students	-9.09358
▁height	-9.09375
▁cannot	-9.09458
▁liquid	-9.09477
▁19	-9.09637
▁War	-9.09689
▁say	-9.09697
▁problem	-9.09708
▁kidney	-9.09878
less	-9.0991
▁property	-9.09971
▁calcium	-9.09978
ad	-9.10183
–	-9.10196
▁develop	-9.10289
▁World	-9.10321
▁State	-9.10627
▁x	-9.10707
▁directly	-9.10755
▁maximum	-9.10757
me	-9.10915
▁industry	-9.10925
▁lungs	-9.11088
▁University	-9.1111
▁training	-9.11343
▁Africa	-9.1144
▁education	-9.11627
▁play	-9.11634
▁reduce	-9.11835
▁acids	-9.11975
▁First	-9.12028
▁method	-9.12088
▁contract	-9.12175
▁seeds	-9.12199
▁cycle	-9.12351
▁allow	-9.12418
▁doesn	-9.12501
U	-9.12524
▁deep	-9.12544
▁temperatures	-9.12642
▁tract	-9.1283
▁outside	-9.13265
ance	-9.13265
▁adults	-9.13313
▁$10	-9.13552
▁noun	-9.136
▁answer	-9.1362
▁determine	-9.13896
▁birth	-9.1392
▁composed	-9.13933
▁elements	-9.13939
rs	-9.14009
▁Con	-9.14177
ti	-9.14222
▁molecule	-9.14265
mo	-9.1429
▁third	-9.14293
▁seen	-9.14325
▁added	-9.14374
▁Salary	-9.14383
▁easy	-9.14394
▁activity	-9.14609
▁someone	-9.1474
▁functions	-9.14787
son	-9.14787
ci	-9.14799
▁created	-9.14858
▁expect	-9.14916
▁far	-9.14952
▁varies	-9.15045
The	-9.15079
▁travel	-9.15284
▁application	-9.15365
▁male	-9.15539
▁today	-9.15605
▁taking	-9.15619
▁RNA	-9.15637
▁although	-9.15798
▁metal	-9.16243
▁grams	-9.16316
▁works	-9.16336
▁prices	-9.16612
▁really	-9.16618
▁Cost	-9.16706
▁north	-9.16962
land	-9.16968
▁d	-9.17137
ri	-9.17497
▁21	-9.17752
▁estimate	-9.1777
▁rates	-9.17792
▁fruit	-9.17858
ted	-9.17904
be	-9.17911
▁stay	-9.18185
ating	-9.18573
▁sources	-9.1863
▁market	-9.18751
40	-9.18828
▁substance	-9.18902
▁installation	-9.19053
▁special	-9.19056
▁sun	-9.19231
▁con	-9.19261
▁mass	-9.19427
▁J	-9.19465
▁did	-9.19472
▁clear	-9.19495
▁groups	-9.19607
▁matter	-9.19682
▁medicine	-9.19697
▁probably	-9.19767
▁Add	-9.19843
▁middle	-9.19882
▁card	-9.20028
▁store	-9.20157
ro	-9.2022
▁simply	-9.20239
▁dose	-9.20297
ally	-9.20412
▁season	-9.20482
ir	-9.20487
▁India	-9.20556
▁Click	-9.20623
▁easily	-9.20692
▁measure	-9.20734
▁cholesterol	-9.20816
▁south	-9.20826
▁responsible	-9.20848
▁German	-9.20863
ization	-9.20891
▁feel	-9.21024
ex	-9.21082
▁professional	-9.21228
▁essential	-9.21414
▁original	-9.21436
▁brown	-9.21488
ent	-9.21503
▁labor	-9.21632
▁series	-9.21724
▁fresh	-9.21733
▁yellow	-9.21897
▁kind	-9.22041
▁glands	-9.22068
▁Pro	-9.2207
▁direct	-9.22091
▁vegetables	-9.22312
▁environment	-9.22444
▁choose	-9.22463
▁‘	-9.22469
▁cooked	-9.22544
▁members	-9.2267
year	-9.22745
▁carry	-9.22936
▁starting	-9.22978
of	-9.22985
▁offer	-9.22997
▁named	-9.23086
▁past	-9.23098
▁bottom	-9.23107
▁increased	-9.23373
▁blue	-9.23609
▁network	-9.23742
▁allows	-9.2386
▁sign	-9.23876
▁shape	-9.2389
▁IRA	-9.24007
▁2015	-9.24032
▁pounds	-9.24102
▁alcohol	-9.24152
▁apply	-9.24166
▁earth	-9.24245
25	-9.24558
▁cat	-9.24605
▁companies	-9.24784
▁bones	-9.2488
▁Al	-9.24902
▁fever	-9.25102
▁Use	-9.2528
▁office	-9.25323
▁minerals	-9.2541
.00	-9.25415
▁speed	-9.25446
▁safe	-9.25454
▁taste	-9.25461
▁active	-9.25468
▁serious	-9.25739
▁let	-9.25844
im	-9.25999
▁patient	-9.26207
▁appear	-9.26238
▁became	-9.2633
▁night	-9.26749
▁trees	-9.2704
▁adult	-9.27076
▁traditional	-9.27129
▁strong	-9.27169
▁face	-9.27232
▁widely	-9.27236
▁built	-9.27263
▁phone	-9.27341
▁combination	-9.2738
▁device	-9.27493
▁expensive	-9.27497
▁hourly	-9.27507
ster	-9.27579
un	-9.27603
▁ability	-9.27639
ish	-9.27726
op	-9.27783
▁developed	-9.2781
▁City	-9.28019
▁warm	-9.28104
▁ways	-9.28137
▁nutrients	-9.28218
do	-9.28233
▁jobs	-9.28255
▁regular	-9.28348
▁shows	-9.28356
▁element	-9.28699
▁injury	-9.28881
▁necessary	-9.28949
ah	-9.29123
▁More	-9.29142
▁solid	-9.29142
10	-9.29201
▁tests	-9.29368
▁extra	-9.29406
▁rather	-9.29582
▁website	-9.29683
▁Texas	-9.297
▁reach	-9.297
▁spinal	-9.29771
▁table	-9.3006
▁online	-9.30094
▁management	-9.30102
da	-9.3013
▁soft	-9.3038
ac	-9.30464
▁front	-9.3056
▁therapy	-9.30645
▁anti	-9.3071
▁expected	-9.30756
]	-9.30823
va	-9.30832
▁late	-9.30842
▁reported	-9.30871
▁bit	-9.30878
▁upon	-9.30888
▁interest	-9.30952
▁cup	-9.30972
▁normally	-9.3098
ba	-9.30992
▁concrete	-9.31011
▁paper	-9.31044
▁why	-9.31065
▁syndrome	-9.31081
day	-9.311
▁Le	-9.31164
▁$50	-9.31351
▁drugs	-9.31423
▁processes	-9.3149
▁practice	-9.31571
▁San	-9.31578
▁$100	-9.31618
▁Because	-9.31726
go	-9.31732
▁seed	-9.3176
▁Since	-9.318
se	-9.31876
▁break	-9.31892
way	-9.32067
▁2012	-9.32156
▁young	-9.32166
▁brand	-9.32169
▁learn	-9.32169
▁personal	-9.32185
00	-9.32206
▁dioxide	-9.32358
▁response	-9.32361
▁written	-9.32653
▁People	-9.32863
▁design	-9.32911
▁begin	-9.32956
▁access	-9.33003
▁build	-9.33004
▁double	-9.33024
50	-9.33105
▁pregnancy	-9.33147
▁neck	-9.33163
▁unique	-9.33195
▁covered	-9.33218
▁perform	-9.33358
▁0	-9.33399
▁limit	-9.33513
con	-9.33528
▁cord	-9.33533
▁solution	-9.33545
▁action	-9.33571
▁thing	-9.33707
▁root	-9.33992
▁older	-9.34072
▁River	-9.34125
▁Be	-9.34125
▁dogs	-9.3415
▁modern	-9.3434
▁requires	-9.3435
▁slightly	-9.34351
▁nucleus	-9.34384
▁di	-9.34398
▁act	-9.3443
▁federal	-9.3451
▁hormones	-9.34528
▁$5	-9.34607
▁medication	-9.34724
▁mineral	-9.3474
▁wood	-9.34886
▁pork	-9.34894
▁released	-9.3496
▁never	-9.34988
▁organism	-9.35127
▁cheese	-9.35215
▁island	-9.35284
▁Our	-9.35449
▁distance	-9.35468
▁dis	-9.35544
▁content	-9.35576
▁amino	-9.35613
ka	-9.35722
itis	-9.35805
▁Once	-9.35855
▁legal	-9.35941
▁him	-9.36051
▁Sea	-9.36071
▁primarily	-9.36087
ial	-9.36183
▁big	-9.36233
▁entire	-9.36378
▁Asia	-9.36405
▁substances	-9.36753
▁John	-9.3676
,000	-9.36873
ge	-9.36873
▁exercise	-9.36876
▁mixture	-9.36878
▁college	-9.36947
▁During	-9.36981
▁rich	-9.37025
also	-9.37056
▁symbol	-9.37074
▁1/2	-9.37083
for	-9.37093
▁financial	-9.37208
ni	-9.37222
▁amounts	-9.37339
▁divided	-9.37471
▁growing	-9.37481
▁involved	-9.37653
▁minute	-9.37694
▁China	-9.37735
▁weather	-9.37799
▁again	-9.37816
▁multiple	-9.37866
▁beans	-9.3787
▁lowest	-9.37875
▁recommended	-9.37891
▁reason	-9.37954
▁read	-9.38018
min	-9.38022
X	-9.38058
▁effective	-9.38105
▁equal	-9.38148
▁member	-9.38226
▁private	-9.38234
▁organic	-9.38346
▁supply	-9.38566
▁diabetes	-9.38618
▁dark	-9.38658
▁La	-9.39036
▁fall	-9.39116
ha	-9.39172
▁designed	-9.39259
▁$4	-9.39332
▁disorders	-9.39334
▁section	-9.39345
▁programs	-9.39361
▁compared	-9.39453
▁leave	-9.39462
▁President	-9.39567
▁tell	-9.39676
▁(1	-9.39698
▁potential	-9.39699
▁requirements	-9.39703
▁electrical	-9.39737
30	-9.39774
▁highly	-9.39789
▁intestine	-9.39912
▁organ	-9.39933
que	-9.40019
▁sweet	-9.40077
▁Mo	-9.40205
▁West	-9.4036
▁score	-9.40374
▁British	-9.40533
▁thin	-9.40578
▁getting	-9.40672
▁pound	-9.40901
12	-9.40942
▁bad	-9.41023
▁sound	-9.41051
▁County	-9.41084
▁eyes	-9.41203
▁subject	-9.4127
▁host	-9.41356
▁try	-9.41479
▁Report	-9.41546
▁She	-9.41633
▁war	-9.41653
▁already	-9.41763
▁units	-9.41792
▁gives	-9.41792
▁career	-9.41886
▁listed	-9.41937
▁rocks	-9.42036
▁mainly	-9.42133
by	-9.42169
▁portion	-9.42241
▁Me	-9.42325
▁sense	-9.42373
75	-9.42395
▁beef	-9.42408
▁spend	-9.42465
▁motor	-9.42587
▁book	-9.42651
tion	-9.42665
▁properties	-9.42697
▁ancient	-9.42721
▁culture	-9.42932
▁flat	-9.43007
▁model	-9.43023
▁ex	-9.43039
▁°	-9.43068
▁transfer	-9.43069
▁art	-9.43175
ten	-9.43178
▁July	-9.43231
▁smooth	-9.43263
▁Island	-9.43469
▁capital	-9.43497
▁floor	-9.43587
▁eating	-9.43837
▁view	-9.44004
▁o	-9.44081
▁90	-9.44197
▁butter	-9.44236
▁music	-9.44254
▁title	-9.44266
ut	-9.44331
▁drive	-9.44416
▁refrigerator	-9.44445
▁basis	-9.44629
▁Ma	-9.44643
▁enter	-9.44842
▁summer	-9.44912
▁teeth	-9.44946
+	-9.44993
://	-9.45191
▁mind	-9.45195
▁quickly	-9.45242
▁procedure	-9.45313
▁vehicle	-9.45337
▁refer	-9.45367
nd	-9.45376
▁compound	-9.45391
▁version	-9.45403
ner	-9.4547
▁45	-9.45501
▁hold	-9.45501
▁step	-9.4551
▁article	-9.45525
em	-9.45533
based	-9.45581
▁true	-9.45669
▁quite	-9.45762
▁balance	-9.45887
▁included	-9.45947
▁estimated	-9.45985
▁purchase	-9.46067
▁box	-9.46103
mm	-9.46295
▁question	-9.46362
▁produces	-9.46381
▁fuel	-9.4645
▁plus	-9.46478
▁greater	-9.46556
▁buy	-9.46579
ase	-9.46678
▁Mar	-9.46841
▁official	-9.46869
▁ft	-9.46992
▁October	-9.47048
▁clean	-9.47075
80	-9.47103
▁inter	-9.47116
▁volume	-9.47145
▁January	-9.47152
po	-9.47225
▁seven	-9.47253
▁stone	-9.47269
▁fast	-9.47322
▁chronic	-9.47329
▁via	-9.47373
J	-9.47493
▁mother	-9.47525
▁thought	-9.47558
▁Indian	-9.47682
▁enzyme	-9.4776
▁native	-9.47833
▁says	-9.47915
▁looking	-9.48297
▁individuals	-9.48345
▁compounds	-9.48476
pa	-9.48488
▁structures	-9.48508
▁carbohydrates	-9.48541
▁hydrogen	-9.48575
▁Na	-9.48587
▁completely	-9.48591
▁features	-9.48624
▁release	-9.48634
▁mostly	-9.48658
▁thick	-9.48711
▁Go	-9.48739
▁records	-9.48778
tri	-9.4881
▁April	-9.48966
▁affects	-9.49022
▁arteries	-9.49125
▁shown	-9.49253
▁won	-9.49263
▁Germany	-9.49311
▁causing	-9.49368
▁worth	-9.49384
▁digestive	-9.49401
▁organization	-9.49447
▁separate	-9.49463
▁instead	-9.49466
ide	-9.49667
▁About	-9.4969
▁factor	-9.49716
▁naturally	-9.49737
▁town	-9.4981
▁East	-9.49838
side	-9.49898
▁game	-9.49957
▁stored	-9.49993
▁cool	-9.50062
▁select	-9.50118
▁increases	-9.50201
▁Sa	-9.50201
dy	-9.50212
▁Ca	-9.50314
▁began	-9.50319
▁address	-9.50396
▁provided	-9.50498
▁limited	-9.50587
▁maintain	-9.5067
▁70	-9.50845
sh	-9.50934
▁nature	-9.50998
▁mild	-9.51035
▁pass	-9.51058
▁28	-9.51223
▁visit	-9.51288
▁slow	-9.51297
▁tend	-9.51303
▁sold	-9.51307
▁record	-9.51315
▁Mexico	-9.51461
out	-9.51468
▁sauce	-9.51522
▁Congress	-9.51698
▁protect	-9.51756
ga	-9.51773
▁plate	-9.51923
):	-9.51959
_	-9.52101
▁offers	-9.52144
▁characterized	-9.52241
▁cm	-9.52246
▁board	-9.5225
▁video	-9.52259
der	-9.52286
▁http	-9.52288
▁climate	-9.52297
15	-9.52315
▁nearly	-9.5236
▁employee	-9.52416
▁majority	-9.52444
▁search	-9.52484
▁Top	-9.52513
▁Di	-9.52526
▁object	-9.52606
▁repair	-9.52751
▁purpose	-9.52765
ier	-9.52829
▁England	-9.52918
term	-9.52935
▁significant	-9.53069
pe	-9.53201
▁Man	-9.53215
▁atoms	-9.5329
▁feed	-9.53334
mer	-9.5334
▁option	-9.53348
▁vitamins	-9.53436
ft	-9.53453
▁image	-9.53499
den	-9.535
▁license	-9.53538
▁infected	-9.53643
▁80	-9.53646
▁further	-9.5366
▁reference	-9.53953
▁System	-9.53956
▁sodium	-9.54025
▁regions	-9.54089
▁bond	-9.54089
▁Car	-9.54125
▁film	-9.54202
▁vaccine	-9.54229
▁containing	-9.5426
▁depend	-9.54296
▁force	-9.54323
▁negative	-9.54414
▁knee	-9.54491
▁pepper	-9.5452
▁arthritis	-9.54597
he	-9.54606
▁idea	-9.54622
▁transport	-9.54694
ot	-9.54834
▁joints	-9.54842
▁came	-9.54892
▁mi	-9.549
▁Spanish	-9.54954
▁nerves	-9.54977
▁bacterial	-9.55108
▁relatively	-9.55109
▁June	-9.55131
▁formula	-9.55236
▁baking	-9.55262
▁mid	-9.5528
20	-9.5533
▁chain	-9.55357
▁atmosphere	-9.55416
vo	-9.55461
▁scale	-9.55472
▁rise	-9.55632
▁sales	-9.55702
ina	-9.55761
▁dollars	-9.55865
if	-9.55944
▁35	-9.55989
▁Or	-9.56029
▁pool	-9.5604
▁style	-9.5605
ley	-9.56066
yl	-9.56194
▁kidneys	-9.56303
▁Labor	-9.56317
▁respiratory	-9.56375
▁winter	-9.56401
▁goes	-9.5642
▁viruses	-9.56437
▁$20	-9.5649
▁science	-9.56542
▁waste	-9.56567
▁software	-9.56625
▁August	-9.56629
▁begins	-9.56677
▁net	-9.5688
▁community	-9.56916
▁monthly	-9.56933
▁k	-9.56936
▁ear	-9.57062
mb	-9.5709
▁2014	-9.57091
▁eight	-9.57122
▁Bo	-9.57172
▁tuition	-9.57183
▁France	-9.57255
▁sleep	-9.57271
▁High	-9.57278
▁share	-9.57312
▁song	-9.57443
▁Florida	-9.57499
▁employees	-9.57668
▁lymph	-9.57709
▁drink	-9.57759
▁$15	-9.57762
▁Old	-9.57861
▁Ta	-9.57884
▁activities	-9.57885
▁Name	-9.57893
▁Not	-9.57902
▁nurse	-9.57993
▁ten	-9.5801
▁Great	-9.58044
▁surname	-9.58112
▁love	-9.58152
▁Health	-9.58179
▁en	-9.58217
▁difficult	-9.58331
▁nursing	-9.5834
▁throat	-9.58364
▁flowers	-9.58566
ology	-9.58577
▁self	-9.58676
▁signs	-9.58715
▁Source	-9.58723
▁consider	-9.58835
▁moving	-9.58878
▁attack	-9.59005
▁illness	-9.59054
▁avoid	-9.5907
▁payment	-9.59097
ative	-9.59159
▁bar	-9.59233
my	-9.59257
▁corn	-9.59268
▁Roman	-9.59322
▁genes	-9.59374
▁positive	-9.59396
▁billion	-9.59568
▁bank	-9.59672
▁fibers	-9.59699
ful	-9.59806
bi	-9.59819
▁currency	-9.5995
▁200	-9.59975
▁European	-9.59982
▁fine	-9.59987
▁agent	-9.59991
▁applied	-9.60113
▁install	-9.60259
ver	-9.6031
▁leg	-9.60311
▁commercial	-9.60374
▁micro	-9.60423
▁west	-9.60501
▁received	-9.60578
▁plastic	-9.60607
▁bring	-9.60673
▁actual	-9.60708
▁enzymes	-9.60794
▁link	-9.60806
lan	-9.60863
▁flu	-9.60934
▁woman	-9.60955
▁beginning	-9.6096
▁describe	-9.60963
▁international	-9.61006
▁count	-9.61132
▁team	-9.61268
▁therefore	-9.61329
▁Home	-9.61375
▁east	-9.61467
▁court	-9.61516
▁cavity	-9.61658
▁improve	-9.61689
▁claim	-9.61705
▁construction	-9.61746
▁particularly	-9.61782
▁flavor	-9.61782
▁follow	-9.61823
▁loan	-9.61833
▁affected	-9.6185
▁figure	-9.61861
red	-9.61951
▁planet	-9.61995
▁walls	-9.61999
▁am	-9.62
▁screen	-9.62195
▁started	-9.62286
▁chest	-9.62383
▁points	-9.62461
▁map	-9.62499
ence	-9.62511
▁tall	-9.6252
tu	-9.62521
▁numbers	-9.6264
▁famous	-9.62741
▁crust	-9.62896
▁22	-9.63066
▁southern	-9.63084
▁presence	-9.6318
▁fruits	-9.63181
mp	-9.6327
▁stage	-9.63494
▁text	-9.636
▁Both	-9.63613
ler	-9.63678
▁stop	-9.63723
▁inner	-9.6374
▁recent	-9.63808
▁$30	-9.63844
▁understand	-9.63942
▁500	-9.63975
▁Like	-9.63983
▁Medical	-9.64081
▁ever	-9.64095
▁involves	-9.64318
▁currently	-9.64372
▁serving	-9.6441
hi	-9.6452
▁rice	-9.64596
▁garden	-9.64604
▁outer	-9.6465
▁wind	-9.64754
▁genus	-9.6478
▁Symptoms	-9.64886
▁colors	-9.64931
▁lack	-9.64955
▁artery	-9.65167
▁theory	-9.65168
kin	-9.65169
oc	-9.65193
▁popularity	-9.65276
see	-9.65358
ize	-9.65396
▁Fahrenheit	-9.65433
▁glass	-9.65471
▁Sun	-9.65508
▁Find	-9.65563
▁languages	-9.65614
▁survey	-9.65653
▁pot	-9.65729
▁roughly	-9.65828
▁dish	-9.65836
ger	-9.6584
▁star	-9.65856
▁Dr	-9.65857
tra	-9.65859
▁stress	-9.65944
ure	-9.66154
▁arm	-9.6619
▁Windows	-9.6626
ap	-9.66261
▁powder	-9.66281
▁Food	-9.66292
▁window	-9.66383
osis	-9.66395
tin	-9.66417
▁strength	-9.66427
▁sex	-9.6644
▁reactions	-9.66504
▁wild	-9.66514
▁overall	-9.66516
▁Step	-9.66573
▁ice	-9.66596
▁policy	-9.6664
▁bachelor	-9.6674
▁expenses	-9.66897
▁la	-9.66916
▁girl	-9.66938
▁exchange	-9.66966
▁northern	-9.67138
▁Pre	-9.67159
▁mix	-9.67253
▁component	-9.67365
lin	-9.67451
▁layers	-9.67485
che	-9.67551
ab	-9.6764
▁hospital	-9.67729
▁options	-9.67821
▁Red	-9.67865
▁whose	-9.67936
▁running	-9.67953
ard	-9.67955
▁Y	-9.68251
▁Italian	-9.68301
▁described	-9.68341
▁behavior	-9.68393
▁Ra	-9.6847
▁2013	-9.68499
▁distribution	-9.68518
▁coast	-9.68816
▁impact	-9.68864
▁ingredients	-9.68888
▁*	-9.6908
▁fire	-9.69089
▁river	-9.69094
▁Vitamin	-9.69126
▁spring	-9.69232
▁2010	-9.6924
▁International	-9.69254
▁guide	-9.69299
].	-9.69389
▁September	-9.69403
ron	-9.69414
▁believe	-9.69448
▁stock	-9.69537
▁properly	-9.69557
▁prior	-9.69581
▁foreign	-9.69585
▁installed	-9.69637
ph	-9.69717
▁wine	-9.69783
▁electricity	-9.69808
ile	-9.69876
▁tea	-9.69892
▁piece	-9.6995
▁Code	-9.69952
▁performed	-9.6997
▁parents	-9.70029
▁leading	-9.70054
▁places	-9.70129
▁Un	-9.7014
▁equipment	-9.70328
▁medications	-9.70332
ities	-9.70371
▁percentage	-9.70378
▁London	-9.70431
▁March	-9.70458
▁African	-9.70474
▁UK	-9.70691
▁took	-9.70733
▁multi	-9.70741
▁dental	-9.70778
▁bread	-9.71021
▁document	-9.71067
▁established	-9.71101
▁Park	-9.71105
▁student	-9.7111
▁th	-9.71111
▁technology	-9.71129
▁starts	-9.71185
▁workers	-9.712
▁formation	-9.71229
▁bonds	-9.71298
▁Central	-9.71389
▁Li	-9.71472
▁storage	-9.71519
▁held	-9.71538
▁juice	-9.71572
▁lines	-9.71652
▁final	-9.71666
such	-9.71735
▁attached	-9.71754
▁potatoes	-9.71916
▁horse	-9.7195
▁replacement	-9.7201
▁Even	-9.72036
▁Z	-9.72061
▁raw	-9.72247
▁swelling	-9.72374
end	-9.72426
▁frequently	-9.72459
ak	-9.72461
▁legs	-9.7253
▁behind	-9.7254
▁Washington	-9.7254
▁Per	-9.72541
▁characteristics	-9.72587
▁character	-9.7264
▁Note	-9.72663
▁benefit	-9.72714
▁$200	-9.72764
▁button	-9.72801
▁bag	-9.72848
▁nose	-9.72991
▁tube	-9.73079
▁becomes	-9.73144
ding	-9.73148
▁Abuse	-9.73255
▁(2	-9.73283
io	-9.73345
▁$25	-9.73422
▁girls	-9.73446
▁Another	-9.7345
▁testing	-9.73502
▁Depend	-9.73545
pro	-9.73715
▁web	-9.73718
tro	-9.73767
ke	-9.73772
ae	-9.73774
les	-9.73788
sis	-9.73803
▁Water	-9.73816
▁$6	-9.73858
j	-9.73953
ze	-9.73953
▁engine	-9.73961
▁cross	-9.73997
▁Bureau	-9.73997
ee	-9.74002
▁valve	-9.7409
▁passed	-9.74182
vi	-9.74258
pi	-9.74292
▁roof	-9.74345
▁ocean	-9.74473
é	-9.74487
▁save	-9.74581
90	-9.74598
▁spine	-9.74635
▁steps	-9.74906
▁mountain	-9.74914
▁23	-9.74946
▁continue	-9.75039
▁st	-9.75054
▁relative	-9.75094
▁components	-9.75095
▁values	-9.7512
▁$1,000	-9.75206
▁ensure	-9.75233
▁status	-9.75314
▁economic	-9.75327
ward	-9.75328
ana	-9.75354
tal	-9.75367
▁Pi	-9.75451
▁Air	-9.75457
▁trade	-9.75533
▁solar	-9.75535
▁appearance	-9.75602
ping	-9.75661
▁House	-9.75717
▁10%	-9.75807
▁items	-9.75925
▁initial	-9.75963
▁$7	-9.76092
▁Statistics	-9.76155
ise	-9.76166
▁rain	-9.76292
▁Ba	-9.76325
▁branch	-9.76325
mi	-9.76384
▁inch	-9.76444
▁bladder	-9.76593
▁rights	-9.76644
▁measured	-9.7666
▁paint	-9.76743
▁tropical	-9.76802
▁Roth	-9.76804
▁son	-9.76827
men	-9.76929
▁$500	-9.76941
▁potassium	-9.76945
▁Check	-9.76948
▁·	-9.77004
▁appears	-9.77057
oma	-9.7707
Z	-9.77072
▁performance	-9.7708
▁serve	-9.77164
▁votes	-9.77166
▁registered	-9.77195
bo	-9.77271
▁frequency	-9.77327
ator	-9.77359
▁cash	-9.77388
▁band	-9.77441
▁meet	-9.77492
▁Pacific	-9.77526
▁Get	-9.7754
▁flour	-9.77587
ˈ	-9.77647
▁sand	-9.77663
▁bill	-9.77691
▁65	-9.77723
▁ratio	-9.77811
▁round	-9.77827
▁got	-9.779
▁Ocean	-9.77976
▁fully	-9.78004
▁26	-9.78034
▁bowl	-9.7811
▁Common	-9.78115
▁alone	-9.78129
ep	-9.78133
▁schools	-9.7814
▁future	-9.78167
▁Ro	-9.78178
▁anything	-9.78224
▁electric	-9.78251
▁rule	-9.78383
▁master	-9.78456
▁Just	-9.78463
▁50%	-9.7848
▁fatty	-9.78497
▁analysis	-9.78501
▁Ha	-9.78566
▁Po	-9.78589
▁surrounding	-9.78637
▁followed	-9.78749
▁fungi	-9.78755
35	-9.7876
▁classified	-9.78789
▁radiation	-9.78872
▁Italy	-9.78928
▁View	-9.79043
5%	-9.79052
▁thus	-9.79127
▁neurons	-9.79327
▁originally	-9.7954
....	-9.79559
ow	-9.79616
▁mo	-9.79652
▁His	-9.79714
▁College	-9.79822
▁Its	-9.79861
▁Irish	-9.79876
ə	-9.79894
▁Social	-9.79941
▁cities	-9.79954
▁grill	-9.79969
ps	-9.79979
▁lung	-9.7999
▁heavy	-9.79992
▁Q	-9.80017
ped	-9.8008
▁roots	-9.80105
state	-9.8011
▁Can	-9.80188
▁firm	-9.80188
▁Now	-9.80233
▁diameter	-9.80305
▁removed	-9.80413
▁taxes	-9.80451
▁proper	-9.80519
▁$8	-9.80715
▁excess	-9.80805
▁father	-9.80877
▁parent	-9.80961
▁Then	-9.80984
which	-9.80993
▁Service	-9.81033
▁door	-9.81098
▁target	-9.81161
▁event	-9.81171
▁Blood	-9.81275
22	-9.81277
▁pet	-9.81277
▁recorded	-9.81358
▁birds	-9.8137
▁connective	-9.81432
ven	-9.81511
▁protection	-9.81522
▁Chinese	-9.81532
▁wedding	-9.81534
▁extremely	-9.81638
▁port	-9.81781
ja	-9.81804
▁December	-9.8187
om	-9.81902
▁flower	-9.81965
▁estate	-9.82045
can	-9.8206
foot	-9.82126
▁steak	-9.82184
▁clinical	-9.82247
▁choice	-9.82355
▁Com	-9.82357
▁King	-9.82419
od	-9.82595
▁tooth	-9.82638
▁party	-9.82698
▁annually	-9.82747
▁School	-9.8275
▁direction	-9.82782
▁drop	-9.8287
▁breed	-9.82877
▁God	-9.82901
▁300	-9.83054
▁gold	-9.83055
▁yourself	-9.83055
▁Day	-9.83081
▁correct	-9.83172
ual	-9.83193
not	-9.83259
▁Two	-9.83273
▁gets	-9.83279
▁fit	-9.83283
▁grass	-9.83305
▁meal	-9.83368
▁resulting	-9.83397
▁Department	-9.8344
▁Ka	-9.83461
au	-9.83537
▁respiration	-9.83569
▁paying	-9.83764
ning	-9.83808
▁walk	-9.83838
▁breast	-9.83953
5,000	-9.83962
▁Center	-9.83969
▁budget	-9.83982
▁Let	-9.83984
▁Cor	-9.84048
▁photo	-9.84049
▁Association	-9.84099
▁veins	-9.84107
▁cr	-9.84147
▁Lake	-9.84213
cre	-9.84243
▁chart	-9.8435
▁app	-9.84365
old	-9.84536
▁purposes	-9.84599
▁details	-9.84602
▁copy	-9.84616
so	-9.84626
▁political	-9.84632
ran	-9.84777
▁machine	-9.84777
▁themselves	-9.84811
lu	-9.84877
▁William	-9.849
45	-9.84977
▁concentration	-9.8498
▁focus	-9.85009
▁broken	-9.85059
▁charges	-9.85066
▁Remove	-9.85072
▁ideal	-9.85134
▁Ne	-9.85204
▁grains	-9.85273
▁abnormal	-9.85299
▁El	-9.85301
▁placed	-9.85331
▁replace	-9.8538
▁doing	-9.85392
▁story	-9.85421
▁grown	-9.85456
▁remain	-9.85459
▁yeast	-9.85529
ER	-9.85611
▁block	-9.85656
▁bodies	-9.85707
95	-9.85812
▁zone	-9.85898
▁freezer	-9.85939
ship	-9.85969
▁opening	-9.85981
▁couple	-9.85984
▁Make	-9.86001
▁l	-9.86011
▁studies	-9.86099
▁cellular	-9.86184
▁combined	-9.86282
▁core	-9.86327
▁General	-9.86378
▁Japan	-9.8643
ring	-9.8646
ole	-9.86472
▁White	-9.86536
board	-9.86582
ea	-9.86588
▁employer	-9.86636
▁sample	-9.86703
▁existing	-9.86796
85	-9.86798
ig	-9.86842
▁chemicals	-9.87047
▁Ex	-9.87082
▁super	-9.87111
▁instance	-9.87206
▁boys	-9.87222
▁equivalent	-9.87273
▁contribute	-9.87298
oid	-9.87396
▁knowledge	-9.87418
▁served	-9.87431
▁reasons	-9.87438
▁lose	-9.87461
za	-9.87462
lic	-9.87488
www	-9.87509
▁yet	-9.87513
gi	-9.87553
▁fats	-9.87555
▁ask	-9.8759
sa	-9.87706
▁treated	-9.87728
▁phrase	-9.87738
▁applications	-9.87777
▁Black	-9.87792
nic	-9.87818
ox	-9.87822
▁examples	-9.87913
▁remains	-9.87927
▁gain	-9.87944
▁Don	-9.87956
▁depression	-9.88014
▁cap	-9.88114
▁ring	-9.8812
but	-9.88217
▁fixed	-9.88229
shaped	-9.88234
wa	-9.8834
▁Mi	-9.88343
▁bi	-9.88349
▁urinary	-9.88353
▁Kingdom	-9.88354
▁covers	-9.88361
▁sheet	-9.88363
▁runs	-9.88453
11	-9.88533
60	-9.88573
▁Cook	-9.8858
SA	-9.88686
$	-9.8871
▁Security	-9.88723
ical	-9.88734
ability	-9.8874
▁Before	-9.88846
▁Over	-9.88866
ck	-9.88878
▁hit	-9.88919
▁2011	-9.88977
tor	-9.89022
▁Part	-9.89046
▁sides	-9.89117
▁writing	-9.89177
▁charged	-9.89217
▁Share	-9.8927
ible	-9.89316
▁battery	-9.89327
▁external	-9.89374
▁motion	-9.89439
▁measures	-9.89483
rate	-9.89515
▁w	-9.89529
▁Ga	-9.8962
▁letter	-9.89669
▁represents	-9.8981
▁Tri	-9.89827
▁hip	-9.89867
▁sequence	-9.89886
▁specifically	-9.89888
ru	-9.89925
▁Ho	-9.90016
our	-9.90041
▁rules	-9.90043
▁evidence	-9.90093
si	-9.90098
▁wear	-9.90166
▁Pa	-9.90209
▁stores	-9.9023
free	-9.90327
▁agreement	-9.90586
▁al	-9.90604
▁laws	-9.90653
▁pancreas	-9.9069
▁Lo	-9.90726
▁division	-9.90755
▁exposure	-9.90774
▁pronounced	-9.90781
▁wave	-9.90782
▁isn	-9.90866
▁II	-9.90867
▁$300	-9.90889
▁perfect	-9.90896
▁meters	-9.90898
▁November	-9.91004
▁r	-9.91008
▁colon	-9.91051
▁Western	-9.91165
▁security	-9.91196
▁pieces	-9.91346
▁intake	-9.91443
▁viral	-9.91453
▁distinct	-9.91598
▁$12	-9.91636
▁pink	-9.9166
▁household	-9.91662
▁hands	-9.91753
▁alternative	-9.91768
*	-9.91798
▁pregnant	-9.91823
▁v	-9.91834
▁rash	-9.91964
▁garlic	-9.91993
▁kept	-9.91996
use	-9.92013
ella	-9.92046
▁2000	-9.92048
▁user	-9.92165
ug	-9.92224
▁connected	-9.92225
▁exam	-9.92301
▁beautiful	-9.92312
▁indicate	-9.92334
▁contrast	-9.92348
▁wire	-9.92425
▁files	-9.92524
ber	-9.92538
▁1000	-9.92574
▁$11	-9.92585
▁determined	-9.92653
▁note	-9.92673
-1	-9.92731
▁variable	-9.92736
▁mental	-9.92742
▁skills	-9.9279
▁salmon	-9.92887
▁insulin	-9.92934
16	-9.92955
▁reports	-9.92963
▁y	-9.93157
▁collection	-9.93216
▁diarrhea	-9.93246
▁Se	-9.93248
▁tri	-9.9328
▁biological	-9.93315
▁Any	-9.93338
13	-9.93407
ya	-9.93482
▁rent	-9.93556
▁phase	-9.9357
▁stem	-9.93613
▁boil	-9.93621
▁waves	-9.93714
ang	-9.93832
▁reduced	-9.93844
▁email	-9.93873
▁passport	-9.93902
▁president	-9.93922
▁changed	-9.93985
▁vision	-9.94017
▁fabric	-9.94025
▁acute	-9.94027
▁trans	-9.94036
▁hatch	-9.94053
▁USA	-9.94138
28	-9.94217
ray	-9.94241
▁75	-9.94269
ach	-9.94298
▁h	-9.94303
▁feature	-9.94315
ub	-9.94344
▁lay	-9.94364
▁safety	-9.94381
▁tender	-9.94475
▁cream	-9.94533
▁(19	-9.94536
▁Ar	-9.94538
wood	-9.94544
▁shoulder	-9.94556
qui	-9.94564
▁Generally	-9.94571
▁Union	-9.94593
▁relationship	-9.94599
▁sell	-9.94607
▁western	-9.94607
▁pattern	-9.94628
▁appropriate	-9.94655
▁February	-9.94711
▁turkey	-9.94713
mon	-9.9475
▁thermometer	-9.94812
▁abdominal	-9.94839
▁twice	-9.94844
▁greatly	-9.9486
▁pair	-9.94872
▁0.	-9.94899
▁steel	-9.95019
▁send	-9.95033
▁Full	-9.95034
▁peak	-9.95043
▁families	-9.9514
▁introduced	-9.95159
▁ATP	-9.9517
▁kitchen	-9.95306
▁driving	-9.95373
▁islands	-9.95409
▁enjoy	-9.95425
▁processing	-9.95471
▁Ad	-9.95505
▁atom	-9.95508
▁coat	-9.95634
net	-9.95664
▁Hebrew	-9.95707
cle	-9.95722
▁pure	-9.95772
▁tiny	-9.95827
Q	-9.95847
▁Th	-9.95871
▁Edit	-9.95873
▁resources	-9.95934
▁scientific	-9.96001
ey	-9.96008
▁previous	-9.96056
let	-9.96064
▁$40	-9.9609
▁particles	-9.96094
▁discovered	-9.96103
ever	-9.96132
▁bathroom	-9.96202
▁orange	-9.96211
▁150	-9.96282
▁column	-9.96284
▁border	-9.96295
▁lives	-9.9631
▁Under	-9.96377
▁hepatitis	-9.96418
▁connect	-9.96426
▁Keep	-9.96506
▁flight	-9.96537
▁seat	-9.96589
▁ball	-9.96616
▁Sp	-9.96625
▁mixed	-9.96818
▁investment	-9.96819
▁CO	-9.9684
▁phosphate	-9.96844
▁Constitution	-9.96914
▁acts	-9.96974
▁Their	-9.97007
▁Learn	-9.97034
▁semi	-9.97038
▁120	-9.97042
▁failure	-9.97108
▁carries	-9.97124
▁Middle	-9.97174
▁setting	-9.97181
▁aid	-9.97196
▁convert	-9.97225
stone	-9.97238
ng	-9.97381
▁ready	-9.97404
▁chromosome	-9.97406
▁faster	-9.97541
▁Celsius	-9.97611
ell	-9.97691
19	-9.97692
▁methods	-9.97718
65	-9.97847
▁anxiety	-9.97936
nt	-9.97962
▁plays	-9.97964
ria	-9.98023
hour	-9.98118
▁stand	-9.98138
▁Internet	-9.98156
▁producing	-9.98166
▁metabolism	-9.98187
▁verb	-9.98337
▁worked	-9.98448
▁Bar	-9.98513
▁digestion	-9.98513
▁Her	-9.98557
▁kinds	-9.98583
24	-9.98586
▁Sometimes	-9.98598
▁independent	-9.98606
ists	-9.98691
▁heating	-9.98822
▁tool	-9.98926
▁Airport	-9.98978
▁global	-9.99006
▁Company	-9.99007
led	-9.99115
▁vi	-9.9914
▁looks	-9.99186
▁minor	-9.99254
▁Pay	-9.99281
▁TV	-9.99283
▁thousands	-9.99304
▁entry	-9.99318
rich	-9.99347
▁chromosomes	-9.99383
ene	-9.99391
▁lining	-9.99391
sion	-9.99397
▁Ph	-9.99489
▁military	-9.99694
▁copper	-9.998
▁profit	-9.99884
▁(3	-9.99889
▁Please	-9.99903
▁broad	-9.99913
▁Jo	-9.99925
▁$150	-10.0007
▁varieties	-10.0025
▁decrease	-10.0041
▁unless	-10.0041
ec	-10.0045
▁se	-10.005
eg	-10.0053
▁whereas	-10.006
▁Information	-10.0062
▁deficiency	-10.0065
▁oral	-10.0065
▁Virginia	-10.0068
32	-10.0069
▁nuclear	-10.0073
ock	-10.0081
▁olive	-10.0081
▁lost	-10.0093
top	-10.0098
▁grows	-10.01
▁absorb	-10.0104
▁nation	-10.0105
▁Time	-10.0113
▁immediately	-10.0113
port	-10.0115
▁cleaning	-10.0124
▁scan	-10.0124
▁player	-10.0125
▁$0	-10.0128
▁Spain	-10.0132
▁27	-10.0137
▁deal	-10.0138
chi	-10.014
▁bio	-10.0141
▁differences	-10.0143
▁apart	-10.0147
▁everything	-10.0147
▁ranging	-10.0147
▁powerful	-10.0148
cal	-10.0159
ib	-10.016
▁cortex	-10.0165
▁onto	-10.0168
▁breath	-10.0175
0°	-10.0185
▁demand	-10.0187
ions	-10.019
▁Australian	-10.019
18	-10.0197
▁approved	-10.02
▁message	-10.0204
▁vote	-10.0206
▁identify	-10.0208
▁customer	-10.0211
▁container	-10.0214
act	-10.0215
▁boy	-10.0227
21	-10.023
▁soon	-10.0237
ag	-10.0246
▁mortgage	-10.0249
▁issue	-10.025
▁founded	-10.0253
▁2009	-10.0254
▁Form	-10.0256
▁electrons	-10.0259
fe	-10.0261
▁track	-10.0266
▁Origin	-10.0267
▁Bay	-10.0271
ified	-10.0273
▁Japanese	-10.0282
gen	-10.0283
▁James	-10.0283
ear	-10.0291
▁eastern	-10.0299
▁category	-10.0299
lon	-10.0301
from	-10.0301
▁32	-10.0306
▁touch	-10.0312
▁radio	-10.0316
her	-10.0318
▁tail	-10.0319
▁issues	-10.0319
over	-10.032
ins	-10.0321
100	-10.0326
▁pick	-10.0331
▁Mac	-10.0337
▁media	-10.0344
▁grade	-10.0344
▁periods	-10.035
gon	-10.0352
▁Los	-10.0355
▁Federal	-10.0364
fi	-10.0365
▁influence	-10.0374
▁earnings	-10.0375
▁recommend	-10.0377
▁sp	-10.0382
▁Select	-10.0383
▁menu	-10.0385
▁Confidence	-10.0385
▁please	-10.0386
ip	-10.0388
▁providing	-10.0403
▁Sha	-10.0405
▁occurring	-10.0411
▁Hu	-10.0413
▁magnesium	-10.0414
izing	-10.0414
▁vegetable	-10.0419
▁breathing	-10.042
▁spoken	-10.0423
▁Mu	-10.0427
▁shell	-10.043
ula	-10.0434
▁obtain	-10.0435
▁exactly	-10.0435
▁heal	-10.0436
▁fill	-10.0437
99	-10.0441
▁tongue	-10.0443
zo	-10.0446
55	-10.0457
▁adding	-10.046
▁bright	-10.0464
▁describes	-10.0474
▁supplement	-10.0475
▁events	-10.048
▁drain	-10.048
emia	-10.0483
▁associate	-10.0488
05	-10.0497
▁retirement	-10.0498
▁Republic	-10.0501
tes	-10.0504
▁stands	-10.0516
▁bird	-10.0519
▁customers	-10.0522
▁goods	-10.0529
▁Vi	-10.053
▁nodes	-10.0542
70	-10.0543
▁happens	-10.0562
▁prescription	-10.0563
▁Northern	-10.0574
▁package	-10.0579
▁cents	-10.0579
▁custom	-10.0586
▁author	-10.059
▁road	-10.0593
▁2007	-10.0594
▁lies	-10.0595
▁disc	-10.0601
cy	-10.0601
8%	-10.0605
▁mammals	-10.0605
▁notice	-10.0615
▁sit	-10.0623
tru	-10.0626
▁coverage	-10.0626
▁forest	-10.0626
▁foil	-10.063
▁nitrogen	-10.0642
▁driveway	-10.0646
uc	-10.0647
▁plasma	-10.0651
back	-10.0661
▁except	-10.0662
17	-10.0668
▁frozen	-10.067
▁published	-10.0671
ville	-10.0673
ov	-10.0677
sive	-10.0685
▁Ti	-10.0698
14	-10.0699
▁Yes	-10.0704
▁Bi	-10.0708
▁characteristic	-10.0708
form	-10.071
▁bile	-10.0711
▁$9	-10.0711
▁flag	-10.0713
▁adjective	-10.0718
▁becoming	-10.0726
64	-10.0735
▁31	-10.0737
inch	-10.0737
▁gases	-10.0739
▁ham	-10.0742
▁domestic	-10.075
▁narrow	-10.0751
▁approach	-10.0752
▁pH	-10.0752
▁Bake	-10.0758
▁fight	-10.0759
▁sq	-10.076
US	-10.0763
rd	-10.0768
▁2015.	-10.0777
▁Overview	-10.0778
▁specialized	-10.078
▁bleeding	-10.0782
▁ha	-10.0784
▁desert	-10.0785
▁believed	-10.0787
▁developing	-10.0801
▁colour	-10.0803
▁grain	-10.0807
▁format	-10.081
▁Nurse	-10.0812
▁engineering	-10.0815
▁executive	-10.0819
▁devices	-10.0831
▁expression	-10.0834
▁Gu	-10.0836
▁item	-10.0837
▁bake	-10.0841
▁Ri	-10.0844
▁prepared	-10.0844
▁skeletal	-10.0849
▁Standard	-10.0857
▁easier	-10.0857
▁maintenance	-10.086
▁forming	-10.0861
▁memory	-10.0864
▁contagious	-10.0872
▁load	-10.0873
ane	-10.0876
▁Lu	-10.0881
▁raise	-10.0882
ose	-10.0884
▁premium	-10.0887
▁smell	-10.0888
▁picture	-10.0891
▁symptom	-10.0891
▁operating	-10.0891
▁reaches	-10.0895
▁Examples	-10.0896
AN	-10.0897
lar	-10.0898
off	-10.0905
▁owner	-10.0912
▁poly	-10.0917
▁giving	-10.0921
LE	-10.0923
▁physician	-10.0927
▁Therefore	-10.0932
▁Today	-10.0946
▁texture	-10.0947
▁database	-10.0952
▁Hi	-10.0954
▁press	-10.0956
▁mm	-10.0957
▁receptors	-10.0958
▁$10,000	-10.0959
▁George	-10.0963
▁Pe	-10.0969
▁cats	-10.0974
ight	-10.0975
01	-10.0978
▁Read	-10.0979
▁cartilage	-10.0981
CO	-10.0987
▁station	-10.0988
▁reading	-10.0988
▁wait	-10.0991
▁painful	-10.0995
▁quarter	-10.0998
▁cytoplasm	-10.1
▁Medicare	-10.1013
▁2008	-10.1014
▁path	-10.1019
▁hemoglobin	-10.1025
▁completed	-10.1027
ice	-10.1033
king	-10.1034
▁extension	-10.1036
▁bo	-10.1041
▁rose	-10.1044
▁Court	-10.1047
▁cough	-10.1052
▁Office	-10.1055
▁females	-10.1061
33	-10.1069
▁48	-10.1073
▁composition	-10.1078
▁remaining	-10.1078
▁burn	-10.108
pt	-10.1083
▁calculated	-10.1087
ai	-10.1091
▁mold	-10.1092
▁survive	-10.1093
▁Take	-10.1097
26	-10.1098
▁36	-10.11
▁numerous	-10.1101
▁remember	-10.1102
▁allowed	-10.1107
ue	-10.1109
36	-10.1111
▁babies	-10.1113
▁wages	-10.112
▁constant	-10.1121
▁sent	-10.1127
▁nine	-10.1129
fish	-10.1129
▁duct	-10.1139
▁calculate	-10.1147
▁dead	-10.1149
▁Education	-10.1151
▁Open	-10.116
▁Civil	-10.1163
▁sale	-10.1164
▁concept	-10.1168
▁trip	-10.1168
all	-10.1173
▁males	-10.1174
▁Plant	-10.1175
▁closely	-10.1183
ola	-10.1183
▁learning	-10.1185
▁Facebook	-10.1186
▁yearly	-10.1188
▁consist	-10.119
▁auto	-10.1193
-2	-10.1193
▁li	-10.1198
6%	-10.1201
yn	-10.1204
▁detect	-10.1207
AL	-10.1207
▁county	-10.1216
▁nest	-10.122
fin	-10.1225
▁29	-10.1234
▁write	-10.1242
▁dominant	-10.1248
▁calculator	-10.1249
▁exact	-10.1252
▁feeling	-10.1253
▁ingredient	-10.1254
▁dairy	-10.1257
▁mechanical	-10.1268
▁questions	-10.1271
ification	-10.1272
▁diagnosis	-10.1272
▁opposite	-10.1292
▁provider	-10.1293
▁classes	-10.1296
▁players	-10.1296
▁Bank	-10.1305
▁compare	-10.1309
▁died	-10.1311
▁quick	-10.1313
▁anterior	-10.1319
▁neuron	-10.1323
▁Alaska	-10.1324
▁significantly	-10.1324
▁antibodies	-10.1327
▁goal	-10.1327
▁visible	-10.1335
▁consisting	-10.1336
ny	-10.1339
▁400	-10.134
▁ions	-10.1344
▁tab	-10.1352
▁attempt	-10.1355
▁removal	-10.1355
▁plans	-10.1359
▁increasing	-10.136
mat	-10.136
▁represent	-10.1362
▁coffee	-10.1371
▁IRS	-10.1374
bu	-10.1375
▁purchased	-10.1376
▁variation	-10.1376
▁driver	-10.138
▁Law	-10.138
=	-10.1388
fa	-10.139
▁kids	-10.1392
lum	-10.1395
art	-10.1396
▁secondary	-10.1399
▁exist	-10.1405
amine	-10.1409
▁cable	-10.1416
ew	-10.1422
ns	-10.1425
▁Non	-10.1428
▁finish	-10.1428
▁attention	-10.1431
▁contraction	-10.1433
▁planning	-10.1437
▁Photo	-10.1438
▁Zealand	-10.1439
▁chance	-10.1443
▁gift	-10.1443
▁linked	-10.1446
▁En	-10.1449
▁(4	-10.145
▁Business	-10.1463
▁oldest	-10.1463
▁else	-10.1467
▁request	-10.1475
▁vital	-10.1476
▁pe	-10.1476
▁review	-10.1487
▁Group	-10.1488
▁excellent	-10.1495
▁moisture	-10.15
▁weigh	-10.1505
▁fl	-10.1509
▁cent	-10.1512
▁ribs	-10.1514
dL	-10.1516
▁kg	-10.1521
);	-10.1521
▁Life	-10.1524
▁synthesis	-10.1527
▁frame	-10.1529
MS	-10.1536
29	-10.1536
IN	-10.1542
7%	-10.1543
▁Number	-10.1548
▁seconds	-10.1548
MA	-10.1554
▁Inc	-10.1556
▁Green	-10.1557
set	-10.156
23	-10.1568
▁Americans	-10.157
▁abdomen	-10.1572
▁society	-10.1572
RA	-10.1579
▁manager	-10.1591
▁strand	-10.1593
▁wheat	-10.1605
▁$5,000	-10.161
▁residents	-10.1611
▁mono	-10.1613
98	-10.1614
▁$14	-10.1617
▁went	-10.1623
▁forward	-10.1631
▁flows	-10.1636
▁Su	-10.1646
▁industrial	-10.1649
▁transmitted	-10.165
▁Ke	-10.1651
▁functional	-10.1653
▁command	-10.1657
▁Human	-10.1663
▁supplements	-10.1666
▁weakness	-10.1671
▁race	-10.1671
▁Preheat	-10.1674
▁resting	-10.1689
cul	-10.169
ung	-10.1695
AR	-10.1697
2%	-10.1702
▁users	-10.1702
▁accounts	-10.1702
▁signal	-10.1705
91	-10.1707
▁leaf	-10.1708
▁dried	-10.1715
▁delivery	-10.172
▁toward	-10.1721
head	-10.1729
ko	-10.1735
▁die	-10.1736
▁Tax	-10.1737
uff	-10.174
paid	-10.1741
▁($	-10.1744
▁Canadian	-10.1746
ho	-10.1751
▁images	-10.1754
sta	-10.176
▁Using	-10.1763
ries	-10.1763
▁agents	-10.1773
▁output	-10.1788
▁talk	-10.1791
▁density	-10.1792
▁kill	-10.1792
&	-10.1792
▁sexual	-10.1793
▁earlier	-10.1797
▁creating	-10.1797
we	-10.18
▁le	-10.1814
▁resistance	-10.1818
▁receives	-10.1821
▁Wi	-10.1822
gar	-10.1825
▁homes	-10.1825
▁Free	-10.1831
▁depth	-10.1835
▁plates	-10.1836
ious	-10.1838
-3	-10.184
▁lab	-10.1841
▁Southern	-10.1843
▁played	-10.1846
▁steam	-10.1847
▁algae	-10.1847
▁poor	-10.1852
▁assistant	-10.1858
▁Post	-10.1859
▁Program	-10.186
▁lamb	-10.1861
▁comparison	-10.1864
▁controlled	-10.1864
cha	-10.1864
▁penalty	-10.1868
▁collected	-10.1868
▁desired	-10.1869
▁2013,	-10.1879
▁critical	-10.1879
car	-10.188
▁pulmonary	-10.1882
▁follows	-10.1896
▁par	-10.1896
▁suggest	-10.1896
▁Thus	-10.1897
▁lemon	-10.1898
▁identified	-10.1901
▁arms	-10.1902
ther	-10.1915
light	-10.1916
ax	-10.1916
▁refund	-10.1918
▁straight	-10.1918
gg	-10.1919
▁offered	-10.1919
▁capacity	-10.1926
▁monitor	-10.1929
▁tank	-10.193
▁tumor	-10.1931
tern	-10.1933
▁electronic	-10.1938
▁recently	-10.1942
▁dense	-10.1942
▁permanent	-10.1944
nce	-10.1944
ens	-10.1946
▁estimates	-10.195
▁pump	-10.1951
▁instructions	-10.1955
▁beta	-10.1956
ging	-10.1959
▁allergic	-10.1964
▁History	-10.1965
▁stream	-10.1967
▁Type	-10.1968
▁spray	-10.1986
▁employed	-10.1987
▁u	-10.1989
▁ages	-10.1992
CH	-10.1994
▁Blue	-10.1995
ata	-10.1996
▁civil	-10.1997
▁cast	-10.1998
▁description	-10.1999
▁stones	-10.2006
▁Anti	-10.2008
▁replaced	-10.2009
▁seem	-10.2011
▁airport	-10.2017
▁spent	-10.202
▁recipe	-10.2022
▁circuit	-10.2023
▁toxic	-10.2031
▁invented	-10.2032
ica	-10.2032
▁ho	-10.2033
▁ca	-10.2035
▁former	-10.2035
▁po	-10.2038
▁measurement	-10.204
▁employment	-10.2056
In	-10.206
▁exposed	-10.206
▁stick	-10.2061
▁led	-10.2061
▁Manager	-10.2066
▁Ireland	-10.2066
▁mile	-10.2071
▁biggest	-10.2079
▁eventually	-10.2079
▁orbit	-10.208
▁Muscle	-10.2083
▁friend	-10.2086
▁nothing	-10.2088
▁Baby	-10.2088
ric	-10.2089
27	-10.209
▁£	-10.209
▁ta	-10.2092
▁coal	-10.2096
pre	-10.2097
▁insects	-10.2107
▁extreme	-10.2114
▁gross	-10.2118
▁consume	-10.2119
▁Total	-10.2125
▁soluble	-10.2126
▁Well	-10.213
▁sensory	-10.2132
▁ends	-10.2135
PA	-10.2139
▁lived	-10.2139
▁dietary	-10.2144
▁Long	-10.2145
08	-10.2148
▁ma	-10.215
▁moderate	-10.2151
▁recognized	-10.2156
▁width	-10.2156
▁nuts	-10.2157
▁tip	-10.2158
▁tools	-10.2158
ren	-10.2162
▁incubation	-10.2169
▁wish	-10.217
▁structural	-10.2175
level	-10.2178
ker	-10.2181
▁branches	-10.2184
q	-10.2185
▁linear	-10.2189
▁Georgia	-10.219
▁compensation	-10.2194
▁supplies	-10.2194
▁Google	-10.2201
▁Heat	-10.2207
,000.	-10.221
▁mar	-10.2211
,”	-10.2212
▁train	-10.2214
37	-10.2222
▁Costs	-10.2223
▁context	-10.2225
ham	-10.2227
▁damaged	-10.2231
▁display	-10.2234
▁happen	-10.2234
▁sum	-10.2239
▁Page	-10.2243
▁BLS	-10.2247
▁handle	-10.2251
called	-10.2256
sp	-10.2262
▁signed	-10.2264
▁mis	-10.2267
▁technique	-10.2272
▁Du	-10.2273
▁controls	-10.2275
▁Carolina	-10.2277
▁Am	-10.2282
long	-10.2284
▁pi	-10.2284
pan	-10.2285
▁trying	-10.2286
▁variant	-10.229
▁serves	-10.2293
▁Islands	-10.2293
▁pull	-10.2299
▁CA	-10.2302
▁dependent	-10.2303
▁certification	-10.2303
▁List	-10.2306
tain	-10.2309
ki	-10.2312
▁objects	-10.2315
▁foundation	-10.2316
▁mail	-10.2319
▁staff	-10.232
▁mark	-10.2321
▁Those	-10.2325
qua	-10.2325
▁membranes	-10.2327
▁Britain	-10.2329
don	-10.233
34	-10.233
▁Only	-10.234
▁signals	-10.2343
▁psychology	-10.2347
▁environmental	-10.235
▁debt	-10.2351
▁consumption	-10.2355
▁prepare	-10.2357
▁Che	-10.2361
har	-10.2365
2.	-10.2365
▁figures	-10.2368
▁Care	-10.2368
▁album	-10.237
▁Up	-10.237
▁bacterium	-10.2373
▁strain	-10.2374
ction	-10.2375
38	-10.2376
ade	-10.2377
mus	-10.2378
▁contribution	-10.2379
▁moon	-10.2379
▁vomiting	-10.238
bar	-10.2381
▁Usually	-10.2382
▁Credit	-10.2382
▁tips	-10.2383
▁conduct	-10.2384
▁electron	-10.2387
▁letters	-10.2387
▁pairs	-10.2388
▁prefer	-10.2391
▁respond	-10.2395
▁reached	-10.24
▁eligible	-10.2402
▁deposit	-10.2403
▁tile	-10.2406
▁moves	-10.2408
▁pituitary	-10.2412
▁usage	-10.2412
cus	-10.2416
▁drinking	-10.2417
44	-10.2418
▁spot	-10.242
▁brought	-10.2426
▁lo	-10.2426
31	-10.2427
▁sites	-10.2428
▁$400	-10.2434
▁Typically	-10.244
▁Russia	-10.2443
▁$60	-10.2445
66	-10.245
▁decide	-10.2451
▁dangerous	-10.2457
▁voice	-10.2461
more	-10.2466
istic	-10.2467
▁ship	-10.2471
▁originated	-10.2475
with	-10.2475
39	-10.2477
▁autoimmune	-10.2479
0.	-10.2479
▁starch	-10.2481
▁para	-10.2482
▁forests	-10.2488
▁bowel	-10.2488
water	-10.2489
▁extract	-10.2494
▁(#	-10.2497
▁humidity	-10.2502
▁350	-10.2505
▁morning	-10.2506
▁certified	-10.2516
▁Microsoft	-10.2517
▁processed	-10.252
work	-10.2522
73	-10.2523
▁trust	-10.2524
▁pop	-10.2528
▁pretty	-10.2532
3%	-10.2535
▁fridge	-10.2537
▁manufacturing	-10.2541
▁transmission	-10.2541
ik	-10.2549
▁muscular	-10.255
about	-10.2551
▁licensed	-10.2552
▁hypo	-10.2555
▁wet	-10.2557
▁oxide	-10.2559
▁rib	-10.2559
48	-10.2559
rin	-10.2561
hu	-10.2565
ura	-10.2572
▁situated	-10.2577
▁situation	-10.2579
▁zip	-10.2581
low	-10.2587
▁Test	-10.259
▁Set	-10.2595
▁mobile	-10.2603
▁Enter	-10.2605
▁cultural	-10.2612
▁contractor	-10.2612
▁carried	-10.2613
pp	-10.2618
▁percentile	-10.2619
AT	-10.2619
han	-10.2629
▁Har	-10.2631
▁scar	-10.2634
▁switch	-10.2634
▁aluminum	-10.2635
▁valid	-10.2638
▁issued	-10.2638
▁Amendment	-10.2642
▁understanding	-10.2646
▁coming	-10.2648
▁Introduction	-10.2649
▁procedures	-10.2656
▁deck	-10.2657
▁academic	-10.2658
▁Good	-10.2663
dic	-10.2674
ius	-10.2679
▁kilometers	-10.2679
▁successful	-10.2683
▁differ	-10.2685
▁laboratory	-10.269
79	-10.2694
▁tear	-10.2696
▁adrenal	-10.2698
▁principal	-10.2707
▁Unlike	-10.271
▁beyond	-10.2712
▁PC	-10.2716
org	-10.2724
4%	-10.2724
▁favorite	-10.2727
CA	-10.2729
▁destination	-10.273
▁split	-10.2734
▁sugars	-10.2735
,400	-10.2737
▁Salaries	-10.2739
▁Fe	-10.2741
late	-10.2745
ct	-10.2746
▁Ko	-10.2748
▁em	-10.2748
lia	-10.2754
▁receptor	-10.2755
▁domain	-10.2765
▁Egypt	-10.2771
▁accounting	-10.2771
▁RE	-10.2771
cho	-10.2774
▁harmful	-10.2776
▁Star	-10.2783
▁marketing	-10.2784
tis	-10.2786
▁facility	-10.2789
▁burning	-10.279
▁instrument	-10.2793
▁Cu	-10.2795
▁Ru	-10.2795
ination	-10.2795
▁2006	-10.2802
vel	-10.2804
ix	-10.2807
▁limits	-10.2807
ory	-10.2815
▁sort	-10.2819
▁eaten	-10.2821
▁Tra	-10.2824
rum	-10.2825
▁huge	-10.2826
ris	-10.2831
▁uterus	-10.2831
▁indicates	-10.2836
88	-10.2837
▁visual	-10.284
▁mature	-10.2843
▁agencies	-10.2845
ised	-10.2847
house	-10.2849
ob	-10.2849
▁BC	-10.2851
▁$2,000	-10.2853
07	-10.2855
▁continent	-10.2858
▁nationwide	-10.2859
known	-10.2859
▁counter	-10.2859
▁metals	-10.2863
▁anyone	-10.2863
▁raised	-10.2865
▁(1)	-10.2868
▁decision	-10.287
tter	-10.2875
▁sperm	-10.2886
▁slowly	-10.2887
▁connection	-10.289
▁gram	-10.2891
▁moist	-10.2891
▁ion	-10.2896
▁doctors	-10.2898
▁marine	-10.2899
▁iPhone	-10.29
▁covering	-10.2902
▁canal	-10.2904
▁Description	-10.2905
▁bridge	-10.2907
▁%	-10.2909
▁$75	-10.291
▁surgical	-10.2913
▁posterior	-10.2914
ans	-10.2914
▁watch	-10.2915
5°	-10.292
row	-10.2923
▁renal	-10.2928
▁seems	-10.2932
▁facts	-10.2935
▁carbohydrate	-10.2939
▁accurate	-10.294
▁cubic	-10.2943
▁Port	-10.2944
▁detailed	-10.2946
iv	-10.2948
▁absorbed	-10.2951
med	-10.2952
illa	-10.2952
▁beats	-10.2953
▁Atlantic	-10.2957
bin	-10.2959
▁hyper	-10.2959
▁certificate	-10.296
mic	-10.296
46	-10.2963
▁Turn	-10.2965
▁painting	-10.2965
related	-10.2966
▁Board	-10.2971
▁communication	-10.2972
▁accept	-10.2973
vis	-10.2974
▁experienced	-10.2978
▁obtained	-10.2978
▁speech	-10.2979
▁payments	-10.2982
▁fairly	-10.2983
press	-10.2983
▁books	-10.2986
▁nausea	-10.2993
▁promote	-10.2996
▁leads	-10.2997
▁converted	-10.2999
▁postings	-10.3
▁server	-10.3
▁infectious	-10.3003
cor	-10.3007
▁stroke	-10.3019
▁stable	-10.3029
ular	-10.3029
▁eukaryotic	-10.303
▁Normal	-10.3033
tan	-10.3037
▁volcano	-10.3037
▁respectively	-10.3038
▁Chi	-10.3044
▁Te	-10.3047
most	-10.3047
▁withdrawal	-10.3047
including	-10.3048
▁Dis	-10.3048
▁breakdown	-10.305
▁passes	-10.3055
▁Project	-10.3059
▁Web	-10.3062
▁$35	-10.3065
tation	-10.3068
▁panel	-10.3069
▁pulse	-10.3075
▁cardiac	-10.3077
92	-10.3082
az	-10.3085
▁bases	-10.3085
▁biology	-10.3092
ST	-10.31
▁mutation	-10.3111
1,	-10.3112
type	-10.3116
49	-10.312
hr	-10.3129
▁roasting	-10.3131
zz	-10.3132
▁excessive	-10.3132
▁photosynthesis	-10.3134
▁bloodstream	-10.3137
▁Below	-10.314
▁menstrual	-10.3149
cro	-10.3153
▁pack	-10.3156
name	-10.316
▁preparation	-10.3167
▁Cover	-10.3171
▁university	-10.3172
▁lateral	-10.3185
▁sports	-10.3192
83	-10.3193
ological	-10.3193
▁closed	-10.3195
▁settings	-10.3196
▁dance	-10.3197
1%	-10.3203
▁blend	-10.3204
▁circle	-10.3205
▁filing	-10.3206
▁ro	-10.3207
▁gallon	-10.3211
▁qu	-10.3212
▁permit	-10.3221
ino	-10.3225
bit	-10.3225
▁Every	-10.3226
duc	-10.3226
▁trial	-10.3234
▁fungus	-10.3234
▁250	-10.3236
▁Art	-10.3242
▁silver	-10.3242
cing	-10.3246
ments	-10.3252
▁forces	-10.3261
▁antibiotics	-10.3262
oo	-10.3266
▁vinegar	-10.3268
ware	-10.3269
▁abundant	-10.3272
ED	-10.3274
▁towards	-10.328
▁metabolic	-10.3282
▁locations	-10.3283
▁Census	-10.3287
▁lava	-10.3287
▁Ch	-10.3289
▁deliver	-10.3292
▁Plan	-10.3296
▁manage	-10.3298
ral	-10.3299
76	-10.3303
▁(5	-10.3309
▁generate	-10.3322
▁absorption	-10.3325
▁gray	-10.3326
▁Dutch	-10.3326
▁Cat	-10.3329
,800	-10.3337
▁ne	-10.3345
▁Research	-10.3346
▁contributions	-10.3347
▁label	-10.3353
▁Cal	-10.3353
▁graduate	-10.3355
▁Rating	-10.3363
▁fan	-10.3368
▁vs	-10.3368
▁retail	-10.337
rt	-10.337
▁$16	-10.3373
▁cotton	-10.3378
▁everyone	-10.3381
▁edge	-10.3382
▁regulate	-10.3383
▁corporation	-10.3383
▁rack	-10.3385
04	-10.3386
▁digest	-10.3388
val	-10.3391
▁Class	-10.3392
pen	-10.3394
bb	-10.3396
ute	-10.3398
▁garage	-10.3398
▁spelling	-10.3399
▁agency	-10.3399
▁fatigue	-10.3408
▁peel	-10.3417
86	-10.3423
▁organelles	-10.3424
▁speak	-10.3429
▁movements	-10.343
▁farm	-10.343
▁holiday	-10.3437
▁healing	-10.344
89	-10.3444
▁#	-10.3446
▁Ni	-10.3451
▁origins	-10.3454
ations	-10.3456
▁finger	-10.346
▁gum	-10.3461
▁MRI	-10.3466
IC	-10.3472
▁Wikipedia	-10.3476
▁accepted	-10.3483
▁Ja	-10.3488
ud	-10.3489
▁mountains	-10.3497
▁vessel	-10.3499
03	-10.3507
▁rarely	-10.3508
▁1,000	-10.3509
▁falls	-10.3509
▁allowing	-10.351
▁vein	-10.3513
▁dishes	-10.3514
▁peripheral	-10.3515
▁enable	-10.3517
▁attacks	-10.352
▁Mediterranean	-10.352
▁index	-10.352
field	-10.3527
non	-10.3528
RE	-10.353
▁economy	-10.353
▁HIV	-10.3531
▁doses	-10.3534
▁brush	-10.3535
▁anemia	-10.354
jo	-10.3542
nes	-10.355
▁classification	-10.3551
▁moved	-10.3553
▁im	-10.3558
gue	-10.3561
▁molecular	-10.3564
▁Low	-10.3564
▁sentence	-10.3566
ned	-10.3569
▁pa	-10.357
TA	-10.3572
500	-10.3573
▁ounces	-10.3576
▁$19	-10.3576
▁chloride	-10.358
▁volcanic	-10.3589
▁superior	-10.3589
▁professionals	-10.3597
▁friends	-10.3597
▁bottle	-10.3599
▁facilities	-10.3599
▁hydro	-10.36
▁Start	-10.36
68	-10.3602
ides	-10.3605
▁meals	-10.3609
▁du	-10.3609
▁teacher	-10.3612
▁Heart	-10.3613
▁yard	-10.3615
▁positions	-10.3621
▁sunlight	-10.363
72	-10.3631
▁Science	-10.3633
▁advanced	-10.3638
▁Out	-10.3639
56	-10.3641
▁novel	-10.3646
▁filled	-10.3654
str	-10.3655
ero	-10.3662
▁intended	-10.367
▁route	-10.3674
▁collagen	-10.3674
▁giant	-10.3674
pl	-10.3684
▁shall	-10.3687
▁otherwise	-10.3691
▁worldwide	-10.3691
▁habitat	-10.3697
▁underlying	-10.3699
▁span	-10.3707
▁bed	-10.3711
▁segment	-10.3717
eb	-10.3718
mg	-10.3726
▁acre	-10.3729
▁prominent	-10.3729
▁kingdom	-10.3729
nate	-10.3734
94	-10.3743
air	-10.3747
▁Though	-10.3752
▁epi	-10.3754
ita	-10.3756
▁join	-10.3756
▁ranked	-10.3758
van	-10.3759
well	-10.3765
▁pigment	-10.3766
▁thickness	-10.3773
▁operation	-10.3776
▁listing	-10.3786
▁Bill	-10.3786
▁biome	-10.3787
ena	-10.3802
▁endocrine	-10.3805
tre	-10.3809
▁string	-10.3821
▁wrap	-10.3824
▁television	-10.3825
▁Fi	-10.3826
▁filter	-10.383
▁rub	-10.383
▁Men	-10.3831
09	-10.3838
▁rental	-10.3838
▁divide	-10.384
▁cheaper	-10.3843
▁statement	-10.3844
▁earns	-10.3851
▁hearing	-10.3851
IS	-10.3853
▁collect	-10.3855
▁sounds	-10.3856
▁prescribed	-10.3856
▁belongs	-10.386
▁Cha	-10.3866
▁decay	-10.3866
▁Eastern	-10.3868
ulate	-10.3868
cin	-10.387
▁opened	-10.3873
,600	-10.3875
06	-10.3876
▁wrong	-10.3876
▁Mount	-10.3892
par	-10.39
▁married	-10.3901
▁colleges	-10.3902
▁changing	-10.3912
▁synthetic	-10.3913
▁cow	-10.3919
▁earning	-10.3923
▁achieve	-10.3923
▁nutrition	-10.3927
▁$13	-10.3927
▁asked	-10.3929
78	-10.3935
▁Massachusetts	-10.3937
dia	-10.3938
-19	-10.3939
usually	-10.3939
▁association	-10.3942
▁catch	-10.3949
▁snow	-10.3951
▁daughter	-10.3953
▁schedule	-10.3967
▁conversion	-10.3968
▁personality	-10.3976
▁20%	-10.3981
▁explain	-10.3983
▁modified	-10.3984
▁honey	-10.3984
▁imp	-10.3984
▁village	-10.3989
▁rapidly	-10.3989
96	-10.3994
▁Rock	-10.3998
▁2014,	-10.4008
▁capable	-10.4009
ify	-10.4011
▁generation	-10.4018
▁circulation	-10.402
▁courses	-10.402
81	-10.4021
.50	-10.4025
▁Da	-10.4028
▁yield	-10.403
▁projects	-10.4031
▁closer	-10.4032
▁statistics	-10.4033
▁magnetic	-10.4033
▁inherited	-10.4037
9%	-10.4044
▁smallest	-10.4045
▁$3,000	-10.4045
mes	-10.4048
TH	-10.4049
▁Light	-10.4049
▁$250	-10.405
▁lbs	-10.4053
wi	-10.4058
du	-10.4059
gu	-10.4061
▁somewhat	-10.4064
ros	-10.407
▁lawn	-10.4071
▁Ju	-10.4076
down	-10.4076
▁treatments	-10.4078
▁headache	-10.408
▁documents	-10.4083
rine	-10.4085
▁discount	-10.4089
▁photos	-10.4089
mor	-10.409
▁Rights	-10.4098
edit	-10.41
97	-10.4103
▁technician	-10.4105
▁bear	-10.4108
▁Government	-10.4122
▁scientists	-10.4122
▁Sal	-10.4126
-10	-10.4126
▁categories	-10.4129
▁meter	-10.4131
74	-10.4135
▁sh	-10.4135
▁180	-10.4138
▁operations	-10.4139
▁coli	-10.4144
▁centre	-10.4147
▁religion	-10.415
▁spending	-10.415
▁hundred	-10.4152
▁Hawaii	-10.4156
▁generic	-10.4162
▁Rh	-10.4167
▁exists	-10.4171
▁Control	-10.4177
▁fun	-10.418
▁soy	-10.4186
▁client	-10.4186
▁tumors	-10.4191
▁assist	-10.4191
▁55	-10.4192
▁2005	-10.4194
▁park	-10.4195
▁Causes	-10.4196
uk	-10.4196
▁separated	-10.4196
▁Age	-10.4197
▁speaking	-10.4203
▁lobe	-10.4204
hy	-10.4205
▁claims	-10.4205
some	-10.4206
▁younger	-10.4212
ING	-10.4214
▁Word	-10.4218
vert	-10.4223
▁respect	-10.4225
▁rough	-10.4226
br	-10.4229
▁combine	-10.4229
▁healthcare	-10.4231
▁Sch	-10.424
▁neuro	-10.4241
▁background	-10.4242
▁aren	-10.4242
▁centuries	-10.4245
▁sore	-10.4249
▁extent	-10.4253
ford	-10.4261
▁membership	-10.4262
▁paste	-10.4267
▁qualify	-10.427
,300	-10.4274
▁Amazon	-10.4277
▁cerebral	-10.4277
▁standards	-10.4283
▁unusual	-10.4287
▁Roast	-10.4288
77	-10.4288
▁freeze	-10.4289
ography	-10.429
▁Institute	-10.4293
▁sensation	-10.4293
▁belong	-10.4294
▁cha	-10.4294
▁secreted	-10.4297
▁interior	-10.4303
ons	-10.4304
▁success	-10.4307
▁Bra	-10.431
ick	-10.4312
▁fly	-10.4312
6,000	-10.4315
▁largely	-10.4331
▁links	-10.4331
▁angle	-10.4334
▁Scottish	-10.4334
▁inflammatory	-10.4334
▁mentioned	-10.4345
▁manner	-10.4349
ES	-10.4357
nch	-10.436
▁Area	-10.436
▁Trans	-10.4361
▁Next	-10.4362
▁register	-10.4362
body	-10.4364
▁holds	-10.4365
bra	-10.4368
▁Energy	-10.4373
▁suggests	-10.4373
▁possibly	-10.4376
▁sa	-10.4376
▁actor	-10.4379
▁NOT	-10.4379
TM	-10.4379
▁Ver	-10.4381
zi	-10.4383
▁breeds	-10.4383
▁Mexican	-10.4383
▁fourth	-10.4385
▁corner	-10.4397
87	-10.4401
▁$18	-10.4402
▁insert	-10.4407
▁rid	-10.4409
▁ch	-10.441
▁log	-10.4412
▁(18	-10.4415
▁told	-10.442
▁RN	-10.4423
▁involve	-10.4423
▁Inter	-10.4423
ala	-10.4433
▁Insurance	-10.4443
▁Robert	-10.4443
▁shingles	-10.4445
▁ceiling	-10.4448
ong	-10.445
▁breaks	-10.445
59	-10.4451
▁beer	-10.4453
47	-10.4457
▁lb	-10.4459
▁surgeon	-10.4459
▁match	-10.4469
▁unknown	-10.4472
aw	-10.4473
▁Wall	-10.4474
▁Charles	-10.4475
▁leader	-10.4483
▁officer	-10.4484
▁tap	-10.4485
▁Greece	-10.4486
uring	-10.449
▁stars	-10.4494
▁100%	-10.4496
▁Mon	-10.4496
ets	-10.4497
atic	-10.4502
▁plural	-10.4502
els	-10.4503
▁Power	-10.4508
▁leaving	-10.4519
▁rapid	-10.4519
▁Pan	-10.4524
LA	-10.4526
▁assets	-10.4532
▁carbs	-10.4533
und	-10.4535
▁cutting	-10.4536
▁express	-10.4537
▁microwave	-10.454
▁sink	-10.4546
▁hear	-10.4548
part	-10.4549
▁fence	-10.4549
▁temp	-10.4552
2,	-10.4553
▁king	-10.4555
ill	-10.4559
▁$1,500	-10.4564
cu	-10.4571
▁hope	-10.4574
▁Sub	-10.4576
▁treating	-10.4576
▁medicines	-10.4576
▁print	-10.4579
▁saturated	-10.4579
▁Ly	-10.458
▁fur	-10.4581
▁extended	-10.4582
▁yogurt	-10.4589
▁occupation	-10.4591
1.	-10.4593
▁shot	-10.4594
yr	-10.4596
▁longest	-10.4597
▁roll	-10.46
▁oz	-10.46
▁1.5	-10.46
%	-10.4601
ake	-10.4602
▁movie	-10.4602
▁meeting	-10.4605
▁truck	-10.4617
ada	-10.4621
▁br	-10.4627
▁replication	-10.463
▁liability	-10.4634
▁usual	-10.4635
▁fossil	-10.4637
AS	-10.4639
gy	-10.4641
ari	-10.4644
▁residential	-10.4645
▁gl	-10.4649
ants	-10.4651
nu	-10.4651
▁sharp	-10.4661
▁steaks	-10.4664
▁relieve	-10.4668
▁Search	-10.4668
mar	-10.4675
▁familiar	-10.4677
▁Services	-10.4685
▁dollar	-10.4687
▁mu	-10.4688
▁formal	-10.4688
ates	-10.4694
▁vast	-10.4694
▁$80	-10.4696
02	-10.4699
▁ventricle	-10.4699
▁teachers	-10.47
▁gel	-10.4701
-12	-10.4702
high	-10.4703
▁injuries	-10.4705
point	-10.4707
▁Columbia	-10.4712
▁su	-10.4713
▁min	-10.4713
▁keeping	-10.4713
▁didn	-10.4714
▁Valley	-10.4717
▁tendon	-10.4719
▁Carbon	-10.4725
▁mode	-10.4725
▁2,000	-10.4726
▁pin	-10.4727
▁Chicago	-10.4727
▁regularly	-10.4731
▁peas	-10.4732
▁intestinal	-10.4732
▁Sh	-10.4734
ition	-10.4734
▁Medicine	-10.4738
▁hundreds	-10.474
▁Making	-10.4745
▁feeding	-10.4747
▁Mail	-10.4751
▁boundary	-10.4756
▁poisoning	-10.4761
av	-10.4763
▁Images	-10.4763
▁37	-10.4764
▁prostate	-10.4766
▁David	-10.4766
▁dosage	-10.4767
▁Coast	-10.4768
▁territory	-10.4772
▁historical	-10.4776
▁recovery	-10.4777
ore	-10.4787
▁jump	-10.4789
▁terminal	-10.4794
▁Turkey	-10.4794
▁nurses	-10.4796
▁showing	-10.4799
▁plane	-10.4799
▁Administration	-10.48
▁returns	-10.4802
▁bite	-10.4804
Re	-10.4805
▁shop	-10.4805
▁£1	-10.4806
▁attorney	-10.4811
▁undergraduate	-10.4811
▁Si	-10.4812
IP	-10.4815
▁overtime	-10.4815
▁capillaries	-10.4817
▁profile	-10.4817
▁shift	-10.4827
▁Angeles	-10.4831
▁nasal	-10.4833
▁cake	-10.4839
▁milligrams	-10.4845
▁homeowners	-10.4846
▁patterns	-10.4848
▁protective	-10.4849
▁Family	-10.485
are	-10.4851
▁turning	-10.4852
▁digital	-10.4857
des	-10.4858
▁voltage	-10.4862
▁shallow	-10.4862
tel	-10.4863
▁owners	-10.4867
▁sl	-10.4867
▁polymerase	-10.4873
tric	-10.4875
▁helpful	-10.4879
67	-10.4888
▁carpet	-10.4897
▁Example	-10.4903
neurotransmitter	-10.4906
▁creates	-10.4914
▁develops	-10.4915
▁boat	-10.4918
fu	-10.4928
▁blocks	-10.4929
fer	-10.4929
▁bound	-10.493
▁marrow	-10.493
▁Russian	-10.4933
▁boiling	-10.4937
63	-10.4938
▁lasts	-10.4939
▁syrup	-10.4941
▁extend	-10.4943
lie	-10.4945
▁Back	-10.4947
▁pneumonia	-10.4952
▁shares	-10.4952
▁lease	-10.4954
▁techniques	-10.4958
▁Treatment	-10.4964
▁agree	-10.4967
Co	-10.497
▁2011,	-10.497
▁shower	-10.4972
2,000	-10.4973
▁Early	-10.4974
▁quantity	-10.4975
▁polar	-10.4976
▁Apple	-10.4982
,200	-10.4984
▁fields	-10.4984
▁hotel	-10.4985
▁revenue	-10.4986
▁wound	-10.4993
▁sick	-10.4994
▁meanings	-10.4994
▁vascular	-10.4996
▁fa	-10.4997
▁golden	-10.4998
▁potato	-10.5002
▁contained	-10.5015
▁scores	-10.5021
ano	-10.5028
hal	-10.5029
amp	-10.503
▁1/4	-10.5033
▁bath	-10.5037
▁Senate	-10.5039
▁nutrient	-10.504
▁shorter	-10.504
▁gluten	-10.504
▁Install	-10.5042
▁games	-10.5047
▁na	-10.5048
▁marked	-10.5048
▁department	-10.5052
▁potentially	-10.5054
▁patent	-10.5063
▁define	-10.5063
ji	-10.5063
4.	-10.5068
▁magma	-10.5068
ign	-10.5068
▁occasionally	-10.507
▁zinc	-10.5072
▁reduction	-10.5075
▁continuous	-10.5084
▁Berlin	-10.5084
▁extends	-10.5084
▁intestines	-10.5087
▁Ben	-10.5088
dis	-10.5091
▁injection	-10.5092
▁frequent	-10.5094
▁rainfall	-10.5095
ble	-10.5097
▁Arabic	-10.5119
▁sizes	-10.5122
▁mitochondria	-10.5126
gra	-10.5127
▁Gold	-10.5127
▁lift	-10.5131
▁criminal	-10.5135
▁nor	-10.5144
fla	-10.5147
,700	-10.5148
ette	-10.515
▁passage	-10.5162
ele	-10.5164
▁HR	-10.5166
ay	-10.5169
▁belt	-10.5169
▁vapor	-10.517
▁Assistant	-10.5176
▁Op	-10.5177
sia	-10.5181
▁metres	-10.5182
▁automatically	-10.5182
cia	-10.5185
ju	-10.5186
▁precipitation	-10.5188
ulation	-10.5195
▁oils	-10.5197
▁horses	-10.5197
▁gallbladder	-10.5199
▁Children	-10.52
▁lots	-10.5201
era	-10.5202
cent	-10.5203
▁literature	-10.5205
▁volcanoes	-10.5208
▁Wa	-10.521
▁Disease	-10.5211
▁asphalt	-10.5211
▁Moon	-10.5212
▁Often	-10.5215
▁lymphatic	-10.5217
▁skillet	-10.5218
▁tough	-10.5222
▁Natural	-10.5223
▁Figure	-10.5224
rie	-10.5227
▁Management	-10.5228
▁shaped	-10.5237
▁mood	-10.5241
▁et	-10.5244
▁mucus	-10.5246
▁soda	-10.5249
▁selection	-10.5252
▁Save	-10.5253
▁Where	-10.5255
▁download	-10.5255
▁Foods	-10.5259
BA	-10.5259
▁Second	-10.5262
ome	-10.5268
▁curve	-10.5273
▁predict	-10.5276
▁heard	-10.5279
▁Egyptian	-10.5281
▁Colorado	-10.5287
▁thinking	-10.529
▁adopted	-10.529
▁fund	-10.5293
▁sets	-10.5296
▁identity	-10.5299
▁emergency	-10.5299
load	-10.53
▁Treaty	-10.5302
▁recover	-10.5302
ject	-10.5306
0%	-10.5309
▁disability	-10.5312
▁advantage	-10.5312
▁rod	-10.5313
▁enters	-10.5317
▁Gra	-10.5317
▁Dictionary	-10.5322
▁Christian	-10.5324
▁barrier	-10.5328
▁diagnose	-10.5329
▁therapist	-10.5349
▁technicians	-10.5349
▁chief	-10.5355
▁Mountains	-10.5355
▁affecting	-10.5357
tus	-10.5375
▁Va	-10.5377
▁$600	-10.538
▁Oldest	-10.5391
▁sensitive	-10.5392
▁trace	-10.5395
▁Arizona	-10.5399
▁Fa	-10.5401
▁greatest	-10.5403
▁Season	-10.5403
▁savings	-10.5408
▁vent	-10.5411
▁draw	-10.5412
▁600	-10.5422
▁cattle	-10.5424
▁atomic	-10.5426
oph	-10.5427
iz	-10.5427
▁Bio	-10.5428
▁Pennsylvania	-10.5429
▁annum	-10.5433
rid	-10.5434
▁Three	-10.5435
▁elected	-10.5438
▁si	-10.5441
▁chemistry	-10.5444
matic	-10.5449
▁rises	-10.5449
bl	-10.5452
ect	-10.5454
▁profession	-10.5455
▁1980	-10.5458
cur	-10.546
▁leak	-10.5465
43	-10.5469
▁stain	-10.547
▁reproductive	-10.5471
▁allele	-10.5471
▁mph	-10.5475
▁crystals	-10.5477
▁Dec	-10.548
▁seal	-10.5483
tr	-10.5488
▁Put	-10.5489
app	-10.5492
▁shock	-10.5495
▁distinguish	-10.5497
▁examination	-10.5501
ken	-10.5502
cell	-10.5502
▁commission	-10.5504
▁emotional	-10.5507
▁Range	-10.5509
life	-10.551
▁requirement	-10.551
▁exceed	-10.5516
▁Native	-10.5518
▁Cl	-10.5518
▁saw	-10.5519
▁measuring	-10.5519
▁assume	-10.5522
▁employers	-10.5522
▁chops	-10.5524
SE	-10.5527
▁visa	-10.5529
xi	-10.5531
00,000	-10.5534
ev	-10.5538
▁advance	-10.5539
▁poultry	-10.5549
▁coating	-10.555
42	-10.5553
▁vertical	-10.5555
▁consumer	-10.5559
▁crown	-10.556
▁equation	-10.5561
▁discharge	-10.5561
▁Land	-10.5565
log	-10.5567
▁Paris	-10.5567
▁purple	-10.5567
▁fair	-10.5569
▁businesses	-10.5572
▁chocolate	-10.5573
▁tendons	-10.5574
ert	-10.5575
▁ADVERTISEMENT	-10.5579
mit	-10.558
▁selected	-10.5585
▁continental	-10.5585
▁Hill	-10.5586
avi	-10.5587
▁nucleotides	-10.5588
▁regardless	-10.5592
til	-10.5592
▁beauty	-10.5597
▁Instead	-10.5597
57	-10.5599
3.	-10.5599
▁basically	-10.5604
▁spectrum	-10.5609
▁urethra	-10.5609
▁File	-10.561
▁Drug	-10.561
ama	-10.5611
▁surrounded	-10.5618
$1	-10.562
▁esophagus	-10.5622
BS	-10.5623
▁Prince	-10.5627
▁$17	-10.5629
▁assistants	-10.5631
▁seek	-10.5633
▁relief	-10.5634
▁Rate	-10.564
ense	-10.564
unt	-10.5644
4,	-10.5644
▁involving	-10.5646
▁buying	-10.5648
▁meant	-10.5651
▁2004	-10.5651
town	-10.5651
54	-10.5653
▁joined	-10.5653
▁funds	-10.5657
▁basement	-10.5662
▁cups	-10.5662
▁Whether	-10.5664
that	-10.5665
▁polymer	-10.5667
onic	-10.5668
▁odor	-10.5676
▁aorta	-10.5678
ocytes	-10.5683
▁enhance	-10.5684
84	-10.5686
serv	-10.5686
58	-10.569
ks	-10.569
▁CD	-10.569
▁transcription	-10.5691
▁manufacturer	-10.5692
▁authority	-10.5692
▁ligament	-10.5693
▁boundaries	-10.5695
▁confused	-10.5698
▁dress	-10.5713
▁input	-10.5717
-6	-10.5721
nal	-10.5722
sha	-10.5728
▁expressed	-10.573
▁2013.	-10.5732
▁uncommon	-10.5733
▁zero	-10.5738
ient	-10.574
6,	-10.574
▁qualified	-10.574
▁loose	-10.575
▁blow	-10.5752
▁poll	-10.5762
▁da	-10.5763
▁amendment	-10.5769
▁antigen	-10.5769
rr	-10.5773
▁classic	-10.5777
▁1990	-10.5778
vol	-10.578
kg	-10.5781
ery	-10.5786
▁harm	-10.5786
▁previously	-10.5787
1,000	-10.5788
▁gender	-10.5795
▁wax	-10.5798
▁perhaps	-10.5799
▁owned	-10.5799
ties	-10.5804
▁Scotland	-10.5805
▁receiving	-10.5805
▁met	-10.5811
right	-10.5815
IA	-10.5818
▁Ci	-10.582
▁senior	-10.5824
▁Thomas	-10.5824
▁District	-10.5824
▁PA	-10.5828
AP	-10.5829
▁plenty	-10.583
▁police	-10.583
▁granite	-10.5831
▁reproduction	-10.5831
▁Cre	-10.5834
▁latest	-10.5839
2)	-10.584
▁Zip	-10.5841
▁Jersey	-10.5842
▁Francisco	-10.5843
▁stretch	-10.5845
82	-10.5846
ney	-10.5846
▁Ohio	-10.5849
▁MA	-10.5849
▁pasta	-10.5849
▁sedimentary	-10.585
▁tablets	-10.5851
▁drinks	-10.5852
▁cure	-10.5853
71	-10.5854
▁cho	-10.5854
▁battle	-10.5855
▁removing	-10.5855
▁stages	-10.5856
RI	-10.5857
3,	-10.5857
▁ticket	-10.5858
▁Shi	-10.5859
ender	-10.5865
▁Rome	-10.5869
▁lender	-10.587
▁sheep	-10.5872
▁shared	-10.5876
IT	-10.5878
▁pl	-10.5884
▁igneous	-10.5892
▁destroy	-10.5896
▁ni	-10.5897
Getty	-10.59
▁cuisine	-10.5905
▁Map	-10.5905
AC	-10.5906
▁Summary	-10.5911
book	-10.5912
▁vaccination	-10.5917
▁Related	-10.5917
Ch	-10.5926
▁gave	-10.5927
ash	-10.5927
▁turned	-10.5932
cept	-10.5934
▁coronary	-10.5936
▁Follow	-10.594
▁weak	-10.594
▁elevation	-10.5942
▁Real	-10.595
▁Guide	-10.5951
▁2012.	-10.5953
▁stuff	-10.596
dra	-10.596
▁Disney	-10.596
square	-10.5962
▁goals	-10.5964
▁onion	-10.5966
cap	-10.5971
spect	-10.5971
▁Ki	-10.5972
▁registration	-10.5974
meter	-10.5975
▁33	-10.5977
▁literally	-10.5978
▁Gar	-10.5978
▁IP	-10.5979
ogen	-10.598
▁nutritional	-10.5983
▁functioning	-10.5984
▁trait	-10.5985
▁ankle	-10.5987
▁religious	-10.5993
gram	-10.5996
▁administration	-10.5999
sized	-10.6002
▁surfaces	-10.6004
▁director	-10.6007
▁tub	-10.6013
▁urban	-10.6015
▁parties	-10.6017
▁Women	-10.6018
▁tin	-10.6021
▁discuss	-10.6022
▁Public	-10.6024
pos	-10.6026
▁finished	-10.6026
▁cars	-10.6027
▁abuse	-10.6027
▁interesting	-10.6029
iff	-10.6033
▁solutions	-10.6036
”.	-10.6037
▁transplant	-10.6037
hen	-10.6041
burg	-10.6042
▁Wood	-10.6043
▁models	-10.6043
▁1960	-10.6045
uck	-10.6049
▁exception	-10.605
ez	-10.6056
nia	-10.6057
▁Book	-10.606
▁crystal	-10.6061
▁Empire	-10.6062
▁mantle	-10.6063
▁connects	-10.6065
▁vet	-10.6067
▁selling	-10.6068
▁amp	-10.6068
▁adjust	-10.607
▁com	-10.6082
▁rating	-10.6092
▁optic	-10.6092
▁mutations	-10.6094
▁brick	-10.6095
len	-10.6098
▁$45	-10.6099
▁brother	-10.61
▁Pat	-10.6105
▁reducing	-10.6113
▁Gas	-10.6114
▁entirely	-10.6114
▁Data	-10.6114
rea	-10.6123
▁actions	-10.6124
▁Min	-10.6125
▁reflect	-10.6126
▁advice	-10.6126
mark	-10.6127
▁onions	-10.6132
▁Michigan	-10.6132
▁wife	-10.6133
▁160	-10.6133
su	-10.6135
▁2)	-10.6136
▁sky	-10.614
▁bus	-10.6141
hand	-10.6142
▁swollen	-10.6145
▁row	-10.6146
▁grant	-10.6147
ians	-10.615
▁satellite	-10.6151
via	-10.6152
▁Look	-10.6154
▁fewer	-10.6157
▁flooring	-10.6157
CD	-10.6159
NA	-10.6162
▁Asian	-10.6163
▁caffeine	-10.6164
▁Army	-10.6166
▁thousand	-10.6166
▁infect	-10.6167
▁holding	-10.6168
▁Call	-10.6168
▁consumed	-10.617
▁Mountain	-10.6173
▁fluids	-10.6176
▁apple	-10.618
mal	-10.6184
▁gap	-10.619
▁era	-10.6192
▁(6	-10.6192
▁vehicles	-10.6199
4,000	-10.6199
▁Je	-10.62
▁crime	-10.62
wn	-10.6201
▁Major	-10.6203
▁applies	-10.6203
▁prison	-10.6203
▁nucleotide	-10.6204
born	-10.6208
▁soap	-10.6209
▁interested	-10.621
lus	-10.6211
▁deposits	-10.6213
▁1970	-10.6213
▁announced	-10.6215
ire	-10.6215
sign	-10.6215
vent	-10.6216
HA	-10.6218
▁organizations	-10.6222
cut	-10.6227
▁fail	-10.6229
int	-10.623
▁Card	-10.6232
▁nice	-10.6232
▁strip	-10.6239
▁Iron	-10.6242
▁Ce	-10.6243
▁].	-10.6251
▁palm	-10.6256
▁ideas	-10.6259
▁clothing	-10.626
▁lock	-10.6262
▁efficient	-10.6262
41	-10.6263
▁aspects	-10.6264
▁suffer	-10.6265
▁manufactured	-10.6265
▁characters	-10.6267
▁alpha	-10.6268
▁dentist	-10.6269
▁hire	-10.627
▁quartz	-10.6275
▁rivers	-10.6276
▁gra	-10.6279
▁smoke	-10.6279
ku	-10.6279
▁2-3	-10.6281
▁hole	-10.6282
▁$22	-10.6282
por	-10.6284
▁Han	-10.6284
gate	-10.6284
▁diagnosed	-10.6285
▁substitute	-10.6287
▁inspection	-10.6287
▁Val	-10.6287
▁snake	-10.6287
▁spots	-10.6289
▁Illinois	-10.6293
read	-10.6295
▁Mark	-10.6297
▁chains	-10.6299
▁Show	-10.63
▁ounce	-10.6304
tle	-10.6305
▁sector	-10.6307
▁pictures	-10.632
▁operate	-10.6323
▁Work	-10.6326
▁Corn	-10.6326
▁cultures	-10.6328
▁ph	-10.6331
ich	-10.6332
▁suitable	-10.6334
▁Last	-10.6335
▁football	-10.6335
▁somewhere	-10.6338
OR	-10.6341
RP	-10.6346
9.	-10.6349
▁baked	-10.6361
gastrointestinal	-10.6365
▁38	-10.6368
▁den	-10.6368
▁protects	-10.6372
▁puppy	-10.6372
▁poem	-10.6373
under	-10.6373
▁deduction	-10.6377
▁Brown	-10.6378
▁90%	-10.6379
▁arrangement	-10.638
icular	-10.6382
pr	-10.6382
▁meta	-10.6385
ara	-10.6387
▁election	-10.6389
SS	-10.6393
▁perennial	-10.6396
▁dream	-10.6398
▁Types	-10.6402
▁encyclopedia	-10.6404
▁peace	-10.6407
▁Master	-10.6407
ani	-10.6409
93	-10.6411
▁reflex	-10.6413
▁epithelium	-10.6418
▁antibiotic	-10.642
69	-10.6424
ack	-10.6426
og	-10.6426
lt	-10.6428
▁(10	-10.6428
▁ob	-10.6428
▁diverse	-10.6429
▁turns	-10.643
▁password	-10.6431
▁folder	-10.6431
berg	-10.6432
▁fr	-10.6434
▁]	-10.6436
front	-10.6436
▁walking	-10.6439
▁ba	-10.6444
▁recessive	-10.6444
▁crab	-10.6448
▁$50,000	-10.6448
▁flexible	-10.6451
▁experiment	-10.6454
▁specialty	-10.6454
▁tan	-10.6457
▁cards	-10.6459
▁partial	-10.646
▁Mer	-10.6462
▁news	-10.6463
ett	-10.6464
▁copies	-10.6464
▁transportation	-10.6465
▁bigger	-10.6473
MP	-10.6476
▁meats	-10.6482
▁bonus	-10.6484
ET	-10.6484
▁managers	-10.649
▁Chemical	-10.649
▁sufficient	-10.6497
uri	-10.65
lig	-10.6506
▁Hepatitis	-10.651
▁engineers	-10.6519
▁stool	-10.6521
5.	-10.6527
▁practices	-10.6529
▁pale	-10.6529
▁Oregon	-10.653
▁default	-10.6537
cer	-10.6537
▁singer	-10.6538
gre	-10.6539
▁complications	-10.654
▁filling	-10.654
▁bulb	-10.6542
you	-10.6543
▁wanted	-10.6543
▁cl	-10.6547
ID	-10.6548
▁Paul	-10.6548
▁mission	-10.6548
▁trunk	-10.655
▁parallel	-10.6553
▁tubes	-10.6555
▁Grand	-10.6556
▁League	-10.6557
▁beneath	-10.6557
▁seller	-10.6557
▁Pass	-10.6557
▁gradually	-10.656
▁protected	-10.6562
▁flights	-10.6565
▁Gaelic	-10.657
▁necessarily	-10.657
▁duration	-10.657
▁planets	-10.6577
ye	-10.6577
▁dust	-10.6578
▁Protein	-10.6583
lb	-10.6586
000	-10.6593
▁sharing	-10.6597
sk	-10.6599
▁restaurant	-10.6602
▁ju	-10.6603
▁pages	-10.6604
▁clay	-10.6605
▁wheel	-10.6612
▁herb	-10.6614
pha	-10.6615
▁accident	-10.6616
▁district	-10.6617
▁wrist	-10.6617
▁Ab	-10.6617
▁Poly	-10.662
▁sac	-10.6622
range	-10.6622
▁Small	-10.6625
▁2003	-10.6629
▁fracture	-10.663
▁Henry	-10.663
▁App	-10.6632
▁windows	-10.6634
▁col	-10.6635
▁plug	-10.6637
.]	-10.6643
▁cooling	-10.665
▁ultrasound	-10.665
▁street	-10.665
▁thigh	-10.6653
arm	-10.6654
▁Desert	-10.6657
▁temperate	-10.6658
▁technical	-10.666
▁Change	-10.6662
din	-10.6676
▁heater	-10.6676
▁dye	-10.6679
▁Fire	-10.6682
▁engineer	-10.6686
▁province	-10.6692
-8	-10.6695
▁Para	-10.6695
▁pen	-10.6696
▁Child	-10.6698
▁2.5	-10.6699
▁Ancient	-10.67
▁stems	-10.67
atory	-10.6705
DI	-10.6707
▁brake	-10.6708
tta	-10.6709
▁Street	-10.6711
▁contracts	-10.6713
▁carrier	-10.6713
8,000	-10.6717
▁Sc	-10.6717
▁remodel	-10.6718
▁72	-10.6721
▁weekly	-10.6722
▁saliva	-10.6723
glyc	-10.6724
▁pitch	-10.6724
▁Mc	-10.6724
▁slab	-10.6727
▁recipes	-10.6727
▁dictionary	-10.6732
▁elbow	-10.6732
▁juices	-10.6732
idae	-10.6733
▁Body	-10.6734
▁binding	-10.6735
pho	-10.6737
▁sudden	-10.6741
▁moment	-10.6746
▁apartment	-10.6747
dal	-10.6748
lor	-10.6758
▁crack	-10.6762
mail	-10.6766
▁lake	-10.6766
ky	-10.6767
▁Ten	-10.6767
▁Installation	-10.6769
▁gallons	-10.6769
ional	-10.6777
▁closing	-10.678
▁Boston	-10.678
▁Sand	-10.6786
▁ligaments	-10.6788
ami	-10.6791
iness	-10.6792
▁Based	-10.6794
▁extensive	-10.6795
▁progress	-10.6795
▁stated	-10.6799
▁beneficial	-10.68
▁consumers	-10.68
▁offering	-10.6801
▁mechanism	-10.6803
▁$100,000	-10.6803
gin	-10.6805
▁Spring	-10.6808
fo	-10.6808
▁hospitals	-10.6809
ora	-10.681
▁fundamental	-10.6813
▁lu	-10.6815
soluble	-10.6817
▁plain	-10.6817
▁embryo	-10.682
▁Key	-10.6822
▁union	-10.6822
how	-10.6822
▁2014.	-10.6823
▁recognize	-10.6824
▁dates	-10.683
ball	-10.6836
▁messages	-10.6839
▁ke	-10.684
▁Associate	-10.6841
▁fraction	-10.6841
▁intense	-10.6841
cycl	-10.6842
▁contaminated	-10.6843
▁settlement	-10.6843
▁nail	-10.6844
osa	-10.6846
gle	-10.6855
▁Fish	-10.6855
▁beat	-10.6855
bs	-10.6863
▁34	-10.6865
▁expense	-10.6866
▁Pet	-10.6866
AD	-10.6867
▁essentially	-10.6869
rm	-10.6869
▁bull	-10.6871
▁Ser	-10.6873
logy	-10.6876
▁geographical	-10.6877
pin	-10.6877
▁comprehensive	-10.6878
aries	-10.6878
▁officially	-10.6878
▁reverse	-10.6879
▁referr	-10.688
▁traits	-10.6884
IL	-10.6893
▁citizens	-10.6897
▁zones	-10.6901
▁Lincoln	-10.6903
▁lean	-10.6905
▁dissolved	-10.6907
ids	-10.6908
▁duties	-10.6917
▁prey	-10.6922
▁0.5	-10.6922
▁distributed	-10.6923
▁institution	-10.6923
▁semester	-10.6923
▁interface	-10.6924
▁Ya	-10.6925
▁Mix	-10.6928
▁aged	-10.6932
▁acquired	-10.6936
▁session	-10.6937
▁Certified	-10.6937
▁Micro	-10.6938
▁Noun	-10.6943
61	-10.6944
▁wrote	-10.6944
▁represented	-10.6946
▁browser	-10.6954
▁calculation	-10.6958
▁Pain	-10.6959
▁aircraft	-10.696
ses	-10.6967
▁$30,000	-10.6969
▁bind	-10.6971
▁industries	-10.6972
tom	-10.6973
▁fingers	-10.6974
table	-10.6975
▁ru	-10.6976
tz	-10.6978
▁Remember	-10.698
ctor	-10.6983
▁tick	-10.6984
▁entity	-10.6986
phy	-10.6986
▁translation	-10.6986
ale	-10.6991
carbon	-10.6993
▁antibody	-10.6994
▁crops	-10.6995
▁attach	-10.6996
3,000	-10.6999
▁landscape	-10.7
CC	-10.7
▁(2)	-10.7001
▁sections	-10.7002
▁proportion	-10.7003
ture	-10.7005
aceae	-10.7006
▁pricing	-10.7007
▁effort	-10.7008
-18	-10.701
▁Table	-10.7011
▁Society	-10.7014
lot	-10.7016
made	-10.7016
▁fear	-10.7018
▁herbs	-10.702
▁kit	-10.7021
▁Several	-10.7021
ym	-10.7026
tail	-10.7027
▁secret	-10.7032
take	-10.7032
▁applying	-10.7034
▁marriage	-10.7035
▁ovulation	-10.7035
▁Super	-10.7037
▁rhythm	-10.7039
▁conventional	-10.7039
▁Brazil	-10.7046
▁bra	-10.705
▁Price	-10.7053
▁discover	-10.7053
▁push	-10.7053
rist	-10.7053
▁fin	-10.7054
▁fermentation	-10.7057
cm	-10.7058
▁Hard	-10.706
▁concerned	-10.7069
▁silicon	-10.707
▁hybrid	-10.7077
ched	-10.7078
▁Cap	-10.7078
▁Point	-10.7082
dri	-10.7083
▁playing	-10.7084
lam	-10.7085
▁variations	-10.709
▁Beach	-10.7091
green	-10.7093
▁chair	-10.7093
bound	-10.7094
▁explore	-10.7096
▁traffic	-10.7098
▁sw	-10.7105
▁regulation	-10.7106
▁fashion	-10.7108
▁Fort	-10.7108
▁sweat	-10.7113
▁abbreviation	-10.7115
▁worker	-10.7116
▁win	-10.7118
glo	-10.7118
▁Print	-10.7127
▁clients	-10.7127
▁ga	-10.7138
▁improvement	-10.7138
▁fix	-10.7139
▁Caribbean	-10.714
▁codes	-10.7142
pping	-10.7144
▁resistant	-10.7145
▁Nursing	-10.7147
▁earliest	-10.7147
cc	-10.7153
cra	-10.7153
rol	-10.7154
▁policies	-10.7154
▁ID	-10.7155
▁teaching	-10.7156
▁pollen	-10.7158
ching	-10.716
▁tested	-10.7161
▁$20,000	-10.7164
-4	-10.7176
▁importance	-10.7176
▁resin	-10.718
▁inferior	-10.7183
American	-10.7184
▁z	-10.7188
▁Michael	-10.719
▁colored	-10.719
▁closest	-10.7195
▁disk	-10.7195
▁Pla	-10.7196
▁2002	-10.7199
▁specified	-10.7204
▁react	-10.721
▁constipation	-10.7211
▁regarding	-10.7215
▁Wales	-10.7217
▁bl	-10.7217
▁finding	-10.7219
▁inhibit	-10.722
▁camera	-10.7221
▁breeding	-10.7225
-20	-10.7225
▁housing	-10.7225
▁hypothalamus	-10.7232
▁practical	-10.7236
▁distinctive	-10.7236
▁regional	-10.7241
OL	-10.7243
▁appeared	-10.7245
▁wa	-10.7248
▁Tu	-10.7248
▁exhibit	-10.7254
▁severity	-10.7254
▁kilometres	-10.7254
berry	-10.726
▁allergies	-10.7261
Pa	-10.7262
▁85	-10.7264
▁Mag	-10.7265
▁standing	-10.7268
▁itching	-10.7271
▁Line	-10.7273
▁mine	-10.7274
▁observed	-10.7274
ori	-10.7275
▁iodine	-10.7275
▁2001	-10.7279
▁lime	-10.7279
ming	-10.7286
▁determining	-10.729
▁genome	-10.729
ek	-10.7291
▁stir	-10.7292
▁resource	-10.7292
▁Tom	-10.7295
fat	-10.7296
▁passing	-10.7296
▁salts	-10.7296
▁corporate	-10.7297
▁Christ	-10.7298
▁bitter	-10.7298
mel	-10.7299
6.	-10.7302
▁chi	-10.7302
▁unlike	-10.7309
▁artificial	-10.7311
▁ears	-10.7321
▁Stone	-10.7325
▁sensor	-10.7329
▁cloth	-10.733
▁Rub	-10.7333
▁sha	-10.7335
English	-10.7335
▁42	-10.7336
▁establish	-10.7337
▁ˈ	-10.7337
▁allowance	-10.7338
▁acidic	-10.7339
▁Basic	-10.7339
▁Professional	-10.734
▁circulatory	-10.734
▁bulk	-10.734
▁Bur	-10.7345
▁Annual	-10.7348
gger	-10.7348
▁generated	-10.7352
▁temporary	-10.7355
oli	-10.7355
ili	-10.7361
▁calls	-10.7362
SP	-10.7363
▁reduces	-10.7368
die	-10.737
▁fuels	-10.7371
▁aim	-10.7373
▁circumstances	-10.7373
▁THE	-10.7374
▁judge	-10.7376
▁drivers	-10.738
▁te	-10.7381
▁thumb	-10.7383
▁Tuition	-10.7384
▁drops	-10.7386
▁fe	-10.7386
7,000	-10.7391
▁vaginal	-10.7392
▁Par	-10.7395
cess	-10.7396
▁Community	-10.7398
▁bean	-10.7406
▁tends	-10.7406
▁Bu	-10.7407
tte	-10.741
▁experts	-10.741
▁traditionally	-10.7411
▁Names	-10.7413
▁export	-10.7414
▁neutral	-10.7415
▁Transfer	-10.7421
PC	-10.7421
▁jaw	-10.7421
▁matrix	-10.7427
▁forensic	-10.7427
▁artist	-10.7431
53	-10.7435
ency	-10.7437
▁situations	-10.7438
vy	-10.7443
▁Gulf	-10.7443
▁Hindu	-10.7447
▁pharmacist	-10.7449
▁cervical	-10.7454
▁IT	-10.7454
PS	-10.7454
7,	-10.7455
▁Location	-10.7456
▁covalent	-10.7457
rio	-10.7461
▁epithelial	-10.747
▁occurred	-10.747
▁transition	-10.7474
▁periodic	-10.7475
▁wavelength	-10.7478
▁officers	-10.7483
▁dough	-10.7484
▁identical	-10.7485
▁pest	-10.7486
▁pine	-10.7494
▁strands	-10.7497
▁defense	-10.75
▁banks	-10.75
bed	-10.7501
▁Ac	-10.7503
▁lifetime	-10.7503
▁transmit	-10.7504
duction	-10.7512
▁geographic	-10.7513
▁difficulty	-10.7513
▁carrying	-10.7514
▁Renaissance	-10.7515
▁frost	-10.7515
▁unable	-10.7517
ement	-10.7517
▁guidelines	-10.7518
▁icon	-10.7521
UR	-10.7523
▁thread	-10.7523
▁impulses	-10.7524
UN	-10.7529
SH	-10.753
phone	-10.753
▁Rose	-10.7534
▁organized	-10.7534
▁concern	-10.7539
ache	-10.7541
lation	-10.7543
▁reality	-10.7544
62	-10.7545
▁pipe	-10.755
▁Directions	-10.7552
▁Motor	-10.7553
▁complexity	-10.7555
mod	-10.7556
gov	-10.7559
▁spouse	-10.7559
▁alternate	-10.7559
▁Network	-10.7559
51	-10.7563
▁presented	-10.7564
▁tells	-10.7564
▁thoracic	-10.7564
▁lupus	-10.7566
▁toilet	-10.757
▁vertebrae	-10.757
▁Much	-10.7573
▁capsule	-10.7573
▁lifestyle	-10.7576
rad	-10.7578
▁educational	-10.7579
▁merge	-10.758
▁cor	-10.7584
▁sediment	-10.7584
▁proposed	-10.7584
▁solvent	-10.7589
▁varying	-10.759
▁carbonate	-10.7598
▁Four	-10.7601
▁tourist	-10.7602
▁releases	-10.7602
▁phylum	-10.7603
rus	-10.7605
▁Commission	-10.7611
▁trigger	-10.7613
▁Ge	-10.7614
▁towel	-10.7618
ult	-10.7619
▁institutions	-10.7619
▁Doctor	-10.762
▁detail	-10.7622
Ma	-10.7623
▁camp	-10.7624
▁colonies	-10.7629
▁upload	-10.7632
▁franchise	-10.7633
▁Store	-10.7638
▁CH	-10.7641
▁maintaining	-10.7641
▁scene	-10.7642
▁sc	-10.7647
▁derivative	-10.7648
▁tenderloin	-10.7655
▁possess	-10.7656
▁centers	-10.7658
▁relation	-10.766
sid	-10.7661
▁horizontal	-10.7663
▁architecture	-10.7663
▁restaurants	-10.7664
▁buildings	-10.7671
▁coastal	-10.7674
▁protocol	-10.7678
OS	-10.7678
▁fi	-10.768
▁wash	-10.7684
▁Financial	-10.7685
▁Temperature	-10.7687
▁cheap	-10.7687
▁toxins	-10.7691
▁cloud	-10.7691
▁sole	-10.7692
▁Force	-10.7693
▁desire	-10.7698
▁trouble	-10.77
▁diamond	-10.77
▁freezing	-10.7701
ram	-10.7703
▁ethnic	-10.7705
▁worse	-10.7706
▁rheumatoid	-10.7707
etic	-10.7708
ifer	-10.7708
▁ducts	-10.7708
▁comp	-10.7709
▁Col	-10.7714
▁Church	-10.7715
▁Lyme	-10.7717
▁tons	-10.7718
▁secretion	-10.7721
▁sylls	-10.7724
ook	-10.7724
▁benchmark	-10.773
▁immunity	-10.773
▁allergy	-10.773
▁lie	-10.7732
3)	-10.7734
▁Plants	-10.7738
▁Eye	-10.7739
▁manufacture	-10.7743
▁Try	-10.7746
▁transaction	-10.7748
▁Ed	-10.775
▁lid	-10.7752
▁coconut	-10.7752
▁helping	-10.7753
▁spices	-10.7754
▁wireless	-10.7755
▁loop	-10.7756
▁swimming	-10.776
lysis	-10.7765
▁Mars	-10.7766
ode	-10.7768
▁Solar	-10.7771
sen	-10.7771
▁irregular	-10.7782
▁Different	-10.7782
▁continues	-10.7783
▁mRNA	-10.7785
▁multiply	-10.7785
▁cement	-10.7786
ff	-10.7788
lla	-10.7788
▁discomfort	-10.779
▁lipid	-10.7791
▁preferred	-10.7791
bel	-10.7792
▁ending	-10.7797
biotic	-10.7797
▁hence	-10.7799
▁gu	-10.7802
▁Degree	-10.7813
path	-10.7814
▁rear	-10.7819
▁sausage	-10.782
▁benign	-10.782
▁proof	-10.7823
bol	-10.7826
pet	-10.7827
dl	-10.7828
▁Help	-10.7828
▁independence	-10.783
▁Ste	-10.7832
▁140	-10.7835
▁Press	-10.7835
gan	-10.7838
▁sister	-10.784
▁Sam	-10.7844
FA	-10.7844
DA	-10.7844
▁slide	-10.785
▁trend	-10.7852
nna	-10.7855
wing	-10.7856
▁horn	-10.7856
▁radioactive	-10.7859
▁teaspoon	-10.7864
▁Oil	-10.7866
ature	-10.7867
▁secure	-10.7872
▁adj	-10.7873
nk	-10.7878
▁Za	-10.7881
▁Dental	-10.7881
▁finance	-10.7882
-5	-10.7882
▁$21	-10.7884
OP	-10.7884
language	-10.7887
▁ver	-10.7887
▁task	-10.7888
▁Bachelor	-10.7889
▁Chicken	-10.7889
ME	-10.7891
threatening	-10.7896
▁appetite	-10.7896
▁sulfur	-10.7896
▁5%	-10.7898
▁examine	-10.7901
▁veterinarian	-10.7904
▁nephron	-10.7904
▁Without	-10.791
▁2010,	-10.7912
▁Road	-10.7915
▁routine	-10.7916
▁Fo	-10.7921
▁opposed	-10.7929
▁$70	-10.7929
▁IV	-10.7938
dor	-10.7938
▁Level	-10.7939
▁trauma	-10.794
▁tobacco	-10.7942
▁diploma	-10.7942
▁macro	-10.7942
▁pension	-10.7943
▁Bridge	-10.7944
▁Game	-10.7945
▁yards	-10.7947
▁arranged	-10.7948
▁threat	-10.795
▁edible	-10.795
▁Year	-10.7951
▁spa	-10.7953
▁MD	-10.7954
grade	-10.7954
▁overnight	-10.7955
▁Las	-10.7957
EN	-10.7958
month	-10.7958
lly	-10.7959
lands	-10.7963
▁worms	-10.7965
▁competitive	-10.7965
room	-10.7967
▁IN	-10.7967
▁tag	-10.7967
rated	-10.797
▁Big	-10.7971
▁cur	-10.7973
▁Auto	-10.7973
▁Venus	-10.7975
▁$24	-10.7975
▁Mel	-10.7978
▁fork	-10.7979
▁bought	-10.7981
▁tire	-10.7981
▁boost	-10.7983
ms	-10.7984
▁Im	-10.7984
▁Choose	-10.7985
▁sport	-10.7987
▁expand	-10.7989
▁directed	-10.799
▁LDL	-10.7992
nor	-10.7994
▁Direct	-10.7994
▁tomatoes	-10.7995
atch	-10.7997
▁shapes	-10.8
▁25%	-10.8
ame	-10.8
▁Within	-10.8002
rom	-10.8004
▁aware	-10.8011
▁draft	-10.8013
▁fold	-10.8015
▁ordered	-10.8016
▁USD	-10.8016
▁Council	-10.8019
▁Welcome	-10.8019
▁meningitis	-10.8019
▁progressive	-10.8021
▁parasites	-10.8022
▁asthma	-10.8024
▁club	-10.803
▁cu	-10.8034
▁powers	-10.8034
▁symbols	-10.8036
▁nucleic	-10.8038
▁nearby	-10.804
▁shipping	-10.8043
▁ka	-10.805
▁freedom	-10.8052
▁Income	-10.8059
▁ra	-10.8059
▁flowering	-10.8061
pound	-10.8061
▁Louis	-10.8062
▁Due	-10.8062
ux	-10.8062
▁$4,000	-10.8062
ration	-10.8064
▁administrative	-10.8065
▁valley	-10.8066
ising	-10.8066
ON	-10.8068
cat	-10.8068
▁Luc	-10.8072
▁reaching	-10.8073
▁absence	-10.8073
▁CT	-10.808
▁latitude	-10.8081
bal	-10.8083
▁Mary	-10.8084
▁chosen	-10.8084
▁bands	-10.8093
▁/ˈ	-10.8094
▁decades	-10.8096
▁calendar	-10.8096
▁thermal	-10.8099
▁transferred	-10.8099
▁determines	-10.8102
▁killed	-10.8105
▁musical	-10.8106
▁channel	-10.8108
gene	-10.8112
run	-10.8114
▁weighs	-10.8117
▁Review	-10.8122
▁Account	-10.8124
▁axon	-10.8127
qu	-10.813
▁greenhouse	-10.813
▁dragon	-10.8131
▁basin	-10.8135
.”	-10.8136
▁fungal	-10.8136
pot	-10.8137
ably	-10.8141
▁VA	-10.8141
▁creatinine	-10.8143
▁creation	-10.8143
▁Engineer	-10.8144
▁lists	-10.8144
▁interact	-10.8145
▁rabbit	-10.8148
clu	-10.8148
▁irritation	-10.8151
▁Visit	-10.8151
▁Ty	-10.8158
▁Jupiter	-10.8159
▁illegal	-10.8159
52	-10.816
virus	-10.8164
▁roles	-10.8165
ural	-10.8166
▁crop	-10.8168
▁reproduce	-10.8175
▁tasks	-10.8176
▁duty	-10.818
this	-10.8181
▁equator	-10.8181
▁guarantee	-10.8182
▁studied	-10.8182
▁interaction	-10.8183
,900	-10.8184
▁Mal	-10.8184
▁millions	-10.8188
▁gestation	-10.819
▁Em	-10.8194
cl	-10.8196
▁prevents	-10.8197
ttle	-10.8199
▁Cut	-10.8201
▁(7	-10.8207
lis	-10.8208
▁kWh	-10.8209
rick	-10.821
cip	-10.8213
RS	-10.8216
▁AD	-10.8216
▁spice	-10.8217
▁ride	-10.822
▁eagle	-10.8222
▁Among	-10.8222
▁cuts	-10.8225
▁deduct	-10.8228
erry	-10.8229
▁efficiency	-10.8229
▁cardiovascular	-10.823
▁2016	-10.823
▁fibrous	-10.8231
▁nails	-10.8234
▁skill	-10.8235
▁Less	-10.8236
FC	-10.8237
▁fifth	-10.8238
▁Fee	-10.824
▁Queen	-10.8241
▁Outlook	-10.8245
cher	-10.8248
lip	-10.8249
▁Mor	-10.8251
▁replacing	-10.8261
ple	-10.8263
ima	-10.8263
▁decided	-10.8267
-7	-10.8267
rant	-10.8267
▁scratch	-10.8269
east	-10.8274
elle	-10.8274
▁skeleton	-10.8275
▁indicated	-10.8278
SD	-10.8285
▁Language	-10.8285
50,000	-10.8293
▁Short	-10.8293
specific	-10.8294
fil	-10.8296
▁30%	-10.83
▁1950	-10.8301
▁Lee	-10.8305
▁attend	-10.8307
▁800	-10.8308
▁FDA	-10.831
▁mon	-10.8311
▁restore	-10.8314
bil	-10.8317
nn	-10.8318
mph	-10.8318
▁notes	-10.8319
▁pur	-10.8321
▁Party	-10.8322
sum	-10.8323
▁Corporation	-10.8325
yo	-10.8325
ground	-10.8325
▁rank	-10.8329
▁onset	-10.8331
ou	-10.8332
▁Nations	-10.8332
▁Shakespeare	-10.8333
▁altitude	-10.8333
▁retain	-10.8334
▁decisions	-10.8336
▁lipids	-10.8337
gas	-10.8338
▁Fra	-10.8338
▁divorce	-10.8341
bling	-10.8342
▁comfortable	-10.8343
▁adequate	-10.8349
▁relevant	-10.8349
▁skull	-10.8349
inflammatory	-10.835
ologist	-10.8352
▁trained	-10.8355
▁clause	-10.8356
▁relating	-10.8357
▁Nile	-10.8358
▁microorganisms	-10.836
▁strains	-10.8361
ese	-10.8364
▁10,000	-10.8364
▁Flag	-10.837
rib	-10.837
▁constitute	-10.8372
▁administered	-10.8375
▁fault	-10.8382
▁houses	-10.8382
PI	-10.8385
▁Sign	-10.8385
trans	-10.8391
cost	-10.8394
▁Singapore	-10.8396
▁opportunity	-10.8396
▁communities	-10.8397
▁$15,000	-10.8398
▁effectively	-10.8404
▁continued	-10.8405
▁template	-10.8413
▁evolved	-10.8419
▁researchers	-10.842
▁Hol	-10.842
weight	-10.8421
▁newborn	-10.8427
▁providers	-10.8427
heat	-10.8428
▁grew	-10.8429
mu	-10.8431
▁airline	-10.8433
▁Bacteria	-10.8433
▁entered	-10.8433
▁arch	-10.8434
clo	-10.8435
▁clearly	-10.8438
any	-10.8439
▁Hall	-10.8443
▁bundle	-10.8445
▁conditioning	-10.8445
▁patio	-10.8446
▁pilot	-10.8453
person	-10.8467
▁junction	-10.8469
▁belief	-10.8473
ologists	-10.8476
▁coldest	-10.8481
▁partner	-10.8487
war	-10.8488
▁Color	-10.8494
▁trap	-10.8495
▁systemic	-10.8497
Me	-10.8497
▁flood	-10.8501
▁anesthesia	-10.8502
oxy	-10.8502
▁tension	-10.8506
▁reticulum	-10.8509
▁Weather	-10.8509
▁$800	-10.8517
rk	-10.8517
▁filed	-10.8518
▁99	-10.8518
-$2	-10.8518
▁stiffness	-10.8519
▁lump	-10.8519
▁vagina	-10.8524
pers	-10.8527
▁Special	-10.8527
▁spirit	-10.8531
▁sitting	-10.8537
itch	-10.8542
▁Cancer	-10.8543
PM	-10.8544
▁detected	-10.8545
▁immediate	-10.8547
▁margin	-10.8547
▁illnesses	-10.855
▁www	-10.8554
▁loans	-10.8556
▁;	-10.8557
▁cal	-10.8557
▁Tree	-10.8561
tha	-10.8564
▁oceanic	-10.8566
class	-10.8573
▁anaerobic	-10.8574
▁strategy	-10.8574
noun	-10.8577
ato	-10.858
▁snack	-10.8583
▁empty	-10.8583
ened	-10.8584
▁(8	-10.859
▁Survey	-10.8591
lay	-10.8592
rous	-10.8592
▁Java	-10.8592
▁indicator	-10.8599
▁ste	-10.86
7.	-10.8602
▁deer	-10.8604
▁recommends	-10.8604
▁pig	-10.8604
▁lifespan	-10.8607
▁$2,500	-10.8609
▁childhood	-10.8609
▁physicians	-10.861
▁46	-10.8616
▁prime	-10.8617
▁tomato	-10.8617
▁Infection	-10.8623
▁vinyl	-10.8624
▁felt	-10.8624
EL	-10.863
▁Article	-10.8632
▁opinion	-10.8632
▁Bri	-10.8632
▁beach	-10.8633
▁conducted	-10.8638
▁spleen	-10.864
ace	-10.8642
▁$33	-10.8642
▁$26	-10.8643
ume	-10.8643
▁buyer	-10.8645
▁brief	-10.8645
ancy	-10.8647
ith	-10.8647
▁binds	-10.8648
▁corresponding	-10.8648
graph	-10.8651
▁decreased	-10.8654
lock	-10.866
▁Pu	-10.866
▁screening	-10.8661
▁rot	-10.8662
▁gravel	-10.8662
▁tablespoon	-10.8665
▁everyday	-10.8669
vin	-10.8671
▁stronger	-10.8673
▁Calcium	-10.8673
▁Contact	-10.8673
▁explains	-10.8673
▁j	-10.8674
▁finally	-10.8676
▁rotation	-10.8677
▁diagnostic	-10.8681
▁plaque	-10.8681
▁Indonesia	-10.8681
ste	-10.8683
lies	-10.8686
▁Skin	-10.8688
▁TO	-10.8693
▁endo	-10.8696
▁principles	-10.8697
▁petroleum	-10.8698
▁taxable	-10.8698
▁Weight	-10.8703
▁nations	-10.8704
▁acres	-10.8705
▁Physical	-10.8714
▁funeral	-10.8714
▁bears	-10.8718
▁sentences	-10.8721
▁lac	-10.8725
▁gut	-10.8726
otic	-10.8728
▁award	-10.8731
▁Having	-10.8733
▁Size	-10.8737
▁sulfate	-10.8739
ben	-10.8745
▁shade	-10.8747
▁Such	-10.8747
▁boiled	-10.875
bus	-10.8754
ique	-10.8754
▁axis	-10.8755
▁breaking	-10.876
▁limestone	-10.8764
▁39	-10.8766
▁marks	-10.8766
vid	-10.8768
▁trachea	-10.8772
▁simmer	-10.8773
▁ci	-10.8778
▁leather	-10.8781
▁Comp	-10.8781
▁himself	-10.8781
▁eruption	-10.8785
nit	-10.8785
▁adjacent	-10.8789
astic	-10.8789
▁(2000	-10.8791
▁serum	-10.8792
nom	-10.8793
▁Cold	-10.8796
▁trademark	-10.8798
shire	-10.8799
▁vertebrates	-10.8805
och	-10.8818
▁hi	-10.8819
▁Technician	-10.8822
▁specialist	-10.8827
▁talking	-10.8827
▁calorie	-10.883
▁Town	-10.883
▁supports	-10.8834
▁absolute	-10.8836
▁$27	-10.8836
worth	-10.8842
▁acting	-10.8842
▁mushrooms	-10.8845
ona	-10.8848
tar	-10.8849
▁Lord	-10.8849
▁peptide	-10.8852
▁carrots	-10.8854
▁valuable	-10.8856
▁80%	-10.8858
▁1999	-10.8858
▁Fat	-10.8859
▁Cell	-10.886
▁laptop	-10.8864
▁steroid	-10.887
▁LLC	-10.8873
▁Job	-10.8878
▁drawing	-10.8878
aka	-10.8878
bro	-10.888
arch	-10.888
▁bark	-10.8881
▁rep	-10.8881
▁circular	-10.8881
▁velocity	-10.8881
▁equals	-10.8884
▁carefully	-10.8884
▁furniture	-10.8889
than	-10.889
▁arrive	-10.889
active	-10.8892
▁lesson	-10.8893
▁Apply	-10.8895
▁aerobic	-10.8898
▁tattoo	-10.8898
▁gently	-10.8898
▁noted	-10.8901
▁Located	-10.8901
▁conflict	-10.8906
▁Section	-10.8907
▁regarded	-10.8915
▁spiritual	-10.8915
▁hotels	-10.8917
▁Sur	-10.892
▁Function	-10.8922
▁lactose	-10.8925
▁infants	-10.8925
▁44	-10.8925
▁freshwater	-10.8925
star	-10.8927
troph	-10.8928
▁god	-10.8928
▁breakfast	-10.8932
dom	-10.8933
iti	-10.8934
▁Near	-10.8935
▁offices	-10.8936
list	-10.8937
▁lip	-10.8938
▁diagram	-10.894
RO	-10.8941
▁Johnson	-10.8945
▁deductible	-10.8945
▁jewelry	-10.8949
▁instruments	-10.895
▁assess	-10.8953
ree	-10.8956
▁composite	-10.8957
▁cramps	-10.8957
▁$28	-10.8957
▁OF	-10.896
▁fertilizer	-10.8961
flu	-10.8971
▁entering	-10.8971
▁objective	-10.8972
▁Median	-10.8974
▁pour	-10.8979
▁golf	-10.8984
▁elevated	-10.8985
▁fitness	-10.8987
▁dizziness	-10.8991
lee	-10.8999
▁massive	-10.8999
ila	-10.9
▁Van	-10.9002
lit	-10.9003
▁trusted	-10.9006
▁Norman	-10.901
▁psycho	-10.9014
▁Celtic	-10.9017
▁ce	-10.9019
km	-10.9022
▁decreases	-10.9023
een	-10.9025
▁lawyer	-10.9025
▁preventing	-10.9025
▁versions	-10.9027
▁slope	-10.9028
▁Golden	-10.9028
▁Euro	-10.9029
dent	-10.903
▁atrium	-10.9033
FO	-10.9033
▁3-4	-10.9033
▁Indiana	-10.9036
▁survival	-10.9042
▁averaged	-10.9043
▁Why	-10.9044
▁Bible	-10.9049
▁honor	-10.9051
AM	-10.9052
.”.	-10.9061
AA	-10.9062
▁bags	-10.9065
▁accompanied	-10.9068
▁holes	-10.9072
▁gone	-10.9074
▁competition	-10.9076
▁facial	-10.9077
▁cancers	-10.908
▁$23	-10.9081
tical	-10.9084
▁tight	-10.9088
▁duck	-10.9089
▁persons	-10.909
▁termed	-10.9091
▁alkaline	-10.9094
▁Jack	-10.9098
▁printer	-10.9101
▁melt	-10.9105
▁ease	-10.9106
mber	-10.9109
eri	-10.9109
▁hollow	-10.9111
▁asset	-10.9114
▁52	-10.9114
▁el	-10.9114
hood	-10.9114
▁wings	-10.9117
▁pit	-10.9118
▁geo	-10.9121
▁exclusive	-10.9125
▁aspect	-10.9126
▁pole	-10.9126
Le	-10.9127
▁widespread	-10.9128
▁breathe	-10.913
▁planting	-10.9132
phosphate	-10.9134
eph	-10.9135
▁Netherlands	-10.9137
▁invention	-10.9137
▁eliminate	-10.9137
▁lion	-10.9138
care	-10.9144
▁consideration	-10.9145
▁inserted	-10.9145
RT	-10.9145
▁Genetic	-10.9146
ators	-10.9147
▁ulcers	-10.9151
▁Between	-10.9154
▁SE	-10.9157
▁adds	-10.9161
▁Clean	-10.9163
▁supporting	-10.9163
ges	-10.9165
mis	-10.9165
EA	-10.917
▁vacuum	-10.9171
eat	-10.9172
▁interview	-10.9172
teen	-10.9176
▁Typical	-10.9177
▁attract	-10.9179
▁Head	-10.9179
media	-10.9179
ok	-10.918
▁scheme	-10.918
▁stays	-10.9182
▁grand	-10.9186
▁Victoria	-10.9187
▁journey	-10.9189
▁Travel	-10.9189
▁[2	-10.919
▁Ontario	-10.9197
▁dwarf	-10.9197
▁smoking	-10.9197
▁Mr	-10.9199
▁tradition	-10.92
▁installing	-10.9204
▁inventory	-10.9205
▁considerably	-10.9207
▁extracted	-10.9212
▁Executive	-10.9215
▁Nutrition	-10.9215
▁evaluate	-10.9216
▁resort	-10.9216
▁nuclei	-10.9219
▁anatomy	-10.9223
GA	-10.9224
▁Large	-10.9228
rig	-10.9228
▁partially	-10.9229
▁travels	-10.9231
▁relationships	-10.9237
▁epidermis	-10.9241
▁prompt	-10.9241
▁ultimately	-10.9247
▁obvious	-10.9247
▁Gram	-10.9248
▁participate	-10.9249
▁reasonable	-10.9254
cast	-10.9254
▁graph	-10.9254
▁hired	-10.9255
▁blade	-10.9259
▁electro	-10.926
▁opt	-10.926
EC	-10.9261
bre	-10.9261
▁machines	-10.9262
rse	-10.9265
▁Personal	-10.9266
ule	-10.9266
▁(9	-10.9271
eth	-10.9279
▁snakes	-10.9284
▁telephone	-10.9285
▁spec	-10.9285
cum	-10.9287
▁1%	-10.9293
▁invest	-10.9293
▁shoes	-10.9299
tive	-10.9301
▁Soviet	-10.9302
▁Sodium	-10.9302
▁Richard	-10.9302
PO	-10.9302
▁shelf	-10.9303
▁Design	-10.9304
mas	-10.9304
CR	-10.9307
▁seizures	-10.9311
mine	-10.9312
rium	-10.9312
▁assistance	-10.9313
▁teach	-10.9317
▁tape	-10.9317
▁MS	-10.9319
▁yolk	-10.932
▁Arctic	-10.932
▁$65	-10.9321
▁putting	-10.9323
▁variables	-10.9327
▁wool	-10.9329
▁ser	-10.933
▁tightly	-10.9331
▁Sunday	-10.9332
metal	-10.9334
▁gasoline	-10.9337
▁pelvic	-10.9338
▁tar	-10.9342
▁rec	-10.9347
▁decline	-10.9349
▁coral	-10.935
▁whatever	-10.9351
▁Male	-10.9353
▁infant	-10.9353
▁Application	-10.9355
▁rising	-10.9356
▁grey	-10.9356
▁bush	-10.9357
▁Ger	-10.9358
▁mus	-10.9359
▁reveal	-10.936
▁updated	-10.9361
▁whom	-10.9362
▁#1	-10.9362
▁tiger	-10.9363
ites	-10.9363
▁census	-10.9364
▁nickname	-10.9364
▁squash	-10.9364
▁imaging	-10.9364
▁Organization	-10.9364
▁Maryland	-10.9365
▁heated	-10.9366
▁Dia	-10.9366
▁Jan	-10.9367
▁$39	-10.9369
▁submit	-10.9373
▁Gene	-10.9377
▁Martin	-10.9377
▁pathway	-10.9382
▁extraction	-10.9384
▁NY	-10.9384
fit	-10.9387
▁cage	-10.9392
▁alter	-10.9392
▁environments	-10.9393
▁pocket	-10.9393
▁myth	-10.9395
▁strongly	-10.9396
▁lymphocytes	-10.9397
▁Fees	-10.9397
▁iTunes	-10.9399
▁residency	-10.9399
▁Benefits	-10.94
▁Nor	-10.9401
▁30-	-10.9404
gal	-10.9408
eo	-10.9408
▁vaccines	-10.9416
oke	-10.9416
▁soup	-10.9417
▁Tea	-10.9417
▁AND	-10.9419
morph	-10.9425
▁bipolar	-10.9426
▁barley	-10.9428
dol	-10.943
▁teams	-10.9434
▁error	-10.9435
▁brands	-10.9437
▁performing	-10.9439
pur	-10.9439
▁isolated	-10.944
▁correctly	-10.9442
▁towns	-10.9446
thal	-10.9447
▁Houston	-10.9452
▁church	-10.9453
▁dorsal	-10.9453
▁bacon	-10.9454
oids	-10.9454
▁poison	-10.946
▁utility	-10.9461
▁recording	-10.9468
▁145	-10.9468
▁Dry	-10.9471
▁principle	-10.9471
▁learners	-10.9472
plant	-10.9473
rian	-10.9474
▁safely	-10.9477
▁resident	-10.9478
▁Pour	-10.948
ime	-10.948
▁nu	-10.9482
▁mustard	-10.9482
▁$29	-10.9483
▁lightly	-10.9484
▁exp	-10.9484
▁Concrete	-10.9488
▁lens	-10.9489
▁$34	-10.9493
▁peppers	-10.9493
▁Club	-10.9498
▁parking	-10.95
▁suit	-10.9501
cious	-10.9502
▁mucous	-10.9506
ough	-10.9506
▁dinner	-10.9506
tosis	-10.9509
▁Music	-10.951
rn	-10.951
▁saying	-10.951
oe	-10.9511
Pro	-10.9512
▁delicious	-10.9515
▁Pal	-10.9519
▁osteo	-10.9519
▁insulation	-10.952
▁responsibility	-10.9524
▁particle	-10.9526
thy	-10.9526
▁Despite	-10.9533
▁Vo	-10.9534
▁artists	-10.954
cker	-10.954
stick	-10.9541
▁consistent	-10.9542
IR	-10.9542
▁storm	-10.9544
▁influenced	-10.9547
▁GPA	-10.9549
PD	-10.9549
zy	-10.9549
▁Wind	-10.9549
▁intensity	-10.9551
▁concentrated	-10.9552
▁redness	-10.9557
▁returned	-10.9559
▁considering	-10.9559
▁diaphragm	-10.956
▁cremation	-10.956
▁fishing	-10.9561
▁keeps	-10.9561
▁limb	-10.9563
tone	-10.9563
▁ancestor	-10.9563
▁bearing	-10.9566
▁insect	-10.9567
IM	-10.9568
▁communicate	-10.9569
TR	-10.9569
▁reserve	-10.957
▁concentrations	-10.9572
▁Normally	-10.9572
used	-10.9574
▁ur	-10.9576
flow	-10.9576
▁genital	-10.9578
scale	-10.9584
▁ribosomes	-10.9584
▁pelvis	-10.9587
▁remote	-10.9587
▁bonuses	-10.9587
▁definitely	-10.9592
▁Gi	-10.9594
emp	-10.9594
-9	-10.9595
▁league	-10.9596
▁false	-10.9596
▁NBA	-10.9599
▁130	-10.9602
▁random	-10.9605
▁initially	-10.9606
▁Sky	-10.9612
▁silk	-10.9621
ically	-10.9622
▁combines	-10.9623
▁psychological	-10.9623
▁platform	-10.9623
▁2011.	-10.9624
leg	-10.9627
▁laid	-10.9628
▁Plus	-10.9628
▁harvest	-10.9629
▁happy	-10.9632
▁ended	-10.9632
▁outdoor	-10.9633
▁clot	-10.9636
▁shelter	-10.9642
▁fatal	-10.9642
This	-10.9644
▁backbone	-10.9645
wide	-10.9648
▁pond	-10.965
▁psychologist	-10.9656
▁furnace	-10.9659
▁legislation	-10.9659
▁kilowatt	-10.9659
▁planted	-10.9664
▁appeal	-10.9668
OT	-10.9669
▁implant	-10.9672
An	-10.9672
▁sexually	-10.9675
TI	-10.9677
▁rural	-10.9679
▁directions	-10.968
▁assessment	-10.9682
▁germ	-10.9683
▁salad	-10.9685
▁(/ˈ	-10.9687
▁$125	-10.9687
▁Officer	-10.9687
▁NFL	-10.9688
▁assigned	-10.9688
yourself	-10.9688
▁Prime	-10.9688
▁pie	-10.9689
ept	-10.9691
▁graphic	-10.9691
NS	-10.9695
put	-10.9697
▁Prices	-10.9702
char	-10.9705
ef	-10.9708
▁ill	-10.971
ald	-10.971
▁genre	-10.9711
▁spinach	-10.9715
cup	-10.9715
▁Base	-10.9716
▁flash	-10.9716
▁metric	-10.9716
TV	-10.9716
▁colony	-10.9718
▁edges	-10.9721
▁Continental	-10.9724
▁trick	-10.9728
ii	-10.9731
law	-10.9732
pu	-10.9732
▁dedicated	-10.9732
▁fructose	-10.9733
▁goat	-10.9734
quality	-10.9738
▁Method	-10.9742
nar	-10.9743
▁upgrade	-10.9747
▁sinus	-10.9749
▁marijuana	-10.9751
▁magnet	-10.9754
▁liter	-10.9756
▁speakers	-10.9757
▁ahead	-10.9758
▁phosphorus	-10.976
▁Modern	-10.976
▁syll	-10.9764
▁Far	-10.9765
▁($1	-10.9766
▁genetically	-10.9767
▁Royal	-10.9774
lea	-10.9777
▁Vietnam	-10.9778
▁holder	-10.9778
▁mat	-10.978
▁Cam	-10.9783
▁classical	-10.9786
▁exit	-10.979
▁Unit	-10.9792
▁Return	-10.9798
▁Ham	-10.9799
▁contents	-10.98
ening	-10.9801
▁eukaryotes	-10.9806
▁Battle	-10.9807
▁tablet	-10.9807
▁Sar	-10.9807
MC	-10.9808
▁deals	-10.981
To	-10.981
af	-10.9811
key	-10.9812
ddle	-10.9814
▁cycles	-10.9814
▁Pen	-10.9817
▁salivary	-10.9818
verse	-10.9823
▁doors	-10.9825
▁wonder	-10.9827
▁40%	-10.9828
▁$31	-10.983
▁careful	-10.9831
▁Bull	-10.9831
lets	-10.9831
lash	-10.9833
▁constructed	-10.9842
▁worn	-10.9843
▁3.5	-10.9843
▁leafy	-10.9849
▁defines	-10.9849
where	-10.985
▁arc	-10.9852
white	-10.9852
▁complicated	-10.9852
tur	-10.9853
EX	-10.9853
EE	-10.9856
▁pets	-10.9864
▁Uber	-10.9869
▁microscopic	-10.9871
It	-10.9873
▁confirm	-10.9875
▁regulations	-10.9876
▁soak	-10.9876
▁1920	-10.9878
box	-10.9879
▁Hospital	-10.988
▁Peninsula	-10.988
▁cons	-10.988
plication	-10.9881
▁Excel	-10.9881
CP	-10.9882
▁III	-10.9885
▁NO	-10.9887
▁secrete	-10.9889
▁Muslim	-10.9889
▁oxidation	-10.9889
▁pronunciation	-10.9889
▁$55	-10.9891
▁sheets	-10.9891
mate	-10.9894
nz	-10.9894
oon	-10.9894
▁colorless	-10.9895
▁specialize	-10.9895
▁occupational	-10.9896
▁125	-10.9898
▁discussion	-10.9898
▁accredited	-10.9899
▁folk	-10.9899
TE	-10.9907
▁Tweet	-10.9908
▁ki	-10.9911
ini	-10.9913
▁endoplasmic	-10.9917
▁readily	-10.9917
▁spin	-10.9918
ished	-10.992
-$4	-10.9921
ago	-10.9923
test	-10.9924
▁diem	-10.9924
▁pathogens	-10.9925
Con	-10.9926
▁entitled	-10.9936
▁USDA	-10.9936
▁array	-10.9937
▁practitioner	-10.9938
,250	-10.9938
▁43	-10.9943
▁mouse	-10.9947
cri	-10.9948
▁gear	-10.9949
▁62	-10.9952
▁belonging	-10.9956
TER	-10.9957
▁ozone	-10.9957
▁transform	-10.9961
▁Net	-10.9963
▁arrival	-10.9964
▁Char	-10.9965
▁traveling	-10.9967
▁Tour	-10.9968
▁intra	-10.9968
▁Will	-10.997
▁poet	-10.9971
▁cognitive	-10.9973
▁sight	-10.9974
▁Neuro	-10.9977
▁campaign	-10.9983
▁rubber	-10.9984
fall	-10.9984
▁certainly	-10.9984
▁laser	-10.9986
▁hardware	-10.9986
▁quantities	-10.9992
▁comprises	-10.9994
una	-11.0002
▁Israel	-11.0002
EP	-11.0003
▁prop	-11.0005
▁AB	-11.0007
▁oceans	-11.0009
▁metamorphic	-11.0011
▁Monday	-11.0013
▁Period	-11.0018
▁Republican	-11.0019
▁Director	-11.0019
▁Peru	-11.002
zu	-11.0022
▁dam	-11.0036
-15	-11.0038
▁guitar	-11.0039
▁Flu	-11.0042
▁helped	-11.0044
▁Run	-11.0044
▁identification	-11.0049
▁twin	-11.005
▁representative	-11.0056
▁trim	-11.0058
▁articles	-11.0058
▁dys	-11.0059
▁TB	-11.0061
duct	-11.0066
▁opportunities	-11.0068
bul	-11.0072
▁tried	-11.0073
▁fer	-11.0077
cular	-11.008
▁capture	-11.008
▁Marine	-11.0083
▁Hotel	-11.0083
▁nut	-11.0083
▁$36	-11.0086
▁Salmonella	-11.0087
▁Down	-11.0092
▁valves	-11.0094
▁stamp	-11.0095
PE	-11.0096
▁ranks	-11.0096
▁defect	-11.0101
▁DO	-11.0101
▁pat	-11.0101
9,000	-11.0102
▁2010.	-11.0102
▁borders	-11.0106
▁phenomenon	-11.0106
▁Certain	-11.0106
bone	-11.0111
▁dip	-11.0114
ander	-11.0115
▁existence	-11.0117
▁Ask	-11.0119
ston	-11.0121
rite	-11.0123
▁Facts	-11.0123
▁Additional	-11.0123
▁medial	-11.0125
▁wolf	-11.0127
▁ban	-11.0127
▁weed	-11.0129
4)	-11.0133
omer	-11.0134
▁serotonin	-11.0134
style	-11.0135
▁achieved	-11.0136
▁glue	-11.0143
▁messenger	-11.0144
▁philosophy	-11.0144
▁relax	-11.0145
LD	-11.0145
gent	-11.0145
▁shed	-11.0146
pes	-11.0148
▁$90	-11.015
▁rings	-11.0151
▁Missouri	-11.0153
▁showed	-11.0162
dro	-11.0163
▁update	-11.0164
▁melting	-11.0165
▁lighter	-11.0166
▁granted	-11.0166
negative	-11.0168
▁49	-11.017
vic	-11.017
▁designer	-11.0173
▁civilization	-11.0175
▁Bell	-11.0175
ulin	-11.0178
▁episode	-11.018
lac	-11.0181
▁truth	-11.0182
▁minimal	-11.0182
▁dr	-11.0183
▁fo	-11.0183
eh	-11.0185
▁distinguished	-11.0187
▁Cross	-11.0187
▁constituent	-11.0192
▁expansion	-11.0192
▁amazing	-11.0192
▁needle	-11.0193
▁1996	-11.0194
▁peri	-11.0195
▁rabbits	-11.0196
▁booster	-11.0198
MI	-11.0201
lim	-11.0203
▁lakes	-11.0205
▁compact	-11.0207
bur	-11.0209
▁15%	-11.021
▁designated	-11.021
▁ownership	-11.0212
▁reward	-11.0215
▁derives	-11.0218
▁estrogen	-11.0224
▁workout	-11.0224
view	-11.0224
▁packages	-11.0224
▁influenza	-11.0225
United	-11.0225
▁$32	-11.0227
▁residence	-11.023
▁Andrew	-11.024
▁Seattle	-11.0241
tim	-11.0243
▁450	-11.0248
▁Minnesota	-11.0249
▁worry	-11.0249
bell	-11.025
▁Sugar	-11.025
terior	-11.0251
ava	-11.0256
▁1-2	-11.0267
▁suggested	-11.0269
▁simplest	-11.027
▁delivered	-11.0272
▁Hydro	-11.0273
▁claimed	-11.0277
aving	-11.0278
▁differs	-11.0279
OH	-11.0281
▁apples	-11.0281
▁mining	-11.0282
▁Nu	-11.0284
▁audio	-11.0284
▁Have	-11.0287
▁47474	-11.0288
oh	-11.029
▁internet	-11.029
ml	-11.0294
tting	-11.0299
▁Hyper	-11.0299
rit	-11.0301
▁universal	-11.0307
▁successfully	-11.0312
kh	-11.0316
▁easiest	-11.0317
▁metropolitan	-11.0317
▁injured	-11.0317
▁Lymph	-11.0317
▁varied	-11.0317
vers	-11.0318
▁comfort	-11.0324
▁Answered	-11.0325
▁pad	-11.0325
▁compression	-11.0325
mbo	-11.0326
▁ve	-11.0327
▁broker	-11.0327
OW	-11.0327
▁additive	-11.0329
▁dynamic	-11.0332
▁pill	-11.0335
▁ordinary	-11.0337
▁ri	-11.0337
150	-11.0337
▁Process	-11.034
▁fasting	-11.034
place	-11.0342
▁Den	-11.0344
▁oc	-11.0346
▁Jackson	-11.0348
product	-11.0351
TO	-11.0356
▁info	-11.0356
▁mucosa	-11.0356
▁Exchange	-11.0356
▁Main	-11.0357
▁surrounds	-11.0359
▁Order	-11.036
▁seasoning	-11.036
▁populations	-11.0362
2.5	-11.0364
isation	-11.0364
▁Thumb	-11.0366
▁inflamed	-11.0366
▁osteoarthritis	-11.0366
▁vine	-11.0367
sexual	-11.0376
▁introduction	-11.0376
▁Familiarity	-11.0376
▁oxygenated	-11.0376
▁acne	-11.0377
▁supposed	-11.0379
DNA	-11.0381
▁USB	-11.0384
▁Kansas	-11.0385
▁republic	-11.0386
▁Region	-11.0389
▁Registered	-11.0394
▁Zone	-11.0394
▁prefix	-11.0396
CS	-11.0397
▁Frank	-11.0398
De	-11.0402
▁writer	-11.0404
▁DEFINITION	-11.0405
▁fertile	-11.0405
▁exterior	-11.0406
▁throw	-11.0409
%).	-11.0413
▁Students	-11.0414
▁climb	-11.0414
▁Station	-11.0415
▁supplier	-11.0415
polar	-11.0415
tine	-11.0416
▁Buy	-11.0421
▁chlorophyll	-11.0425
ivity	-11.0429
▁favor	-11.043
▁Austria	-11.0434
▁deeper	-11.0435
▁delay	-11.0436
▁uniform	-11.0439
word	-11.0439
▁Bro	-11.0441
▁gravity	-11.0444
▁Arm	-11.0446
▁Young	-11.0447
▁1998	-11.0447
▁Clo	-11.0451
▁64	-11.0451
round	-11.0453
▁Alabama	-11.0454
▁framework	-11.0455
.99	-11.0456
▁checking	-11.0456
▁publication	-11.0457
▁Side	-11.046
▁Hawaiian	-11.0462
▁evenly	-11.0463
▁cooler	-11.0464
▁sprain	-11.0464
▁SI	-11.0469
▁constantly	-11.0473
▁evaluation	-11.0474
▁convey	-11.0474
▁Pri	-11.0475
▁shoot	-11.0475
▁falling	-11.0479
▁hemisphere	-11.0479
▁retina	-11.048
▁cellulose	-11.048
▁Online	-11.0481
▁platelets	-11.0482
▁mal	-11.0483
▁Dallas	-11.0484
chy	-11.0484
ico	-11.0486
▁convention	-11.0487
▁ml	-11.0491
tam	-11.0493
card	-11.0494
▁waiting	-11.0495
▁connecting	-11.0495
▁ter	-11.0496
▁Bear	-11.0497
▁bloom	-11.0499
▁$41	-11.0502
▁Bring	-11.0502
▁spasms	-11.0502
▁quote	-11.0503
▁Question	-11.0503
SI	-11.0507
▁panels	-11.0508
especially	-11.0512
▁Hot	-11.0512
▁southwest	-11.0514
▁Norway	-11.0514
▁router	-11.0515
cot	-11.0521
▁slight	-11.0522
aging	-11.0523
▁applicable	-11.0523
▁understood	-11.0523
▁foam	-11.0525
▁van	-11.0526
acy	-11.0527
▁Training	-11.0529
PP	-11.0532
▁faith	-11.0534
nus	-11.0536
▁headaches	-11.0539
▁chamber	-11.054
▁forced	-11.0543
▁perspective	-11.0543
▁mole	-11.055
Cl	-11.0552
▁Supreme	-11.0553
▁truly	-11.0553
▁Bal	-11.0554
rat	-11.0559
RNA	-11.056
▁ceramic	-11.0563
▁bat	-11.0563
▁appointment	-11.0564
▁coil	-11.0565
ua	-11.0567
▁underground	-11.0568
▁voluntary	-11.057
▁tro	-11.0573
ira	-11.0573
GI	-11.0574
▁Play	-11.0574
MD	-11.0574
she	-11.0578
▁Sir	-11.0579
gh	-11.0582
▁enclosed	-11.0583
ail	-11.0584
▁Salt	-11.0587
col	-11.0587
position	-11.0588
win	-11.059
▁universities	-11.0593
▁basketball	-11.0593
▁$700	-11.0594
mol	-11.0595
▁manufacturers	-11.0597
▁Mid	-11.0598
▁reside	-11.0598
▁RA	-11.0601
▁FL	-11.0602
▁facilitate	-11.0603
say	-11.0603
▁ginger	-11.0604
▁Tar	-11.0605
▁drainage	-11.0606
▁dec	-11.0608
▁tablespoons	-11.0613
▁parathyroid	-11.0613
▁mini	-11.0619
lk	-11.0621
▁ionic	-11.0623
▁twenty	-11.0623
▁scalp	-11.0623
▁math	-11.0624
ged	-11.0624
▁encourage	-11.0627
▁conditioner	-11.063
▁Lan	-11.0631
▁floors	-11.0634
▁bonded	-11.0639
▁Kel	-11.064
▁Kentucky	-11.0643
▁stories	-11.0643
Ca	-11.0643
▁producer	-11.0644
▁$350	-11.0647
▁Clinical	-11.0648
▁fu	-11.0653
▁Bre	-11.0655
▁delete	-11.0658
ound	-11.0658
▁arise	-11.0659
LP	-11.0662
▁lumbar	-11.0663
▁Female	-11.0663
▁Delta	-11.0665
▁chloroplasts	-11.0668
▁multicellular	-11.0674
▁bay	-11.0675
▁prevention	-11.0677
tile	-11.0678
▁Right	-11.0678
▁factory	-11.0678
▁Persian	-11.0683
alis	-11.0684
▁styles	-11.0684
▁rays	-11.0684
get	-11.0685
▁stra	-11.0687
▁jar	-11.0689
▁therapists	-11.0689
▁legally	-11.0689
power	-11.0691
▁ACT	-11.0693
▁crude	-11.0694
▁listen	-11.0694
▁drawn	-11.0696
▁massage	-11.0697
Al	-11.0703
▁Mississippi	-11.0703
▁pollution	-11.0704
▁escape	-11.0704
▁swim	-11.0704
▁stability	-11.0705
▁affordable	-11.0705
▁PV	-11.0706
real	-11.071
▁med	-11.0716
▁bills	-11.0716
▁choices	-11.072
▁59	-11.0721
▁Ku	-11.0722
▁Oxygen	-11.0724
▁beverages	-11.0724
▁physics	-11.0726
▁predators	-11.0727
idine	-11.073
▁visitors	-11.0735
▁shrub	-11.0735
▁germinate	-11.0737
▁despite	-11.0744
▁southeast	-11.0745
▁decade	-11.0747
ution	-11.0748
▁Connecticut	-11.0754
▁indication	-11.0754
▁confusion	-11.0755
iasis	-11.0756
▁highlight	-11.0758
▁moral	-11.0758
iest	-11.0759
MR	-11.076
▁patches	-11.0761
▁Wild	-11.0762
▁audit	-11.0762
▁rust	-11.0763
▁Alcohol	-11.0764
cet	-11.0764
▁mor	-11.077
bble	-11.0771
▁channels	-11.0771
▁Express	-11.0772
▁danger	-11.0773
▁tour	-11.0774
shi	-11.0776
sch	-11.0782
sometimes	-11.0783
▁Reported	-11.0784
▁latter	-11.0786
▁maybe	-11.0787
hydr	-11.0789
hop	-11.0789
▁Fri	-11.0789
itive	-11.0793
▁boot	-11.0794
▁95	-11.0795
▁discipline	-11.0795
▁Smith	-11.0795
▁basal	-11.0796
▁insoluble	-11.0798
Fi	-11.08
▁transported	-11.08
▁Acid	-11.0801
lav	-11.0802
▁tiles	-11.0804
▁bid	-11.0805
▁sat	-11.0813
▁repeated	-11.0813
▁readers	-11.0813
▁synthesized	-11.0815
pm	-11.0815
▁jurisdiction	-11.0815
▁Cells	-11.082
▁tickets	-11.0823
▁Sprinkle	-11.0825
▁Simply	-11.0825
▁resist	-11.0826
▁operates	-11.0826
▁networks	-11.0829
oz	-11.083
▁evolution	-11.0834
▁Glucose	-11.0835
▁stimulates	-11.0838
nut	-11.0844
▁contractions	-11.0844
▁Dam	-11.0844
week	-11.0845
▁Louisiana	-11.0846
base	-11.0848
▁laying	-11.085
▁Originally	-11.0854
▁scrap	-11.0857
CL	-11.0859
▁bend	-11.0859
▁priced	-11.0861
ATION	-11.0862
8,	-11.0863
▁Horse	-11.0864
cil	-11.0866
▁flesh	-11.0866
▁summary	-11.0866
▁launched	-11.0866
▁strep	-11.0866
▁slice	-11.0868
▁che	-11.0868
▁ulcer	-11.0869
▁defects	-11.087
▁mere	-11.0871
▁£2	-11.0872
▁brings	-11.0873
▁PM	-11.0874
▁Live	-11.0877
▁debate	-11.0879
▁hy	-11.0884
▁soften	-11.0884
▁cornea	-11.0886
Mo	-11.0886
▁$85	-11.0887
▁Miami	-11.0887
▁Gen	-11.089
▁56	-11.0894
ida	-11.0895
▁Traditional	-11.0896
▁clock	-11.0897
-$3	-11.0897
▁Compare	-11.0902
▁Whole	-11.0902
bon	-11.0904
▁checked	-11.0905
▁medulla	-11.091
▁jo	-11.0912
▁$42	-11.0912
▁Fla	-11.0917
▁cranial	-11.0918
▁winds	-11.0918
▁700	-11.092
nnie	-11.0921
▁Are	-11.0921
ille	-11.0923
hoe	-11.0924
▁Chile	-11.0926
▁Hy	-11.0926
▁operator	-11.0929
▁hiring	-11.0929
▁Born	-11.093
anti	-11.0933
▁rail	-11.0933
▁antioxidant	-11.0933
rock	-11.0936
▁outlet	-11.0938
rain	-11.0938
▁hook	-11.094
▁campus	-11.094
▁instant	-11.0942
▁Lower	-11.0947
▁belly	-11.0948
▁diversity	-11.0949
▁Pra	-11.095
▁tower	-11.095
▁destroyed	-11.0953
▁spores	-11.0954
▁integrated	-11.0955
▁Image	-11.0955
▁reporting	-11.0958
▁Computer	-11.0959
▁Experience	-11.0959
▁optimal	-11.0959
▁rigid	-11.0959
▁tone	-11.0959
▁upwards	-11.096
▁topic	-11.0961
▁1997	-11.0961
▁fried	-11.0961
▁1995	-11.0963
▁Connect	-11.0968
▁printing	-11.0969
▁zoo	-11.097
▁Gri	-11.0972
NO	-11.0976
▁temporal	-11.0976
▁fastest	-11.0977
▁Med	-11.0978
▁pharmacy	-11.098
grass	-11.0981
▁Does	-11.0982
▁nearest	-11.0984
400	-11.0984
▁Jewish	-11.099
▁Sho	-11.0991
▁equity	-11.0991
mid	-11.0992
▁HPV	-11.0993
▁mechanisms	-11.0995
VE	-11.0996
iform	-11.0997
▁$25,000	-11.1
▁uncovered	-11.1001
▁seafood	-11.1002
▁dirt	-11.1002
▁adjusted	-11.1003
click	-11.1004
▁keyboard	-11.1005
▁AM	-11.1007
-ˈ	-11.1008
▁checks	-11.101
▁blisters	-11.101
▁Yellow	-11.101
▁convenient	-11.1011
▁Occupation	-11.1011
▁pancreatic	-11.1011
▁Simple	-11.1015
▁ko	-11.1015
▁$1,200	-11.1021
▁destruction	-11.1021
▁Answers	-11.1027
opathy	-11.1027
▁marker	-11.103
▁debris	-11.1032
▁subspecies	-11.1032
▁Comments	-11.1038
▁organelle	-11.104
▁puppies	-11.1042
▁gelatin	-11.1042
▁evening	-11.105
lyn	-11.1052
worms	-11.1053
▁reliable	-11.1053
▁Expect	-11.1053
▁Saint	-11.1054
▁Democratic	-11.1055
onia	-11.106
▁citizen	-11.106
▁selective	-11.106
▁AC	-11.106
▁inorganic	-11.1061
▁flavour	-11.1063
▁offspring	-11.1063
▁implies	-11.1063
▁Chief	-11.1064
positive	-11.1064
▁script	-11.1064
▁Tiger	-11.1065
▁attractive	-11.1065
▁sits	-11.1068
▁preheated	-11.1071
zer	-11.1071
▁import	-11.1072
▁fetus	-11.1074
▁berries	-11.1075
colored	-11.1079
▁combustion	-11.1084
▁knot	-11.1087
▁tech	-11.1088
EST	-11.1091
▁stimulus	-11.1095
▁veterinary	-11.1095
▁strike	-11.1095
▁Always	-11.1095
▁newly	-11.1095
▁gemstone	-11.1095
got	-11.1095
▁representation	-11.1096
▁helix	-11.1096
▁regard	-11.1099
▁grape	-11.11
▁atmospheric	-11.1101
▁rooms	-11.1103
▁distinction	-11.1104
▁launch	-11.1105
tech	-11.1108
▁designs	-11.1109
▁radi	-11.1113
▁Wal	-11.1114
tax	-11.1115
▁Qu	-11.1115
▁Fair	-11.1115
▁tectonic	-11.1116
▁$44	-11.1117
▁$40,000	-11.1117
▁oak	-11.1119
▁dissolve	-11.1119
other	-11.112
tral	-11.1121
ington	-11.1124
▁challenge	-11.1125
▁Leg	-11.1126
ometer	-11.1129
▁markets	-11.1131
▁bringing	-11.1133
▁criteria	-11.1137
▁$37	-11.1138
▁vacation	-11.1139
▁comment	-11.1139
▁realize	-11.1141
▁processor	-11.1142
night	-11.1144
num	-11.1145
▁microscope	-11.1147
▁partnership	-11.1148
▁Ban	-11.1148
▁ethanol	-11.1151
▁drum	-11.1152
▁climates	-11.1155
▁overhead	-11.1156
▁clo	-11.1157
▁vocal	-11.1158
rey	-11.1159
▁Castle	-11.116
▁Tap	-11.1161
▁ran	-11.1163
▁weekend	-11.1164
bid	-11.1167
▁Thyroid	-11.1168
▁mythology	-11.1169
–1	-11.117
ounce	-11.1173
▁discovery	-11.1174
▁eu	-11.1175
▁dividing	-11.1179
▁chickens	-11.1188
rel	-11.1188
▁evergreen	-11.119
▁70%	-11.1192
▁PDF	-11.1198
they	-11.1201
▁candidate	-11.1201
even	-11.1202
ssa	-11.1206
vation	-11.1208
▁Dog	-11.121
▁Nevada	-11.1211
TP	-11.1214
▁antioxidants	-11.1216
▁gun	-11.1218
▁controlling	-11.1218
quest	-11.122
organ	-11.1222
rac	-11.1227
▁metre	-11.1228
▁Ky	-11.1232
▁Watch	-11.1234
▁Ford	-11.1234
▁originates	-11.1234
▁bonding	-11.1237
▁legumes	-11.1238
▁advantages	-11.1239
▁Animal	-11.1242
▁dating	-11.1242
▁supported	-11.1243
▁(15	-11.1245
▁rap	-11.1247
▁experiences	-11.1248
ark	-11.1253
▁Sweden	-11.1253
▁focuses	-11.1257
▁rat	-11.1259
▁songs	-11.1259
▁yes	-11.1262
▁concepts	-11.1263
▁clothes	-11.1264
▁advertising	-11.1264
date	-11.1264
pic	-11.1265
bri	-11.1265
▁comprised	-11.1266
NC	-11.1272
▁wi	-11.1272
▁feminine	-11.1275
▁obligation	-11.1275
▁admission	-11.1275
▁northwest	-11.1275
arian	-11.1277
▁mud	-11.1285
▁balanced	-11.1285
▁itchy	-11.1285
▁bedroom	-11.1286
▁Local	-11.1287
▁sores	-11.1293
ogenic	-11.1293
▁hen	-11.1296
▁Cro	-11.1296
▁rainforest	-11.1299
▁psychologists	-11.1301
▁ER	-11.1301
▁Peter	-11.1301
▁enlarged	-11.1302
ister	-11.1305
▁greens	-11.1305
Li	-11.1309
new	-11.1312
▁perfectly	-11.1312
▁views	-11.1313
▁(0	-11.1315
▁Pakistan	-11.1318
wan	-11.1322
▁cave	-11.1326
▁Ber	-11.1327
▁credits	-11.1327
▁Elizabeth	-11.1328
▁Welsh	-11.1328
▁wants	-11.1331
▁patch	-11.1335
▁learned	-11.1339
▁Christmas	-11.1339
▁ecosystem	-11.1343
SL	-11.1344
▁Tro	-11.1344
▁fans	-11.1345
▁habit	-11.1347
▁damp	-11.135
▁literary	-11.1351
▁Brand	-11.1353
▁expert	-11.1353
▁pumps	-11.1357
▁cereals	-11.1357
bert	-11.1359
▁displayed	-11.1359
▁vas	-11.136
▁duodenum	-11.1361
▁substrate	-11.1361
try	-11.1361
gor	-11.1361
▁courts	-11.1361
▁northeast	-11.1362
▁1880	-11.1368
▁ester	-11.1368
▁Son	-11.1368
▁calling	-11.1369
▁approval	-11.1371
▁vegetation	-11.1371
▁Leave	-11.1372
VA	-11.1372
▁mill	-11.1375
▁harden	-11.1375
▁DC	-11.1376
code	-11.1377
▁observation	-11.1382
▁husband	-11.1382
▁purchasing	-11.1382
second	-11.1384
▁insight	-11.1391
▁specimen	-11.1393
▁packaging	-11.1393
▁donor	-11.1397
▁ple	-11.1404
▁broccoli	-11.1404
▁explanation	-11.1404
▁fibrosis	-11.1404
▁hum	-11.1405
▁Pap	-11.1405
1)	-11.1406
▁exclusively	-11.1407
ison	-11.1408
LO	-11.1408
flower	-11.1413
▁maintained	-11.1414
▁citrus	-11.1415
ote	-11.1415
▁License	-11.142
case	-11.1421
▁Santa	-11.1427
300	-11.1427
▁computers	-11.1429
▁Fiber	-11.143
▁(17	-11.1432
▁translates	-11.1436
▁incubator	-11.1436
▁Del	-11.1437
-14	-11.1441
SC	-11.1441
▁News	-11.1441
▁chickenpox	-11.1447
▁Atlanta	-11.1447
▁Supplement	-11.1447
▁Joseph	-11.1448
▁Market	-11.1448
▁ja	-11.1453
▁birthday	-11.1454
▁attachment	-11.1455
▁construct	-11.1455
▁conjunction	-11.1458
▁employ	-11.1463
▁arrow	-11.1463
▁Space	-11.1465
▁325	-11.1466
tron	-11.1468
▁samples	-11.1469
▁suffering	-11.1471
DS	-11.1475
▁parasite	-11.1476
▁HDL	-11.1477
▁defend	-11.1477
▁IQ	-11.1478
LL	-11.1479
▁piano	-11.1481
izer	-11.1482
▁pulp	-11.1482
350	-11.1489
▁iPad	-11.1491
▁Video	-11.1491
▁adenine	-11.1491
▁aquatic	-11.1491
▁$52	-11.15
▁syn	-11.1501
▁omega	-11.1502
▁ME	-11.1503
vir	-11.1504
▁blog	-11.1507
▁char	-11.1507
▁(200	-11.1509
▁videos	-11.151
▁gained	-11.1511
▁Internal	-11.1513
PR	-11.1518
▁passive	-11.1521
▁Southeast	-11.1521
▁agricultural	-11.1524
▁deciduous	-11.1524
▁malaria	-11.1524
MO	-11.1524
▁bell	-11.1524
▁promise	-11.1524
▁CEO	-11.1525
▁formerly	-11.1528
▁(16	-11.1528
▁$53	-11.153
pel	-11.1531
fully	-11.1531
BC	-11.1531
▁sour	-11.1532
▁clinic	-11.1534
▁magazine	-11.1535
▁Reserve	-11.1535
▁tuna	-11.1537
▁Model	-11.154
▁bites	-11.1545
▁WA	-11.1545
▁Download	-11.1546
▁inhabit	-11.1547
▁stimulate	-11.1549
je	-11.1549
▁mainland	-11.1552
gna	-11.1554
py	-11.1554
IV	-11.1556
▁sponge	-11.1557
TS	-11.156
▁fed	-11.1566
eye	-11.1566
▁Floor	-11.1568
▁outcome	-11.157
▁compete	-11.157
▁pills	-11.1577
▁cultivated	-11.1579
▁mirror	-11.1579
▁twelve	-11.1579
▁staple	-11.1579
▁Access	-11.1579
▁edit	-11.1579
▁chemically	-11.1584
200	-11.1585
▁proven	-11.1589
▁intermediate	-11.159
▁deviation	-11.159
each	-11.1596
▁Sales	-11.1597
▁Living	-11.1601
▁departure	-11.1601
▁lunch	-11.1601
▁Edward	-11.1601
exe	-11.1602
▁tr	-11.1603
▁differently	-11.1605
▁harder	-11.1608
▁mL	-11.1609
del	-11.1612
▁dialect	-11.1612
▁Camp	-11.1616
▁reef	-11.1617
▁carb	-11.162
inter	-11.1621
▁lesions	-11.1621
PG	-11.1621
▁alleles	-11.1624
▁rye	-11.1625
▁fragments	-11.1627
▁hardwood	-11.1628
▁predominantly	-11.1628
phen	-11.1628
▁regulates	-11.163
▁Iceland	-11.163
▁3,000	-11.1633
▁exhaust	-11.1634
▁underneath	-11.1634
▁focused	-11.1634
▁wonderful	-11.1635
▁vice	-11.1636
▁flying	-11.1636
▁discussed	-11.1637
trophic	-11.1639
▁photograph	-11.164
chin	-11.1645
▁Governor	-11.1645
▁Global	-11.1645
wise	-11.1646
RN	-11.1646
])	-11.165
▁Ob	-11.1654
▁crucial	-11.1656
▁signature	-11.1657
gress	-11.166
hole	-11.1662
proof	-11.1666
▁dimensions	-11.1667
▁athletes	-11.1668
gri	-11.1668
▁sin	-11.1669
ogram	-11.1669
▁habitats	-11.167
▁Poland	-11.1671
ending	-11.1673
▁repeat	-11.1675
sky	-11.1676
▁acronym	-11.1678
▁bilirubin	-11.1678
▁stalk	-11.1678
▁pays	-11.1682
igh	-11.1682
▁shells	-11.1683
▁converts	-11.1686
▁french	-11.1689
▁plague	-11.1689
▁superficial	-11.1689
ectomy	-11.1692
▁Farm	-11.1693
horn	-11.1695
▁graduates	-11.1698
▁accumulation	-11.17
▁asparagus	-11.17
▁dysfunction	-11.1701
▁tie	-11.1702
▁Too	-11.1705
▁Patients	-11.171
▁heads	-11.1711
▁inflation	-11.1712
▁versus	-11.1712
wo	-11.1714
▁gate	-11.1714
aya	-11.1719
▁Cooking	-11.1721
▁worm	-11.1721
mile	-11.1722
▁Turkish	-11.1723
▁calf	-11.1726
▁1,500	-11.1727
▁manual	-11.1727
▁burns	-11.1729
EM	-11.1729
▁Whi	-11.1731
▁heel	-11.1734
▁electrician	-11.1734
▁Academy	-11.1734
▁Structure	-11.1734
▁cabbage	-11.1734
oil	-11.1736
▁1989	-11.1737
▁rotate	-11.1737
▁Arch	-11.1738
▁ranking	-11.1739
▁cylinder	-11.1745
▁prokaryotes	-11.1745
▁radical	-11.1746
▁aging	-11.1746
▁$49	-11.1747
rays	-11.1749
▁implants	-11.175
NG	-11.175
yan	-11.1755
ld	-11.1756
▁Wisconsin	-11.1756
▁cavities	-11.1756
▁configuration	-11.1756
▁Iran	-11.1759
▁asking	-11.1762
▁hypertension	-11.1763
▁renewal	-11.1764
borne	-11.1767
▁Support	-11.1768
▁Surgery	-11.1768
▁Malaysia	-11.1771
rri	-11.1773
▁separates	-11.1774
▁indirect	-11.1774
▁hide	-11.1776
▁Portuguese	-11.1779
▁Candida	-11.1779
II	-11.1781
▁Additionally	-11.1781
▁constitution	-11.1782
▁fibre	-11.1782
▁Ash	-11.1782
tip	-11.1782
▁answers	-11.1783
▁measurements	-11.1784
▁Log	-11.1784
▁emotions	-11.1786
section	-11.179
▁geography	-11.179
▁regulated	-11.1792
▁alloy	-11.1794
▁contractors	-11.1795
RM	-11.1799
urg	-11.1799
▁extending	-11.1799
▁41	-11.18
▁neighborhood	-11.1801
tag	-11.1803
▁$46	-11.1804
▁metallic	-11.1804
OD	-11.1811
▁Tennessee	-11.1813
▁arrest	-11.1813
▁broth	-11.1814
▁continents	-11.1814
▁mac	-11.1816
▁meets	-11.1816
▁NA	-11.1816
▁$38	-11.1817
▁Server	-11.182
▁Exp	-11.1822
UL	-11.1824
▁qualities	-11.1824
▁missing	-11.1828
▁clam	-11.1828
▁Unfortunately	-11.1835
▁prokaryotic	-11.1835
▁supplied	-11.1835
▁UN	-11.1838
▁consuming	-11.1839
celled	-11.1839
▁gall	-11.1839
▁declared	-11.1842
▁shield	-11.1847
▁vector	-11.1847
▁AU	-11.1848
▁gym	-11.1849
▁snap	-11.1849
▁Building	-11.1855
▁coach	-11.1856
▁assembly	-11.1858
count	-11.186
▁Being	-11.186
▁jet	-11.1862
ffi	-11.1866
making	-11.1869
▁barrel	-11.187
iki	-11.1873
▁whales	-11.188
tage	-11.1885
CI	-11.1887
▁constitutional	-11.1889
ika	-11.189
▁$56	-11.189
▁thoroughly	-11.1897
▁Development	-11.1899
▁homo	-11.1903
▁Factor	-11.1904
▁cilia	-11.1905
▁triple	-11.1909
▁involuntary	-11.191
▁urea	-11.1912
▁eczema	-11.1915
▁raising	-11.1915
▁tables	-11.1916
▁segments	-11.192
▁(12	-11.1921
▁virtually	-11.1924
▁drama	-11.1925
▁beaches	-11.1926
▁thymine	-11.1926
▁heavily	-11.1926
▁375	-11.193
tia	-11.1931
roll	-11.1933
pher	-11.1935
ific	-11.1935
▁trading	-11.1938
▁Clear	-11.1939
pop	-11.1939
▁Kar	-11.1941
▁dozen	-11.1943
▁hernia	-11.1943
▁UV	-11.1945
PT	-11.1949
source	-11.1949
▁statute	-11.1949
▁Chapter	-11.1949
ENT	-11.195
▁aromatic	-11.195
▁heartbeat	-11.1951
▁clots	-11.1955
▁mixing	-11.196
▁Consider	-11.196
▁Gate	-11.1964
▁$6,000	-11.1965
▁applicants	-11.1965
bury	-11.197
▁automatic	-11.1972
▁hypothyroidism	-11.1972
▁monitoring	-11.1978
oscopy	-11.1978
▁Epi	-11.1979
▁OK	-11.198
▁awarded	-11.198
▁60%	-11.1981
▁mention	-11.1982
▁buildup	-11.1982
▁envelope	-11.1983
▁hydroxide	-11.1983
▁thrive	-11.1983
▁wealth	-11.1984
▁expectancy	-11.1985
▁justice	-11.1987
craft	-11.1987
▁ancestors	-11.1991
▁wearing	-11.1992
met	-11.1993
size	-11.1994
▁Harvard	-11.1995
▁arts	-11.1998
▁abbreviated	-11.2
▁strict	-11.2003
▁ST	-11.2003
▁Technology	-11.2006
▁aggregate	-11.2006
▁Jesus	-11.2006
hol	-11.2007
▁Species	-11.2007
▁sch	-11.2007
▁Trade	-11.2008
VI	-11.2008
▁episodes	-11.2008
▁Uses	-11.2009
▁$48	-11.2009
lateral	-11.2017
Ar	-11.2018
▁Chronic	-11.2018
▁shrimp	-11.2018
▁Posted	-11.2019
▁stations	-11.2019
▁shopping	-11.2019
▁electromagnetic	-11.2019
▁herpes	-11.2021
system	-11.2025
▁$1000	-11.2027
▁ovaries	-11.2029
▁guess	-11.203
IG	-11.2032
▁hind	-11.2033
▁Hope	-11.2036
▁none	-11.2037
lio	-11.2037
eu	-11.2039
▁hat	-11.204
▁makeup	-11.2041
▁knife	-11.2041
▁subsequent	-11.2041
▁glycogen	-11.2042
▁deserts	-11.2042
▁treaty	-11.2043
▁bike	-11.2045
▁watt	-11.2045
century	-11.2048
▁cyst	-11.2049
▁wing	-11.2049
anna	-11.205
▁projection	-11.2051
responsibilities	-11.2052
▁completion	-11.2052
▁Complete	-11.2052
▁triangle	-11.2053
▁Airlines	-11.2053
▁mechanic	-11.2057
cial	-11.2058
▁guests	-11.2059
▁gr	-11.206
▁hunt	-11.2062
pit	-11.2063
▁Catholic	-11.2064
▁adapt	-11.2064
▁explained	-11.2065
▁chlorine	-11.2065
zing	-11.2066
▁erect	-11.2067
▁PO	-11.2071
▁Tre	-11.2074
▁larynx	-11.2076
▁Nerve	-11.2076
▁blocked	-11.2076
▁Var	-11.2076
ugh	-11.2079
link	-11.208
▁Tor	-11.208
vil	-11.2081
protein	-11.2082
DR	-11.2086
▁Insert	-11.2089
▁Temp	-11.2089
▁crystalline	-11.2089
▁sap	-11.2091
▁lobes	-11.2091
▁Off	-11.2094
▁cluster	-11.2097
often	-11.2101
▁Paint	-11.2103
▁1930	-11.2106
▁seasons	-11.2106
▁pizza	-11.211
▁universe	-11.211
▁forearm	-11.2111
food	-11.2117
taining	-11.2119
▁carriers	-11.2119
▁triglycerides	-11.2121
▁Angel	-11.2121
▁54	-11.2122
▁marble	-11.2123
▁bronchi	-11.2125
rag	-11.2125
▁hop	-11.2127
▁warranty	-11.2129
▁gastric	-11.2129
maker	-11.213
▁impossible	-11.2134
▁methane	-11.2135
▁hottest	-11.2135
▁Mineral	-11.2137
olin	-11.2138
cycle	-11.2138
▁scales	-11.2141
▁Sin	-11.2145
▁Win	-11.2149
▁oval	-11.2155
▁pulled	-11.2155
▁feelings	-11.2156
▁Past	-11.2156
▁Sw	-11.2157
▁testosterone	-11.2157
▁victim	-11.2157
▁Hormone	-11.2157
▁ammonia	-11.2157
▁node	-11.2157
ATE	-11.2159
▁radius	-11.2161
Saxon	-11.2161
profit	-11.2162
peri	-11.2165
▁Schedule	-11.2169
▁susceptible	-11.2169
eration	-11.2169
▁Picture	-11.2169
▁concerns	-11.217
▁resolve	-11.217
▁tetra	-11.2171
▁norm	-11.2171
▁Ven	-11.2174
▁craft	-11.2178
▁equally	-11.218
▁Site	-11.2186
▁OR	-11.2187
olar	-11.2188
▁implement	-11.219
▁End	-11.2191
▁creatures	-11.2191
kan	-11.2191
▁Philadelphia	-11.2192
▁Again	-11.2192
▁grasslands	-11.2197
correct	-11.22
ifying	-11.22
▁establishment	-11.2201
▁medicinal	-11.2204
cture	-11.2204
▁Friday	-11.2205
▁clip	-11.2207
▁autonomic	-11.2208
formed	-11.2208
▁Sound	-11.2209
▁adjustment	-11.221
elo	-11.2213
▁adapted	-11.2213
▁Argentina	-11.2215
▁Ecuador	-11.2215
▁flexibility	-11.2216
▁Silver	-11.2217
ND	-11.2221
pri	-11.2222
▁aspirin	-11.2222
▁Grant	-11.2223
▁candidates	-11.2227
▁olfactory	-11.2227
▁dopamine	-11.2227
▁requiring	-11.2227
NP	-11.2228
▁neither	-11.2228
▁Def	-11.223
▁Mat	-11.223
▁Sim	-11.2232
▁Eating	-11.2232
▁Way	-11.2236
▁Legal	-11.2237
▁tears	-11.2238
▁alphabet	-11.2239
▁naming	-11.224
▁(20	-11.2242
▁hill	-11.2245
▁scope	-11.2246
120	-11.2248
culture	-11.2249
▁wondering	-11.225
phil	-11.225
▁schizophrenia	-11.2251
▁risks	-11.2252
ret	-11.2253
▁DVD	-11.2254
gie	-11.2256
▁Boy	-11.2257
rh	-11.2258
ado	-11.2258
▁grapes	-11.2258
▁grocery	-11.2263
▁obesity	-11.2263
▁reptiles	-11.2263
▁Fresh	-11.2263
▁inventor	-11.2264
▁51	-11.2267
phyl	-11.2268
▁managed	-11.2268
cephal	-11.2271
▁Puerto	-11.2274
▁hurt	-11.2275
▁gentle	-11.2275
▁Dan	-11.2276
▁poisonous	-11.2276
▁aortic	-11.2276
▁poetry	-11.2277
▁Qua	-11.2277
▁vegetarian	-11.2282
genic	-11.2282
▁antidepressant	-11.2287
▁Eu	-11.2291
▁lesser	-11.2292
▁Allow	-11.2296
▁hereditary	-11.2298
▁reddish	-11.2298
▁Pluto	-11.2298
▁approximate	-11.2299
chan	-11.2303
rim	-11.2305
▁stove	-11.2305
▁rounded	-11.2305
▁renew	-11.2306
▁slices	-11.2306
▁dealer	-11.2306
▁Cho	-11.2312
RC	-11.2315
▁analyze	-11.2317
▁ski	-11.232
uli	-11.2321
▁owe	-11.2321
▁dehydration	-11.2322
▁Dollar	-11.2322
▁Field	-11.2322
▁Polish	-11.2322
▁cereal	-11.2325
7.5	-11.233
▁practitioners	-11.2331
▁MO	-11.2332
We	-11.2333
▁durable	-11.2334
▁stabilize	-11.2334
TC	-11.2334
▁benzo	-11.2334
▁laminate	-11.2335
iation	-11.2337
▁toxin	-11.2338
▁nucleo	-11.2338
▁governor	-11.2338
▁strengthen	-11.2338
▁Anglo	-11.2341
▁physically	-11.2341
▁Diet	-11.2344
▁agreed	-11.2345
▁suffix	-11.2345
mia	-11.2349
▁Records	-11.2349
▁interval	-11.2352
▁Oct	-11.2352
▁enterprise	-11.2357
▁Uranus	-11.2357
▁Avoid	-11.2357
▁Navy	-11.2359
aria	-11.2359
▁Night	-11.2363
▁portions	-11.2364
▁mmol	-11.2365
▁alcoholic	-11.2366
▁rupture	-11.2369
▁nitrate	-11.2369
▁Estimate	-11.2369
▁abnormalities	-11.2372
▁sized	-11.2373
▁cysts	-11.2373
inus	-11.2381
▁stimulation	-11.2381
▁crisp	-11.2382
▁protons	-11.2383
trial	-11.2391
mann	-11.2392
▁Hand	-11.2392
▁judgment	-11.2393
▁incorporated	-11.2394
▁founder	-11.2394
▁gem	-11.2395
▁Customer	-11.2396
▁guard	-11.2397
mun	-11.2399
▁physiological	-11.2401
▁1940	-11.2402
▁conductor	-11.2402
BO	-11.2405
▁parietal	-11.2405
filled	-11.2407
▁altered	-11.241
▁eruptions	-11.2413
▁refrigerated	-11.2413
▁reform	-11.2414
▁turbine	-11.2414
uch	-11.2416
nesthesiologist	-11.2417
▁spelled	-11.2417
▁shark	-11.2424
ati	-11.2425
▁washing	-11.2426
[	-11.2427
▁chip	-11.2427
▁legislature	-11.2429
▁Therapy	-11.2429
▁Indeed	-11.243
▁Garden	-11.2431
▁substantial	-11.2431
CE	-11.2431
▁spaces	-11.2432
▁cuff	-11.2434
▁beliefs	-11.2435
▁hay	-11.2435
▁$60,000	-11.2436
▁pu	-11.2436
▁puberty	-11.2441
▁precise	-11.2442
▁shore	-11.2443
▁Fast	-11.2443
ket	-11.2443
corp	-11.2443
▁Bob	-11.2445
▁exceptions	-11.2445
▁Roll	-11.2446
▁earthquake	-11.2447
▁cancel	-11.2452
▁speeds	-11.2452
▁stiff	-11.2453
▁Parliament	-11.2453
▁avocado	-11.2453
9.5	-11.2453
▁mammal	-11.2458
▁Falls	-11.2458
▁000	-11.2459
▁Carbohydrates	-11.2459
▁prove	-11.2459
▁chill	-11.2465
▁circulate	-11.2465
quin	-11.2466
▁mate	-11.2467
ban	-11.2469
▁cleaner	-11.2471
▁turtles	-11.2473
▁ships	-11.2473
▁Milk	-11.2473
▁Mono	-11.2475
uma	-11.2476
▁2009,	-11.2477
▁Switzerland	-11.2477
▁synapse	-11.2477
▁Teacher	-11.2478
▁Staphylococcus	-11.2478
▁harmless	-11.2479
SO	-11.2484
phag	-11.2486
▁TX	-11.2487
▁Eli	-11.2487
▁architect	-11.2488
▁cinnamon	-11.2489
▁hidden	-11.2489
▁adverse	-11.249
▁Ur	-11.2493
pon	-11.2495
▁Hal	-11.2496
-16	-11.2497
▁bump	-11.2499
piration	-11.2499
▁mice	-11.25
pid	-11.2502
▁flame	-11.2503
tory	-11.2504
▁senses	-11.2504
▁neurological	-11.2506
▁labeled	-11.2506
▁Forest	-11.2507
▁$120	-11.2511
▁parasitic	-11.2513
▁Requirements	-11.2514
▁flavors	-11.2514
▁consent	-11.2515
play	-11.2515
▁undergo	-11.2516
utter	-11.252
▁pediatric	-11.2521
▁tray	-11.2522
▁hunting	-11.2522
counter	-11.2523
▁centimeters	-11.253
▁vertebral	-11.253
▁stretching	-11.253
group	-11.2536
▁cerebrum	-11.2538
▁licensing	-11.2538
▁sunshine	-11.2538
▁Disorder	-11.2538
▁placenta	-11.2539
▁anchor	-11.254
▁Link	-11.2542
sil	-11.2543
▁Ze	-11.2544
▁cube	-11.2545
▁ash	-11.2548
▁Fungi	-11.2548
▁rectum	-11.255
▁leadership	-11.2551
▁polymers	-11.2552
bird	-11.2554
▁marginal	-11.2555
▁Engineering	-11.2556
For	-11.2559
▁measles	-11.2562
▁Thailand	-11.2562
▁wildlife	-11.2563
▁Sen	-11.2564
ui	-11.2567
▁Revolution	-11.2568
rent	-11.2569
▁behavioral	-11.257
▁Denmark	-11.2574
▁fighting	-11.2575
▁numbness	-11.2575
▁Current	-11.2575
home	-11.2585
▁endangered	-11.2586
▁owl	-11.2587
lite	-11.2587
▁110	-11.2595
▁tubule	-11.2596
▁perception	-11.2599
▁indoor	-11.26
gli	-11.2603
mission	-11.2603
trop	-11.2605
▁viewed	-11.2606
▁spreading	-11.2608
▁bal	-11.2609
▁averaging	-11.2611
▁harsh	-11.2612
▁warmer	-11.2614
▁feathers	-11.2615
stat	-11.2622
▁separation	-11.2623
▁Wilson	-11.2624
ancing	-11.2624
▁restricted	-11.2627
rot	-11.263
train	-11.2631
▁Oklahoma	-11.2635
▁compartment	-11.2635
cca	-11.2636
▁mistake	-11.2639
mut	-11.2647
ər	-11.2648
▁Quick	-11.2648
CT	-11.265
▁chances	-11.2652
▁transactions	-11.2654
▁alive	-11.2656
▁preserve	-11.2656
▁dia	-11.2658
▁noble	-11.2659
▁banana	-11.2659
▁Arab	-11.266
▁inexpensive	-11.266
▁recipient	-11.266
minute	-11.2661
▁chips	-11.2661
▁tre	-11.2669
▁terrestrial	-11.2672
▁committee	-11.2672
▁activate	-11.2674
nc	-11.2674
▁baseball	-11.2675
▁Ground	-11.2675
file	-11.2676
▁75%	-11.2679
▁pup	-11.2682
▁cytosine	-11.2684
rah	-11.2685
▁Little	-11.2685
▁hang	-11.2687
ech	-11.2689
eck	-11.269
▁MI	-11.2694
▁Create	-11.2695
▁lips	-11.2696
▁Which	-11.2698
▁Independence	-11.2699
▁addresses	-11.27
▁Award	-11.2703
weed	-11.2708
▁mega	-11.2708
▁bodily	-11.2709
▁Convention	-11.2709
▁ranged	-11.2711
▁66	-11.2711
▁1964	-11.2713
HO	-11.2717
▁seats	-11.2717
▁airlines	-11.272
▁spiral	-11.2721
▁Plate	-11.2722
▁trail	-11.2723
▁Pin	-11.2723
▁historic	-11.2724
▁footage	-11.2729
▁printed	-11.2732
▁Five	-11.2732
▁Zo	-11.2733
▁whale	-11.2734
▁neural	-11.2734
▁Representatives	-11.2737
Ba	-11.2738
”)	-11.274
▁representing	-11.2744
▁Rain	-11.2746
▁bony	-11.2747
illo	-11.2748
▁sar	-11.2748
▁$51	-11.2749
▁shake	-11.2752
▁mag	-11.2752
ski	-11.2756
nge	-11.2758
▁Metal	-11.2758
Noun	-11.2759
▁containers	-11.2759
▁Safety	-11.2759
▁sleeping	-11.2759
emi	-11.276
▁plum	-11.2762
NI	-11.2765
oy	-11.2766
▁complaint	-11.2767
▁gen	-11.2767
▁Who	-11.2769
▁assisted	-11.2771
▁resemble	-11.2772
UM	-11.2772
▁Late	-11.2773
▁1800	-11.2774
une	-11.2775
hl	-11.2779
▁cows	-11.278
▁LA	-11.2782
meth	-11.2788
▁plot	-11.2788
▁leaders	-11.2792
mos	-11.2794
▁Settings	-11.2795
▁Diabetes	-11.2796
▁maturity	-11.2796
▁tuberculosis	-11.2796
-$50	-11.2797
▁flush	-11.2803
▁sensitivity	-11.2807
▁cone	-11.2808
ident	-11.2811
▁Money	-11.2811
▁PayScale	-11.2821
▁intelligence	-11.2821
▁phospholipid	-11.2821
▁plumbing	-11.2821
▁bilayer	-11.2821
▁Primary	-11.2821
▁inheritance	-11.2821
▁Bone	-11.2822
▁managing	-11.2822
-60	-11.2826
▁Fill	-11.2827
mers	-11.2828
stitu	-11.2829
▁calm	-11.2829
▁availability	-11.2833
▁beam	-11.2833
cover	-11.2835
▁Cape	-11.2836
▁packed	-11.2838
▁wooden	-11.2839
rup	-11.2841
▁gums	-11.2841
▁pathogen	-11.2842
▁efforts	-11.2843
▁definitions	-11.2844
▁Climate	-11.2846
▁festival	-11.2846
▁Made	-11.2846
▁Reading	-11.2848
▁Upper	-11.2849
▁hydrocarbon	-11.2849
▁sells	-11.2851
▁pal	-11.2853
0.00	-11.2856
vari	-11.2857
ibility	-11.2858
▁Ken	-11.2858
▁agriculture	-11.2858
▁rely	-11.2859
▁noise	-11.2859
oni	-11.2859
▁repairs	-11.2859
▁saucepan	-11.286
gio	-11.2862
▁Adult	-11.2862
holder	-11.2866
▁Gall	-11.2875
▁Jones	-11.2876
▁counties	-11.2878
▁flowing	-11.2878
▁chili	-11.2878
▁converter	-11.2878
▁limbs	-11.288
▁instruction	-11.2882
▁sealed	-11.2883
▁Agriculture	-11.2883
▁Vegas	-11.2883
▁diffusion	-11.2883
▁entrance	-11.2883
▁fermented	-11.2884
▁steep	-11.2884
ensis	-11.2886
▁Currently	-11.2895
▁suppress	-11.2896
▁shut	-11.2896
▁Eggs	-11.2898
▁aside	-11.2898
oper	-11.2906
▁Dragon	-11.2908
▁peninsula	-11.2908
▁pronoun	-11.2909
▁Tips	-11.2909
▁mask	-11.2912
CM	-11.2918
▁$43	-11.2919
▁maple	-11.292
rage	-11.292
▁exempt	-11.292
▁administrator	-11.2921
▁guanine	-11.2921
▁stair	-11.2922
▁miss	-11.2922
▁syllables	-11.2923
▁siding	-11.2923
eries	-11.2924
▁separately	-11.2925
▁Rule	-11.2926
▁val	-11.2928
ota	-11.2929
▁wider	-11.2929
▁Museum	-11.2934
▁Professor	-11.2934
▁indigenous	-11.2934
▁athletic	-11.2934
▁choosing	-11.2934
▁opioid	-11.2934
▁coarse	-11.2934
▁unicellular	-11.2934
▁lobster	-11.2934
▁elsewhere	-11.2934
▁buds	-11.2938
CV	-11.2943
▁malignant	-11.2944
▁Commercial	-11.2946
▁opiate	-11.2946
LY	-11.2948
▁1961	-11.2948
▁dropped	-11.2949
hard	-11.295
▁Contract	-11.295
sub	-11.2954
▁Dubai	-11.2959
▁charging	-11.2959
▁Value	-11.296
▁shaft	-11.296
SR	-11.2961
toxic	-11.2961
0.0	-11.2963
▁bars	-11.2966
cooked	-11.297
▁Stra	-11.2971
oodle	-11.2975
▁occasion	-11.2975
flex	-11.2979
▁utilize	-11.298
▁Stir	-11.2982
▁sheath	-11.2984
▁roofing	-11.2987
▁withdraw	-11.2994
▁adaptation	-11.2994
▁gout	-11.2995
▁esp	-11.2996
▁pear	-11.2996
▁suspension	-11.2997
PV	-11.2997
▁Ana	-11.2997
▁sends	-11.3
▁rainforests	-11.3006
▁interpret	-11.3009
carotene	-11.301
containing	-11.3012
▁fern	-11.3014
▁passenger	-11.3016
▁protists	-11.3018
step	-11.3018
▁Roosevelt	-11.3022
▁disappear	-11.3022
▁squamous	-11.3022
▁Division	-11.3023
▁Summer	-11.3023
▁friendly	-11.3025
uria	-11.3025
▁$66	-11.3025
▁Following	-11.3027
page	-11.3029
▁Ray	-11.3029
▁interfere	-11.3033
▁dessert	-11.3035
▁reputation	-11.3035
▁slavery	-11.3036
▁Very	-11.3038
SM	-11.3039
stock	-11.3041
-30	-11.3043
liter	-11.3045
own	-11.3045
▁audience	-11.3048
illi	-11.3048
▁spoon	-11.3048
▁teaspoons	-11.305
▁$47	-11.3054
▁Deep	-11.3054
▁Brain	-11.3055
DE	-11.3058
▁elastic	-11.3059
▁saving	-11.3061
▁rinse	-11.3061
▁Trust	-11.3062
▁chew	-11.3062
tract	-11.3066
lap	-11.3069
ello	-11.3069
ude	-11.3071
▁looked	-11.3072
▁sucrose	-11.3073
amide	-11.3078
▁packet	-11.3079
See	-11.3083
Hz	-11.3085
▁shrubs	-11.3085
▁squirrel	-11.3086
wel	-11.3088
▁filaments	-11.3089
▁Feed	-11.3093
▁cucumber	-11.3099
▁actress	-11.3099
osphere	-11.3103
derm	-11.3103
▁equi	-11.3105
inated	-11.3108
▁sail	-11.3109
▁herbal	-11.3112
▁oats	-11.3112
▁Explorer	-11.3114
piece	-11.3114
▁1945	-11.3117
▁partners	-11.3118
▁divides	-11.3119
ograph	-11.3121
▁Neptune	-11.3125
▁Iraq	-11.3125
8°	-11.3125
▁newspaper	-11.3125
▁adverb	-11.3125
▁butterfly	-11.3125
▁operated	-11.3132
worm	-11.3132
▁Dar	-11.3133
▁Gal	-11.3134
▁directors	-11.3138
▁desktop	-11.3138
▁Title	-11.3138
▁1993	-11.314
dam	-11.3141
▁stains	-11.3144
aki	-11.3145
▁Palm	-11.3146
rust	-11.3147
▁relations	-11.3148
▁fare	-11.3148
▁recruit	-11.3148
ulo	-11.3149
hin	-11.315
▁Belgium	-11.315
▁Committee	-11.315
▁Colombia	-11.315
▁mutual	-11.315
▁Utah	-11.315
▁Yo	-11.3153
▁pea	-11.3153
▁theories	-11.3155
▁Score	-11.3156
itz	-11.3156
▁100,000	-11.316
You	-11.316
▁coastline	-11.316
Ro	-11.3161
bor	-11.3162
▁Portugal	-11.3163
story	-11.3165
dio	-11.3168
▁Germanic	-11.317
▁studio	-11.317
▁Studies	-11.3176
▁pads	-11.3177
▁prevalent	-11.3178
stranded	-11.3179
▁performs	-11.3185
▁Swedish	-11.3189
vor	-11.3192
▁1991	-11.3193
▁watts	-11.3194
▁prohibit	-11.3194
▁Calories	-11.3194
▁influences	-11.3196
,750	-11.3197
▁Tim	-11.3197
▁lentils	-11.3202
▁Birth	-11.3202
▁radon	-11.3203
▁coughing	-11.3203
▁Sanskrit	-11.3208
lick	-11.3211
ended	-11.3212
▁enforce	-11.3214
6.5	-11.3215
▁Mercury	-11.3215
▁Physician	-11.3215
▁marinade	-11.3215
▁Girl	-11.3215
▁Lewis	-11.3215
▁batteries	-11.3216
▁polyps	-11.3216
▁Content	-11.3217
now	-11.3219
▁frontal	-11.3222
▁hall	-11.3225
lem	-11.3226
▁potent	-11.3228
▁psoriasis	-11.3228
▁(+	-11.3229
▁complementary	-11.3229
▁DE	-11.3233
▁outbreak	-11.3234
▁debut	-11.3239
▁quart	-11.3239
▁effectiveness	-11.324
▁Kidney	-11.3241
▁celebrated	-11.3242
▁panic	-11.3242
▁bananas	-11.3242
▁3/4	-11.3242
▁cabinets	-11.3245
dar	-11.3245
▁interactions	-11.3246
mur	-11.3246
▁seeking	-11.3246
▁runny	-11.3247
▁cooker	-11.3247
▁thinner	-11.3247
▁suddenly	-11.3249
▁Path	-11.3251
▁del	-11.3252
▁castle	-11.3252
calc	-11.3252
▁sal	-11.3252
gua	-11.3252
▁Indo	-11.3253
▁Continue	-11.3254
▁completing	-11.3254
▁connections	-11.3255
▁boiler	-11.3256
vitamin	-11.3257
▁dealing	-11.3265
▁releasing	-11.3265
▁breasts	-11.3266
▁Think	-11.3267
▁dialog	-11.3269
▁translated	-11.3274
▁Electric	-11.3275
trip	-11.3275
▁shops	-11.3275
▁overview	-11.3277
som	-11.3278
▁amongst	-11.3278
▁polio	-11.3279
▁dermatitis	-11.328
▁cruise	-11.328
▁decorative	-11.3281
AY	-11.3282
▁elderly	-11.3284
forming	-11.3285
▁mercury	-11.3293
▁prolonged	-11.3293
▁dispute	-11.3294
MB	-11.3294
cellular	-11.3297
▁grasses	-11.3298
▁doneness	-11.3301
ffer	-11.3302
▁producers	-11.3302
▁doubt	-11.3306
▁automobile	-11.3306
▁wrapped	-11.3308
▁fillets	-11.3309
▁Vol	-11.331
▁tide	-11.331
▁programming	-11.331
▁movies	-11.3317
▁Starting	-11.3317
phi	-11.3318
▁$57	-11.3321
▁Dark	-11.3321
▁kid	-11.3329
mul	-11.333
▁improved	-11.3332
▁Abraham	-11.3333
▁phenotype	-11.3333
▁crawl	-11.3333
rill	-11.3334
▁pace	-11.3341
▁uni	-11.3343
▁Fruit	-11.3346
▁displays	-11.3348
▁fell	-11.3354
▁Pop	-11.3354
▁Jobs	-11.3356
▁OS	-11.3358
▁Condition	-11.3359
▁medieval	-11.3359
▁resolution	-11.3359
▁democracy	-11.3359
▁comments	-11.3361
▁seeing	-11.3369
▁transformation	-11.3369
▁slip	-11.3373
800	-11.3376
▁moss	-11.3376
eon	-11.3378
▁execution	-11.3385
▁threshold	-11.3385
▁Guinea	-11.3385
ncy	-11.3386
▁decor	-11.3386
▁$450	-11.3386
meaning	-11.339
▁notable	-11.3391
▁Hor	-11.3398
IF	-11.3401
door	-11.3401
▁adoption	-11.3403
▁departments	-11.3407
▁kick	-11.3407
▁occurrences	-11.3408
▁commercially	-11.3409
▁reserved	-11.3409
▁privacy	-11.3412
▁Options	-11.3412
▁settle	-11.3412
▁Overall	-11.3413
lift	-11.3413
▁handling	-11.3415
mari	-11.3415
1.5	-11.3418
▁Neu	-11.3422
▁genetics	-11.3424
▁monosaccharide	-11.3425
▁Lip	-11.3426
▁crew	-11.3427
▁firms	-11.3427
▁Lev	-11.3428
vit	-11.3431
▁statements	-11.3432
▁Kin	-11.3432
arc	-11.3432
lines	-11.3438
▁polysaccharide	-11.3438
▁milli	-11.3441
PL	-11.3442
hold	-11.3445
▁thicker	-11.3447
aged	-11.3447
lid	-11.3448
gus	-11.3451
▁narcotic	-11.3451
▁Diseases	-11.3452
▁render	-11.3453
▁myelin	-11.3453
▁warning	-11.3455
mil	-11.3457
▁dial	-11.3457
Be	-11.3459
▁Animals	-11.3463
▁resembles	-11.3463
▁2%	-11.3466
▁thighs	-11.3477
▁module	-11.3478
▁aureus	-11.3478
▁har	-11.3479
▁pyramid	-11.3483
▁accomplish	-11.3484
▁shoulders	-11.3484
▁User	-11.3486
▁invasive	-11.3487
▁congenital	-11.3487
▁2008,	-11.3489
▁Chart	-11.3489
▁Hemisphere	-11.3491
▁Pokemon	-11.3491
▁YouTube	-11.3491
▁delicate	-11.3491
▁timing	-11.3492
▁Agency	-11.3492
▁SO	-11.3493
▁scientist	-11.3496
▁drying	-11.3497
▁army	-11.3498
ologic	-11.3501
▁postage	-11.3504
▁strategic	-11.3505
▁pursue	-11.3505
▁reader	-11.351
▁pharynx	-11.3511
▁till	-11.3513
UP	-11.3513
valent	-11.3514
prim	-11.3516
▁Grass	-11.3517
kes	-11.3517
▁Alexander	-11.3518
▁Background	-11.3519
pod	-11.3519
▁ongoing	-11.3519
▁Reduce	-11.352
▁Similar	-11.352
▁bulbs	-11.3522
eus	-11.3526
sey	-11.3526
cla	-11.3526
▁sy	-11.3527
▁advise	-11.353
▁cava	-11.3531
▁collapse	-11.3532
▁argue	-11.3532
▁1994	-11.3535
▁german	-11.3537
▁pharmaceutical	-11.3537
600	-11.3541
nail	-11.3544
▁magnitude	-11.3545
▁drywall	-11.3546
▁Android	-11.3546
▁fascia	-11.3546
main	-11.3547
▁Scientists	-11.3548
▁1992	-11.3548
▁Limited	-11.3548
▁broiler	-11.3549
fusion	-11.3551
▁1500	-11.3551
aca	-11.3551
▁feels	-11.3555
west	-11.3555
▁emerge	-11.3556
Br	-11.3556
▁fissure	-11.3558
-1/2	-11.3559
▁LPN	-11.356
gni	-11.356
▁fertilized	-11.3563
▁Harry	-11.3564
▁Bacterial	-11.3565
▁silica	-11.3569
pay	-11.357
▁SA	-11.357
eme	-11.357
▁antigens	-11.3571
▁Kal	-11.3571
▁humid	-11.3571
▁comparable	-11.3572
▁Regular	-11.3572
▁optical	-11.3573
▁facing	-11.3574
▁brace	-11.3574
▁Carl	-11.3575
▁lighting	-11.3575
▁retailer	-11.3576
3.5	-11.3583
ulf	-11.3585
▁Protection	-11.3587
▁smart	-11.3588
▁Mill	-11.3588
▁behalf	-11.359
▁Index	-11.359
ured	-11.359
ela	-11.3591
▁seasonal	-11.3592
▁eyelid	-11.3594
▁bomb	-11.3595
▁afford	-11.3596
iva	-11.3596
▁bud	-11.3598
Ex	-11.3601
nta	-11.3603
▁digested	-11.3603
▁stops	-11.3607
▁counseling	-11.361
▁Agent	-11.3611
▁Ann	-11.3611
PH	-11.3611
▁continuously	-11.3611
▁Potassium	-11.3612
▁vendor	-11.3612
▁molten	-11.3612
▁preparing	-11.3612
nol	-11.3616
▁counterpart	-11.3616
ault	-11.3621
▁expanded	-11.3622
wind	-11.3625
▁Amsterdam	-11.3626
▁proximal	-11.3626
▁goddess	-11.3626
▁remained	-11.3626
▁reviews	-11.3627
logist	-11.3627
▁Systems	-11.3628
▁knowing	-11.3628
▁Almost	-11.3629
▁darker	-11.3629
▁fertilization	-11.3639
▁vacuole	-11.3639
▁Obama	-11.364
▁$3,500	-11.364
▁twist	-11.3645
lle	-11.3646
▁appointed	-11.3647
ked	-11.3647
▁responses	-11.365
▁recognition	-11.3653
▁addiction	-11.3653
▁Country	-11.3655
▁Jim	-11.3655
▁Organ	-11.3657
▁offense	-11.3659
▁vena	-11.3662
▁coordinate	-11.3666
▁Through	-11.3666
▁library	-11.3666
▁therapeutic	-11.3666
▁untreated	-11.3666
▁Operation	-11.3667
jun	-11.3668
▁165	-11.3669
▁kilograms	-11.3671
self	-11.3671
▁cosmetic	-11.3674
▁edition	-11.3674
face	-11.3677
▁Hold	-11.3677
post	-11.3679
▁arrived	-11.3679
▁denote	-11.3679
▁attraction	-11.368
▁immigration	-11.368
▁lasting	-11.3682
▁Count	-11.3684
bing	-11.3685
resistant	-11.3685
▁refined	-11.3689
var	-11.3689
▁steady	-11.3694
aid	-11.3694
▁emit	-11.3694
▁adopt	-11.3697
▁logo	-11.3699
▁bpm	-11.3701
▁exert	-11.3701
▁gametes	-11.3703
▁fusion	-11.3703
▁lamp	-11.3704
cid	-11.3705
▁paralegal	-11.3707
▁ketone	-11.3708
▁consistency	-11.3708
▁deoxyribose	-11.3708
▁jail	-11.3709
hel	-11.3712
▁collecting	-11.3712
▁GA	-11.3715
▁solve	-11.3716
▁thoughts	-11.3718
▁Twitter	-11.3721
▁surgeons	-11.3721
▁inspired	-11.3721
▁Bengal	-11.3721
▁Case	-11.3722
#	-11.3722
hill	-11.3725
▁cystic	-11.3727
dex	-11.3729
▁cabinet	-11.3732
▁58	-11.3733
metry	-11.3733
▁minus	-11.3733
▁informal	-11.3734
▁Multi	-11.3734
▁pathways	-11.3736
▁classroom	-11.3736
aro	-11.3737
▁”	-11.3738
▁Cool	-11.3739
▁consultant	-11.374
lf	-11.3742
▁bu	-11.3744
direct	-11.3745
▁countertop	-11.3746
▁technologies	-11.3748
gro	-11.375
vision	-11.3751
▁TSH	-11.3752
▁Antarctica	-11.3753
MT	-11.3756
▁crushed	-11.3759
▁Instructions	-11.3762
▁aggressive	-11.3762
▁Copper	-11.3762
▁DIY	-11.3762
▁Syndrome	-11.3762
▁Mod	-11.3762
▁legend	-11.3764
▁Burn	-11.3769
▁technically	-11.3771
▁deposited	-11.3773
▁Gran	-11.3775
▁ruled	-11.3775
▁modification	-11.3776
▁acceptance	-11.3779
molecule	-11.3782
▁prize	-11.3782
BI	-11.3783
▁tallest	-11.3784
▁soul	-11.3785
▁Queensland	-11.3789
▁Iowa	-11.379
-11	-11.379
▁Insulin	-11.379
▁AA	-11.3791
▁streams	-11.3791
▁confirmed	-11.3793
eva	-11.3794
▁Radio	-11.3797
▁comprise	-11.3798
eur	-11.3799
▁Versailles	-11.3803
▁fertility	-11.3803
fec	-11.3803
▁Measure	-11.3803
▁intolerance	-11.3803
▁biochemical	-11.3803
nan	-11.3805
▁graft	-11.3805
▁settled	-11.3806
▁wouldn	-11.3808
tero	-11.3812
▁screw	-11.3817
▁adhere	-11.3818
▁upset	-11.3819
▁1984	-11.3819
▁swing	-11.3822
▁liquids	-11.3823
▁quotes	-11.3823
cel	-11.3823
blood	-11.3824
dependent	-11.3825
done	-11.3828
▁150436	-11.3831
▁Saturday	-11.3831
▁fractures	-11.3831
▁vanilla	-11.3831
▁parks	-11.3832
▁Foundation	-11.3834
▁Signs	-11.3838
▁proton	-11.384
▁beverage	-11.3843
▁placing	-11.3844
▁proceed	-11.3845
▁broadcast	-11.3845
▁slaves	-11.3851
▁acceptable	-11.3853
onym	-11.3856
▁preservative	-11.3858
▁pathogenic	-11.3859
▁transverse	-11.3859
▁tendency	-11.386
▁professor	-11.3864
▁blockage	-11.3864
▁mosquito	-11.3865
▁Grill	-11.3866
nel	-11.3868
▁argument	-11.3872
▁antenna	-11.3872
change	-11.3874
loss	-11.3876
▁luck	-11.3877
▁elect	-11.388
▁Person	-11.3881
▁Six	-11.3882
▁authorized	-11.3882
brown	-11.3882
▁accumulate	-11.3883
▁carcinoma	-11.3886
▁sympathetic	-11.3886
▁feces	-11.3886
▁Expert	-11.3886
▁preference	-11.3889
▁journal	-11.3891
▁intervention	-11.3894
▁farmers	-11.3897
ido	-11.3898
▁aneurysm	-11.39
▁chapter	-11.39
▁fibro	-11.39
Car	-11.3901
▁committed	-11.3901
▁organisation	-11.3901
▁aches	-11.3902
pal	-11.3902
yne	-11.3903
imp	-11.3903
▁Wage	-11.3907
▁posts	-11.3908
▁crest	-11.3909
▁68	-11.3912
▁Philippines	-11.3912
▁Lac	-11.3913
▁hygienist	-11.3914
▁Mean	-11.3917
▁liters	-11.3919
▁Gre	-11.3919
stan	-11.3921
▁films	-11.3921
▁Ran	-11.3921
▁Bel	-11.3922
▁63	-11.3923
▁missed	-11.3925
▁analog	-11.3927
▁pigments	-11.3927
▁Adam	-11.3928
▁wisdom	-11.3928
▁1981	-11.3931
▁Bond	-11.3934
▁demonstrate	-11.3935
▁PT	-11.3938
▁Discover	-11.3938
space	-11.3939
▁Jay	-11.3941
▁errors	-11.3941
▁tunnel	-11.3942
▁asbestos	-11.3942
▁euro	-11.3949
▁Sav	-11.3949
40,000	-11.3949
▁precursor	-11.3956
▁Increase	-11.3956
▁lying	-11.3959
▁countertops	-11.3959
▁Scott	-11.3959
▁independently	-11.396
glu	-11.396
▁tribe	-11.3962
▁tur	-11.3963
▁nutritionist	-11.3963
▁indoors	-11.3963
▁cured	-11.3964
-100	-11.3965
add	-11.3967
▁parameter	-11.397
▁obstruction	-11.3971
▁beds	-11.3971
▁53	-11.3971
▁absorbs	-11.3971
-$5	-11.3972
▁flip	-11.3972
▁Along	-11.3972
fic	-11.3972
▁feedback	-11.3972
▁awareness	-11.3973
▁spur	-11.3974
sie	-11.3975
▁lactic	-11.3982
ules	-11.3983
wer	-11.3983
▁erosion	-11.3984
▁generator	-11.3984
▁Flower	-11.3987
▁Used	-11.3988
bic	-11.3989
enter	-11.3989
▁HE	-11.399
corn	-11.3993
▁Love	-11.3995
▁dramatic	-11.3999
▁ZIP	-11.3999
Di	-11.4003
▁Korea	-11.4004
▁presentation	-11.4009
▁stimuli	-11.4012
▁heavier	-11.4012
TT	-11.4012
▁rows	-11.4012
▁paralysis	-11.4012
▁entertainment	-11.4012
▁consult	-11.4017
▁Week	-11.4017
burn	-11.4017
static	-11.4017
▁BMI	-11.4019
service	-11.402
▁specify	-11.4023
▁Tip	-11.4027
bia	-11.4027
▁somatic	-11.4028
ré	-11.403
▁sustain	-11.4031
▁anus	-11.4034
▁poles	-11.4036
▁leukemia	-11.404
▁cigarette	-11.404
▁tibia	-11.404
▁odd	-11.4041
▁diffuse	-11.4043
▁78	-11.4044
▁Wil	-11.4045
lut	-11.4049
hea	-11.4049
▁SAT	-11.4053
▁Combine	-11.4055
pla	-11.4056
▁everywhere	-11.4058
▁answered	-11.4059
▁interpretation	-11.406
▁debit	-11.4061
Latin	-11.4063
operative	-11.4063
▁47	-11.4065
▁possession	-11.4066
▁hero	-11.4066
▁authentic	-11.4068
▁financing	-11.4068
▁Streptococcus	-11.4069
▁converting	-11.4069
▁haven	-11.4071
▁Cast	-11.4075
rose	-11.4076
▁lien	-11.4079
▁basket	-11.4082
▁territories	-11.4082
color	-11.4082
▁transparent	-11.4082
▁enrollment	-11.4084
▁Est	-11.4084
▁menopause	-11.4084
▁Des	-11.4088
▁5,000	-11.4089
▁ruler	-11.409
▁weighing	-11.4093
▁intellectual	-11.4096
▁drift	-11.4096
▁starter	-11.4097
▁chambers	-11.4101
▁Bon	-11.4102
▁sprinkle	-11.4103
connect	-11.4104
▁EX	-11.4107
▁Later	-11.4108
▁Magnesium	-11.4111
▁accommodation	-11.4111
▁nickel	-11.4111
▁gauge	-11.4111
tant	-11.4111
▁Secretary	-11.4112
▁dividend	-11.4113
xa	-11.4115
▁thereby	-11.4116
cen	-11.4117
▁Walt	-11.4123
mini	-11.4125
▁ventricles	-11.4125
▁Kit	-11.4125
▁Costa	-11.4125
▁swallow	-11.4126
olo	-11.4129
▁musician	-11.413
▁bred	-11.413
▁turtle	-11.413
dine	-11.413
pronounced	-11.4133
▁commun	-11.4133
▁trainer	-11.4134
▁sec	-11.4136
▁specialists	-11.4137
▁worst	-11.4139
▁chopped	-11.4139
▁thanks	-11.414
▁Scandinavian	-11.4142
kel	-11.4143
▁indeed	-11.4143
▁Tan	-11.4145
▁passengers	-11.4146
▁0.1	-11.4146
▁killer	-11.4147
▁Gro	-11.4147
▁alert	-11.4148
▁protecting	-11.4149
location	-11.4151
▁angles	-11.4152
▁Alzheimer	-11.4153
▁Approximately	-11.4153
▁Swiss	-11.4154
rb	-11.4156
▁killing	-11.4162
▁Temperatures	-11.4163
▁$61	-11.4165
▁empire	-11.4168
▁improving	-11.4168
▁invertebrates	-11.4168
▁talent	-11.4168
▁united	-11.417
▁Tru	-11.4171
▁ribosome	-11.4172
▁sciences	-11.4172
then	-11.4173
▁professors	-11.4176
producing	-11.4176
▁Tuesday	-11.4182
▁embedded	-11.4182
▁urination	-11.4182
stein	-11.4183
▁Basically	-11.4184
lc	-11.4184
▁harvested	-11.4186
▁Finally	-11.4187
▁visits	-11.4188
fra	-11.419
▁sequences	-11.419
▁Beta	-11.419
▁clouds	-11.4192
claim	-11.4194
▁Czech	-11.4196
▁possibility	-11.4196
▁Bird	-11.4198
▁virtual	-11.4199
▁warts	-11.4199
▁Dur	-11.42
▁warming	-11.42
▁groin	-11.42
▁distal	-11.4202
rise	-11.4202
safe	-11.4203
GB	-11.4204
Po	-11.4205
▁CON	-11.4205
▁hazard	-11.4209
▁buck	-11.4209
▁activation	-11.421
▁Urine	-11.421
▁neo	-11.4214
illary	-11.4215
lux	-11.4216
▁regulatory	-11.4218
hydrate	-11.422
▁primer	-11.422
▁driven	-11.4221
▁$68	-11.4222
▁(3)	-11.4223
▁Revenue	-11.4225
▁Reference	-11.4227
▁MP	-11.4227
▁instructor	-11.4229
grain	-11.4232
pocket	-11.4234
▁reflects	-11.4235
uro	-11.4238
▁Has	-11.4238
lope	-11.4238
▁experiencing	-11.4239
▁Police	-11.424
▁symbolic	-11.424
▁stack	-11.4241
▁Taking	-11.4242
▁biopsy	-11.4245
▁attending	-11.4246
▁Ox	-11.4247
Bo	-11.4252
▁complement	-11.4252
pathy	-11.4252
▁Mil	-11.4253
▁Diamond	-11.4254
▁Stephen	-11.4255
mouth	-11.4263
▁fibres	-11.4264
▁prescribe	-11.4267
▁Diego	-11.4268
▁supervision	-11.4268
▁Spa	-11.4269
▁Split	-11.4269
olic	-11.427
▁totally	-11.4271
▁identifying	-11.4278
▁surprise	-11.428
▁feldspar	-11.4282
▁filtration	-11.4285
▁Kay	-11.4285
▁apparent	-11.4286
▁revealed	-11.4288
▁Raw	-11.4289
▁burned	-11.4289
▁Career	-11.4291
▁slower	-11.4292
raw	-11.4293
▁900	-11.4293
▁negotiate	-11.4297
▁quiet	-11.4297
▁scheduled	-11.43
▁nitrogenous	-11.4302
NT	-11.4303
eng	-11.4309
▁swallowing	-11.431
▁$54	-11.431
▁introduce	-11.4311
▁Electrical	-11.4311
▁manifest	-11.4316
▁Hair	-11.4317
▁NC	-11.4317
hem	-11.4323
▁cortisol	-11.4326
▁integral	-11.4326
▁buried	-11.4326
▁germination	-11.4326
▁conference	-11.4327
▁ribose	-11.4327
▁Alpha	-11.4328
▁1983	-11.4329
▁failed	-11.433
▁surround	-11.4331
▁masses	-11.4333
▁Maria	-11.4333
▁tenderness	-11.4333
▁kilogram	-11.4336
nation	-11.4339
▁appraisal	-11.434
▁bubble	-11.434
quir	-11.4343
▁erupt	-11.4345
oci	-11.4346
▁pipes	-11.4351
▁Kan	-11.4351
lect	-11.4353
▁tribes	-11.4353
▁acquisition	-11.4355
▁dual	-11.4355
▁toast	-11.436
▁symbolize	-11.436
▁axons	-11.4361
lex	-11.4367
▁Sydney	-11.4369
▁cushion	-11.4369
▁deciliter	-11.4369
▁pri	-11.437
▁mom	-11.437
▁Dogs	-11.4371
udi	-11.4372
▁flea	-11.4373
▁Electro	-11.4382
▁Close	-11.4382
logical	-11.4382
▁temple	-11.4383
▁compiled	-11.4384
▁dramatically	-11.4385
▁roads	-11.4385
▁clotting	-11.4386
▁bordered	-11.4388
▁Drain	-11.4389
▁por	-11.4391
▁forget	-11.4398
▁frequencies	-11.4399
▁lettuce	-11.4399
▁nautical	-11.4399
▁unpleasant	-11.4399
titude	-11.4401
▁derma	-11.4402
▁activated	-11.4404
▁arises	-11.4406
▁Cooked	-11.4411
▁Dead	-11.4411
▁Declaration	-11.4413
▁cataract	-11.4413
▁uranium	-11.4413
▁Speed	-11.4413
ante	-11.4413
▁hens	-11.4415
▁abilities	-11.442
▁hydrocarbons	-11.4424
▁royal	-11.4427
▁persistent	-11.4429
▁Symbol	-11.443
▁Egg	-11.4432
cite	-11.4435
▁coated	-11.4436
▁$900	-11.4437
▁Hypo	-11.4438
▁Custom	-11.4439
▁Parkinson	-11.4442
▁thymus	-11.4443
▁restrictions	-11.4444
▁developmental	-11.4444
▁Ages	-11.445
▁SC	-11.4451
tiv	-11.4451
▁homeowner	-11.4455
cate	-11.4455
▁Thanks	-11.4455
shot	-11.4457
▁Thursday	-11.4457
▁Sports	-11.4458
ois	-11.4458
cytosis	-11.446
▁tenant	-11.446
▁featured	-11.446
▁lice	-11.4464
▁Ram	-11.4465
▁sending	-11.4467
▁inhibitors	-11.447
▁Compensation	-11.4472
▁abscess	-11.4472
▁guaranteed	-11.4473
▁worsen	-11.4474
▁considerable	-11.4475
▁sil	-11.4475
▁HD	-11.4475
▁colonial	-11.4476
scription	-11.4476
▁subunits	-11.448
itic	-11.4482
▁lenses	-11.4483
▁$69	-11.4484
▁Popular	-11.4485
▁Province	-11.4487
▁Members	-11.4487
▁spark	-11.4489
▁antagonist	-11.4493
▁singular	-11.4494
▁rated	-11.4494
▁Date	-11.4495
fur	-11.4499
▁strips	-11.45
▁acquire	-11.45
▁athlete	-11.45
▁pertussis	-11.4501
▁victory	-11.4501
▁topical	-11.4502
▁ranch	-11.4502
▁Talk	-11.4503
▁Movement	-11.4503
▁Kra	-11.4504
pine	-11.4506
▁$110	-11.4508
▁sync	-11.4508
▁Known	-11.4509
▁Know	-11.4513
▁dolphin	-11.4516
▁witness	-11.4516
▁Term	-11.4517
▁subtract	-11.4518
▁breeder	-11.4521
▁sandwich	-11.4524
▁charts	-11.4525
▁Lin	-11.4525
▁uric	-11.4525
DD	-11.4526
▁Rad	-11.4527
FI	-11.4532
▁plumber	-11.4532
▁evolutionary	-11.4533
aba	-11.4536
▁1900	-11.4538
▁roasted	-11.454
▁jack	-11.4544
▁Aboriginal	-11.4546
▁adhesive	-11.4546
▁autosomal	-11.4546
▁Indians	-11.4546
450	-11.4547
FT	-11.4548
▁$35,000	-11.4549
mount	-11.4551
▁tolerate	-11.4551
▁$8,000	-11.4554
▁chin	-11.4555
▁Band	-11.4558
▁labels	-11.4558
▁wasn	-11.456
▁Ali	-11.456
▁Eat	-11.456
▁alveoli	-11.4561
▁behaviour	-11.4561
▁felony	-11.4561
▁struggle	-11.4561
▁Document	-11.4561
▁lawyers	-11.4561
▁tingling	-11.4561
▁stretches	-11.4562
▁Alberta	-11.4564
▁sickness	-11.4565
tress	-11.4565
▁aroma	-11.4566
▁1/3	-11.4567
mple	-11.4567
▁Understanding	-11.4569
oriented	-11.4569
▁NE	-11.457
pack	-11.4572
rack	-11.4572
▁controller	-11.4573
Figure	-11.4573
▁CPA	-11.4573
▁cod	-11.4573
▁designation	-11.4573
▁Century	-11.4575
▁Vancouver	-11.4575
▁glycolysis	-11.4575
▁diminutive	-11.4576
child	-11.4577
neu	-11.4578
▁Fu	-11.458
▁payroll	-11.4581
▁Staff	-11.4583
▁flags	-11.4584
▁summit	-11.4591
▁$200,000	-11.4596
▁Joe	-11.4596
▁$59	-11.4597
▁investors	-11.4603
BT	-11.4603
azepine	-11.4605
▁resume	-11.4606
▁Syria	-11.4614
▁sponsor	-11.4615
▁Prior	-11.4617
ei	-11.4617
methyl	-11.4619
third	-11.4621
▁spasm	-11.4622
▁Single	-11.4622
▁canned	-11.4622
pyr	-11.4623
▁consistently	-11.4624
last	-11.4628
,000,000	-11.4634
▁receipt	-11.4635
▁dietitian	-11.4635
▁barb	-11.4636
▁claw	-11.4638
▁sticky	-11.4643
▁Height	-11.4645
▁Years	-11.4649
▁heritage	-11.465
▁pylori	-11.465
▁Cambridge	-11.465
grad	-11.4651
▁Anne	-11.4652
▁reactive	-11.4653
▁sacs	-11.4653
▁goats	-11.4655
▁couples	-11.4655
▁bankruptcy	-11.4665
▁inhabitants	-11.4665
rang	-11.4666
▁painted	-11.4667
▁1974	-11.4668
▁Beef	-11.4669
▁digit	-11.4671
nee	-11.4673
▁AT	-11.4678
▁Kai	-11.4678
zan	-11.4679
▁migraine	-11.468
▁Advanced	-11.4687
▁Pur	-11.4689
▁Yet	-11.4692
▁beets	-11.4692
▁Neo	-11.4693
▁keratin	-11.4695
▁savanna	-11.4695
▁tolerance	-11.4695
▁modify	-11.4695
ied	-11.4697
nin	-11.4699
▁behaviors	-11.47
▁NP	-11.47
▁replicate	-11.4702
▁communications	-11.4703
ility	-11.4703
two	-11.4704
▁Cup	-11.4705
▁bugs	-11.4706
▁malt	-11.4706
▁backup	-11.4706
▁bow	-11.4706
▁dig	-11.4707
▁Pure	-11.471
▁beneficiary	-11.471
▁friction	-11.471
220	-11.4712
AV	-11.4713
▁wines	-11.4713
▁litter	-11.4714
▁VI	-11.4715
▁1919	-11.4715
▁skip	-11.472
LI	-11.4721
▁renewable	-11.4724
▁shouldn	-11.4725
▁Immigration	-11.4725
▁Orlando	-11.4725
▁bracket	-11.4725
▁celery	-11.4725
▁casual	-11.4725
ality	-11.4728
▁Cuba	-11.4728
INE	-11.4731
▁chord	-11.4732
▁bran	-11.4735
▁weathering	-11.4736
▁$750	-11.4736
living	-11.4739
▁constellation	-11.474
▁residue	-11.474
elect	-11.4744
just	-11.4749
▁Rest	-11.475
▁habits	-11.475
▁clearance	-11.4751
▁Include	-11.4753
▁suck	-11.4753
▁studying	-11.4753
▁jelly	-11.4755
▁Policy	-11.4755
▁forecast	-11.4756
▁crumb	-11.4758
ogenesis	-11.4759
190	-11.4762
-13	-11.4762
▁maps	-11.4767
▁pap	-11.4769
▁Golgi	-11.4771
▁fireplace	-11.4772
▁radiologist	-11.4774
oF	-11.4775
▁coined	-11.4776
▁pic	-11.4777
▁Parts	-11.4777
▁bou	-11.4777
▁melted	-11.4777
-$100	-11.4782
▁detection	-11.4782
NET	-11.4785
▁Inflammation	-11.4786
▁tele	-11.4787
pol	-11.4787
▁Team	-11.4787
▁stopped	-11.4789
▁slang	-11.479
▁enroll	-11.4794
▁gains	-11.4795
Do	-11.4795
▁95%	-11.4799
▁attaches	-11.4801
▁investigation	-11.4801
▁Therapist	-11.4801
plan	-11.4802
▁max	-11.4803
script	-11.4804
▁float	-11.4804
max	-11.4806
▁Giant	-11.4806
▁suspended	-11.4807
▁persist	-11.481
pain	-11.4811
▁Aid	-11.4812
▁thickest	-11.4812
▁generations	-11.4814
▁concentrate	-11.4815
▁cousin	-11.4816
▁fulfill	-11.4817
rink	-11.4819
atomic	-11.4819
▁Peri	-11.4823
▁ir	-11.4826
▁Chan	-11.4828
▁variants	-11.4829
▁Doctors	-11.483
ECT	-11.483
▁deductions	-11.483
▁Media	-11.4831
▁comprising	-11.4831
▁sclerosis	-11.4831
▁Conference	-11.4832
▁sixth	-11.4832
▁denture	-11.4832
▁Justice	-11.4834
▁1982	-11.4835
Na	-11.4836
layer	-11.484
▁Reg	-11.4842
▁approaches	-11.4845
▁Kat	-11.4846
▁Capital	-11.4847
▁cheek	-11.4847
▁rotor	-11.4847
▁Nico	-11.4851
▁browned	-11.4852
▁Effects	-11.4853
▁leftover	-11.4855
▁Environmental	-11.4855
▁spoke	-11.4855
ril	-11.4856
▁setup	-11.4856
dip	-11.4857
▁locate	-11.4861
▁appliances	-11.4862
aff	-11.4862
▁convenience	-11.4862
▁lipoprotein	-11.4862
▁Sweet	-11.4862
▁yarn	-11.4862
▁detergent	-11.4862
encies	-11.4865
▁descendant	-11.4867
▁paired	-11.4868
▁developer	-11.4872
▁wiki	-11.4873
▁carotid	-11.4877
▁stimulant	-11.4877
▁unwanted	-11.4877
▁versatile	-11.4877
▁clutch	-11.4877
▁methyl	-11.4879
▁Dun	-11.4879
ffin	-11.488
▁consequences	-11.4884
2015	-11.4884
ssuming	-11.4885
▁smoked	-11.4886
rank	-11.4886
▁Series	-11.4889
▁Nick	-11.4891
▁stump	-11.4893
▁Rocky	-11.4895
▁stew	-11.4895
▁Syn	-11.4897
▁marking	-11.4899
aga	-11.4903
▁groom	-11.4903
▁Rob	-11.4903
▁pus	-11.4905
▁subjects	-11.4908
▁reflux	-11.4908
▁Famous	-11.4908
▁invasion	-11.4908
▁Franklin	-11.4909
rog	-11.491
▁visceral	-11.4911
▁Jane	-11.4912
▁alarm	-11.4913
▁67	-11.4914
▁disrupt	-11.4916
▁hub	-11.4916
▁intervals	-11.4918
▁$58	-11.4919
▁Bry	-11.4919
▁foliage	-11.4923
▁Mad	-11.4924
▁accountant	-11.4924
▁angina	-11.4925
▁submitted	-11.4926
▁Text	-11.4927
Ra	-11.4927
iya	-11.4929
ould	-11.493
▁colder	-11.4932
▁Driver	-11.4932
▁wounds	-11.4937
▁happened	-11.4937
-$8	-11.4938
▁Box	-11.4939
▁Nuclear	-11.4939
▁bicarbonate	-11.4939
▁hurricane	-11.4939
▁crowd	-11.4939
▁dermis	-11.4939
▁prone	-11.494
▁aids	-11.4941
▁layout	-11.4942
▁WI	-11.4945
▁modest	-11.4948
▁fame	-11.4949
aj	-11.495
▁Colon	-11.4954
▁remedy	-11.4954
▁entities	-11.4954
▁voting	-11.4954
▁glaze	-11.4955
▁chef	-11.4958
▁flies	-11.4961
▁visiting	-11.4967
▁Mass	-11.4968
▁alongside	-11.4968
▁adenosine	-11.4968
▁Jr	-11.4969
▁accuracy	-11.497
▁gradient	-11.497
▁bureau	-11.497
version	-11.4972
▁Max	-11.4975
▁Product	-11.4975
▁Fall	-11.4978
▁Submit	-11.4978
NE	-11.4978
▁extinct	-11.4981
▁pseudo	-11.4985
▁homeostasis	-11.4985
▁Channel	-11.4985
▁neuropathy	-11.4986
core	-11.4986
dan	-11.4988
▁Stock	-11.4988
only	-11.4989
▁Minor	-11.499
▁Block	-11.4995
▁Record	-11.4996
Mar	-11.4997
▁kernel	-11.5001
▁decompose	-11.5001
▁Acute	-11.5001
▁degenerative	-11.5002
quat	-11.5002
race	-11.5003
▁fetal	-11.5003
▁1971	-11.5004
▁agonist	-11.5004
▁Winter	-11.5007
aire	-11.5007
▁tied	-11.5008
chemical	-11.5009
8.5	-11.501
▁Lab	-11.5013
▁grades	-11.5015
pra	-11.5015
half	-11.5015
▁Ethiopia	-11.5016
▁Guatemala	-11.5016
▁Daily	-11.5016
▁Square	-11.5016
▁citizenship	-11.5017
▁updates	-11.502
▁electrode	-11.502
degree	-11.5021
dimensional	-11.5021
▁violent	-11.5027
▁Sep	-11.5027
La	-11.5029
▁doctorate	-11.5032
▁minimize	-11.5032
▁Sikh	-11.5032
either	-11.5036
▁Root	-11.5036
▁peanut	-11.5044
▁Employer	-11.5047
▁Jefferson	-11.5047
▁luxury	-11.5047
▁miscarriage	-11.5047
▁turmeric	-11.5047
▁BCE	-11.5048
▁sessions	-11.5048
▁personnel	-11.5053
▁Tell	-11.5053
▁traditions	-11.5056
▁kittens	-11.5057
▁mount	-11.5062
▁trailer	-11.5062
▁Visa	-11.5062
▁rolling	-11.5063
▁RF	-11.5063
▁Hieroglyphic	-11.5063
▁ratified	-11.5064
GS	-11.5064
atum	-11.5066
▁volt	-11.5067
▁Cent	-11.507
▁fuse	-11.5072
▁shots	-11.5072
▁EU	-11.5074
▁FI	-11.5076
normal	-11.5079
▁injected	-11.5079
▁hu	-11.5081
lev	-11.5082
▁presidential	-11.5083
If	-11.5085
▁attain	-11.5087
▁encounter	-11.509
▁diabetic	-11.509
fen	-11.5091
▁impulse	-11.5091
▁fortified	-11.5092
▁deadly	-11.5092
▁Private	-11.5094
▁apparatus	-11.5094
▁essay	-11.5094
▁compost	-11.5095
▁disturbance	-11.5095
vie	-11.5095
▁losing	-11.5096
▁strange	-11.5097
▁retention	-11.5097
▁lined	-11.5097
▁Er	-11.5101
▁Panel	-11.5104
▁minority	-11.5104
▁suspect	-11.5105
▁san	-11.5108
▁incorporate	-11.5109
▁Employment	-11.511
▁Death	-11.511
▁je	-11.5112
▁saved	-11.5112
▁recommendations	-11.5115
▁germs	-11.5115
▁dining	-11.5115
CK	-11.5115
▁occupied	-11.512
▁sting	-11.512
store	-11.5121
BP	-11.5121
lice	-11.5123
▁vibration	-11.5126
plural	-11.5127
▁3%	-11.5134
flat	-11.5136
▁blind	-11.5137
▁Surgeon	-11.5141
▁legislative	-11.5141
▁hives	-11.5142
▁Sahara	-11.5142
▁admitted	-11.5142
▁Room	-11.5144
▁wastes	-11.5146
ferr	-11.5147
▁Similarly	-11.5154
▁buyers	-11.5155
▁acetylcholine	-11.5157
▁guidance	-11.5157
▁storing	-11.5158
▁descent	-11.5158
▁taught	-11.5158
▁lute	-11.5158
▁approx	-11.5158
phon	-11.516
▁Kenya	-11.5161
▁posted	-11.5161
verb	-11.5164
GMO	-11.5167
▁Hence	-11.5168
▁Around	-11.5168
UC	-11.517
▁Skeletal	-11.5173
▁oyster	-11.5173
away	-11.5173
average	-11.5174
▁Sol	-11.5175
▁loved	-11.5176
▁1986	-11.5177
▁Fox	-11.5178
para	-11.5179
enne	-11.5179
▁dressing	-11.518
after	-11.5185
▁secretes	-11.5186
▁celebrate	-11.5188
▁pupil	-11.5188
▁strategies	-11.5189
▁ovary	-11.5189
▁troops	-11.5189
▁extracellular	-11.519
▁caught	-11.519
seed	-11.5201
▁sweating	-11.5202
▁Biblical	-11.5204
▁striated	-11.5204
▁globe	-11.5204
▁timber	-11.5204
▁mast	-11.5205
▁blocking	-11.5206
▁backward	-11.5209
▁Qui	-11.521
▁Joint	-11.5212
effective	-11.5213
▁administer	-11.5215
▁$95	-11.5215
▁Ref	-11.5218
▁welcome	-11.522
▁Entry	-11.5221
electric	-11.5222
▁soybeans	-11.5226
heim	-11.5227
▁representatives	-11.5228
▁Estate	-11.523
▁increasingly	-11.5233
▁Oak	-11.5235
▁Toronto	-11.5236
▁absent	-11.5236
▁solute	-11.5236
▁spider	-11.5236
▁triphosphate	-11.5237
▁tune	-11.5237
▁Break	-11.5237
▁pouch	-11.5238
▁candy	-11.5243
IVE	-11.5245
break	-11.5247
▁farming	-11.5248
▁inform	-11.5251
▁Employee	-11.5252
▁identifies	-11.5252
▁Until	-11.5254
▁True	-11.5255
mbi	-11.5257
▁ox	-11.5258
▁exemption	-11.5261
▁Fever	-11.5261
▁unlikely	-11.5261
▁slot	-11.5261
▁inherit	-11.5262
root	-11.5265
▁qualifications	-11.5267
▁verify	-11.5268
▁chemotherapy	-11.5268
▁Student	-11.5269
▁upward	-11.5269
▁Pork	-11.5269
**	-11.527
▁swell	-11.527
▁97	-11.5273
▁polish	-11.5279
cient	-11.5282
▁credited	-11.5283
▁brittle	-11.5284
▁osteoporosis	-11.5284
▁landlord	-11.5284
▁donation	-11.5284
▁capsules	-11.5285
700	-11.5285
▁describing	-11.5285
oxide	-11.529
▁originate	-11.5293
▁marketed	-11.5295
ən	-11.5295
▁overweight	-11.5299
▁Bee	-11.5299
▁hardy	-11.53
▁Rhode	-11.5301
▁basalt	-11.5301
family	-11.5301
▁accessible	-11.5305
▁fry	-11.5306
▁Fund	-11.5306
▁gran	-11.5307
edge	-11.5308
▁abnormally	-11.5312
ethane	-11.5313
▁Jun	-11.5313
▁freely	-11.5314
▁discrimination	-11.5316
▁Acc	-11.5316
▁Uni	-11.5316
▁Spirit	-11.5319
ponent	-11.532
block	-11.5322
▁Starch	-11.5323
▁Email	-11.5326
▁UTI	-11.5328
▁abundance	-11.5332
▁significance	-11.5332
▁Creek	-11.5333
▁basil	-11.5333
▁$67	-11.5333
▁thaw	-11.5334
▁bottles	-11.5334
▁generous	-11.5335
band	-11.5336
nish	-11.5338
▁Kids	-11.5338
▁ticks	-11.5341
▁collective	-11.5342
dale	-11.5343
▁170	-11.5344
▁Adding	-11.5344
uh	-11.5346
▁Spin	-11.5346
▁whisk	-11.5348
▁clusters	-11.535
▁Bad	-11.5353
lton	-11.536
▁loin	-11.536
▁220	-11.5363
ova	-11.5363
▁Commonwealth	-11.5364
▁eBay	-11.5364
▁premier	-11.5364
▁ventral	-11.5365
▁Eco	-11.5365
factor	-11.5367
▁Rib	-11.5367
▁Snow	-11.5371
▁collectively	-11.5375
vul	-11.5378
▁Studio	-11.538
▁beetle	-11.5381
▁categorized	-11.5385
▁instances	-11.5387
▁english	-11.5391
▁Vet	-11.5392
▁efficiently	-11.5392
▁assumed	-11.5392
▁conception	-11.5395
▁SP	-11.5396
▁Together	-11.5396
▁iPod	-11.5396
▁reservoir	-11.5396
▁sciatic	-11.5396
▁helium	-11.5396
▁Minimum	-11.5396
stream	-11.5399
-$200	-11.5399
▁evil	-11.5399
▁commitment	-11.5399
▁coins	-11.5402
▁coin	-11.5404
▁1.2	-11.5406
▁restrict	-11.5407
lined	-11.5408
▁depict	-11.5408
▁partly	-11.5409
▁loosely	-11.541
▁Wednesday	-11.5412
▁cervix	-11.5412
▁burial	-11.5413
▁enforcement	-11.5415
▁precede	-11.5415
▁$72	-11.5418
def	-11.5419
▁Production	-11.5421
nick	-11.5423
posed	-11.5423
Th	-11.5424
▁actin	-11.5425
▁handy	-11.5425
▁Mala	-11.5427
▁Agreement	-11.5429
▁chimney	-11.5429
▁murder	-11.5429
▁museum	-11.5429
▁combining	-11.5429
▁creative	-11.5429
esis	-11.5429
▁Nepal	-11.5429
zen	-11.5431
▁Roger	-11.5433
▁mushroom	-11.5433
plasm	-11.5435
▁Liver	-11.5438
▁cli	-11.5441
pple	-11.5446
▁Granite	-11.5447
typ	-11.5449
▁ultimate	-11.545
▁platelet	-11.5453
▁rev	-11.5454
▁Times	-11.5454
uda	-11.5457
▁Senior	-11.5461
▁Toyota	-11.5461
▁afternoon	-11.5461
▁promotion	-11.5462
▁(13	-11.5462
▁Humans	-11.5463
boiled	-11.5464
wear	-11.5473
▁Still	-11.5474
▁drip	-11.5476
cutaneous	-11.5476
▁defrost	-11.5477
▁ultraviolet	-11.5477
▁migrate	-11.5478
▁Daniel	-11.5478
watt	-11.5478
metre	-11.548
▁$12,000	-11.548
▁Wolf	-11.5483
▁stools	-11.5483
action	-11.5485
▁Marketing	-11.5486
▁permanently	-11.5488
wash	-11.5489
owned	-11.5489
▁ducks	-11.5491
bat	-11.5493
▁Hemoglobin	-11.5494
▁Tokyo	-11.5494
▁defining	-11.5494
▁parsley	-11.5494
ML	-11.5494
rare	-11.5494
▁mitral	-11.5495
▁Vice	-11.5497
▁planned	-11.5498
▁Orange	-11.5499
NF	-11.5502
/1	-11.5502
▁wo	-11.5505
fire	-11.5505
phase	-11.551
▁veteran	-11.551
▁arterial	-11.5511
▁stirring	-11.5511
▁rotator	-11.5511
▁findings	-11.5515
▁1965	-11.5515
▁creamy	-11.5515
iber	-11.5517
▁nap	-11.5518
▁Construction	-11.5519
loid	-11.5522
therapy	-11.5523
issa	-11.5524
▁rabies	-11.5526
140	-11.5528
tailed	-11.553
▁fossils	-11.553
ien	-11.5531
tec	-11.5533
▁penis	-11.5533
▁fox	-11.5536
▁veneer	-11.5537
▁attitude	-11.5537
▁radial	-11.5537
▁winning	-11.5538
▁Nov	-11.5542
▁Characteristics	-11.5543
▁CostHelper	-11.5543
▁Venezuela	-11.5543
▁emphasis	-11.5543
▁violation	-11.5543
▁southeastern	-11.5543
▁74	-11.5545
▁q	-11.5545
four	-11.5545
▁soups	-11.5545
sodium	-11.5547
▁Tower	-11.5548
bot	-11.5548
▁Products	-11.5549
▁appearing	-11.555
when	-11.5551
▁Centre	-11.5551
▁noticed	-11.5553
▁guest	-11.5553
FE	-11.5557
▁dew	-11.5558
▁populated	-11.5559
closure	-11.5559
▁anatomical	-11.556
MENT	-11.5564
▁Drive	-11.5566
▁Phone	-11.5566
▁135	-11.5567
▁sliced	-11.5569
▁capita	-11.557
▁exceeds	-11.5573
▁Wash	-11.5573
stra	-11.5575
▁Kennedy	-11.5575
▁differentiate	-11.5576
▁microbes	-11.5576
chon	-11.5576
▁Panama	-11.5577
▁bypass	-11.5578
▁Boil	-11.5578
ease	-11.558
rod	-11.558
▁Southwest	-11.5581
▁larvae	-11.5582
▁Highway	-11.5582
central	-11.5583
New	-11.5587
▁Ok	-11.5588
hydro	-11.5589
▁banking	-11.5589
▁taller	-11.5591
▁glaucoma	-11.5592
▁glomerulus	-11.5592
▁Marie	-11.5595
▁Rot	-11.5596
▁sunny	-11.5598
▁slave	-11.5599
solid	-11.56
▁magic	-11.5602
▁hills	-11.5605
far	-11.5605
▁ram	-11.5607
NH	-11.5607
▁compliance	-11.5608
▁nicotine	-11.5608
▁uterine	-11.5608
▁accent	-11.5609
▁Should	-11.5609
▁Jose	-11.561
▁filtered	-11.5611
▁reset	-11.5611
▁matches	-11.5613
▁solely	-11.5617
▁Letter	-11.562
▁Organic	-11.5621
▁Seven	-11.5621
▁Semi	-11.5622
text	-11.5623
▁laxative	-11.5625
▁ventilation	-11.5625
▁sunflower	-11.5626
▁deposition	-11.5628
▁Clinic	-11.5633
760	-11.5637
▁TH	-11.5638
▁PhD	-11.5639
▁Ice	-11.5641
jan	-11.5641
▁worship	-11.5641
▁succeed	-11.5641
▁Require	-11.5643
▁arche	-11.5646
fold	-11.5646
▁reflected	-11.5646
▁Pad	-11.5648
▁Given	-11.5649
▁rim	-11.5649
gel	-11.5649
▁Pole	-11.5649
0.5	-11.5651
elli	-11.5653
lau	-11.5655
▁brine	-11.5655
cardi	-11.5656
▁pile	-11.5659
▁Popularity	-11.566
▁wake	-11.5662
▁professionally	-11.5662
steroidal	-11.5664
▁simpler	-11.5665
▁ridge	-11.5668
▁(11	-11.567
▁counted	-11.5674
▁condense	-11.5675
▁grease	-11.5675
▁lichen	-11.5675
▁Surname	-11.5675
erial	-11.5676
▁Dietary	-11.5676
▁Yu	-11.5679
▁shoe	-11.5686
print	-11.5687
▁Ski	-11.5687
▁peer	-11.5688
▁incurred	-11.5692
▁Tools	-11.5693
▁Bru	-11.5695
▁crossing	-11.5695
cyan	-11.5697
1°	-11.5698
▁reacts	-11.5698
▁orbital	-11.5704
▁imagine	-11.5708
▁accessories	-11.5708
▁spicy	-11.5708
▁Spread	-11.5709
▁1963	-11.5711
▁lymphoma	-11.5712
▁mileage	-11.5713
▁watery	-11.5713
therm	-11.5717
▁elementary	-11.5721
▁dryer	-11.5722
▁millimeter	-11.5725
▁swamp	-11.5725
▁Need	-11.5725
▁fought	-11.5725
▁Everest	-11.5726
western	-11.5726
▁documentation	-11.5726
ACT	-11.5727
although	-11.5734
▁operational	-11.5736
▁Provide	-11.5737
ito	-11.5737
▁alloys	-11.5737
▁scent	-11.5738
▁signing	-11.5739
scopic	-11.5744
▁Found	-11.5747
▁Never	-11.5754
▁Economic	-11.5758
▁contemporary	-11.5758
▁biceps	-11.5758
▁unemployment	-11.5759
▁tails	-11.5759
▁Exam	-11.5761
▁clinics	-11.5762
▁contributed	-11.5764
▁powered	-11.5768
▁$64	-11.5771
▁(14	-11.5774
▁catalyst	-11.5775
▁Madagascar	-11.5775
▁subsidiary	-11.5775
▁buffer	-11.5775
▁1969	-11.5778
▁1.0	-11.5778
vascular	-11.5779
iscus	-11.578
▁packaged	-11.5783
He	-11.5785
▁pra	-11.5786
▁Prop	-11.5788
▁Limit	-11.5789
▁panda	-11.5791
▁Mile	-11.5791
▁whenever	-11.5791
▁eligibility	-11.5791
▁infrared	-11.5791
▁alligator	-11.5791
▁Present	-11.5792
AB	-11.5792
▁GI	-11.5793
▁combat	-11.5796
▁mosquitoes	-11.58
▁Serve	-11.5801
▁op	-11.5802
hom	-11.5802
▁Quebec	-11.5808
▁securities	-11.5808
▁tundra	-11.5808
▁compromise	-11.5808
▁spike	-11.5809
bate	-11.581
▁narrowing	-11.5814
guard	-11.5816
▁pores	-11.5816
▁bur	-11.5817
▁workplace	-11.5817
cine	-11.5821
▁companion	-11.5825
▁gamma	-11.5825
▁longitude	-11.5825
▁abstract	-11.5825
▁wiring	-11.5826
atus	-11.5829
COM	-11.583
▁absolutely	-11.5831
largest	-11.5831
phe	-11.5833
force	-11.5834
▁jam	-11.5838
▁shades	-11.5838
▁dementia	-11.5842
▁Variant	-11.5842
▁Ol	-11.5842
▁optimum	-11.5842
▁bleach	-11.5842
▁Command	-11.5843
▁american	-11.5843
▁historically	-11.5843
▁pointed	-11.5845
usa	-11.5847
▁assignment	-11.5848
paying	-11.5854
▁upright	-11.5856
▁Oral	-11.5858
▁HVAC	-11.5859
▁Journal	-11.5859
▁Pregnancy	-11.5859
▁genotype	-11.5859
▁elaborate	-11.5859
▁Hindi	-11.5859
▁haploid	-11.5859
▁Front	-11.5859
▁expiration	-11.586
▁bass	-11.586
▁Tur	-11.5864
▁Nar	-11.5867
▁impaired	-11.587
▁broil	-11.5872
Mi	-11.5872
▁illustrate	-11.5872
▁chiefly	-11.5874
▁drag	-11.5875
▁codon	-11.5875
cross	-11.5877
▁builder	-11.5877
▁cub	-11.5878
wai	-11.5879
▁Working	-11.5882
▁attributed	-11.5884
▁finishing	-11.589
▁dendrite	-11.5893
▁enormous	-11.5893
▁influential	-11.5893
▁satisfy	-11.5893
▁ladder	-11.5893
▁1968	-11.5897
▁formally	-11.5898
▁neutrons	-11.5899
▁attractions	-11.59
iginating	-11.59
▁drill	-11.5901
▁provinces	-11.5906
▁emphasize	-11.5906
▁Arkansas	-11.591
▁continuing	-11.591
▁Translation	-11.591
▁consultation	-11.5915
▁guy	-11.5916
▁enrolled	-11.5916
!!!	-11.5926
order	-11.5927
▁Difference	-11.5927
▁folate	-11.5927
▁Denver	-11.5928
▁qualifying	-11.5929
▁limitations	-11.593
▁retro	-11.5931
▁exceptional	-11.5935
▁revolution	-11.5942
▁wipe	-11.5942
▁77	-11.5943
▁Heritage	-11.5944
▁merchant	-11.5944
▁Database	-11.5944
▁queen	-11.5945
boy	-11.5945
▁connector	-11.5949
density	-11.595
▁sharks	-11.5953
▁Ball	-11.5954
▁receiver	-11.5955
yard	-11.5956
urus	-11.5957
▁Canyon	-11.5961
▁emissions	-11.5962
▁Sri	-11.5964
ike	-11.5964
igan	-11.5965
▁gather	-11.5965
rest	-11.5965
sperm	-11.5966
▁57	-11.5967
▁rats	-11.5968
HR	-11.5969
▁Million	-11.5972
IB	-11.5973
▁tetanus	-11.5978
▁violence	-11.5978
▁Actually	-11.5978
ographic	-11.5978
▁spontaneous	-11.5979
being	-11.598
rough	-11.5981
▁gods	-11.5985
▁silicate	-11.5985
▁CAD	-11.5985
▁warrant	-11.5986
aught	-11.5987
▁Kong	-11.5988
▁shi	-11.599
▁Collagen	-11.5995
▁arthropod	-11.5995
▁Besides	-11.5995
wh	-11.5995
▁Pine	-11.5996
▁84	-11.5997
▁1985	-11.6001
▁McC	-11.6003
▁Author	-11.6003
dict	-11.6008
unit	-11.601
▁(30	-11.6011
▁aquarium	-11.6012
▁plaster	-11.6012
▁dilute	-11.6013
▁unsaturated	-11.6014
▁tigers	-11.6015
▁impairment	-11.6015
▁pumpkin	-11.6015
-$150	-11.6017
▁4.5	-11.6017
resident	-11.6018
folia	-11.6022
▁Jul	-11.6022
▁voter	-11.6024
/8	-11.6025
▁intention	-11.6025
RY	-11.6026
mag	-11.6026
▁glacier	-11.6029
▁regulating	-11.6029
▁Photosynthesis	-11.603
▁creature	-11.6031
▁labour	-11.6031
▁burst	-11.6034
▁insured	-11.6034
pea	-11.6034
▁Write	-11.6035
▁Active	-11.6039
▁Tile	-11.6041
▁Jordan	-11.6047
▁remedies	-11.6047
▁insomnia	-11.6047
▁Passport	-11.6048
▁trapped	-11.6048
▁topics	-11.6048
▁vesicles	-11.6048
▁impression	-11.6049
▁airports	-11.605
cancerous	-11.6054
▁ok	-11.6056
wiki	-11.6057
▁oversee	-11.6057
▁airways	-11.606
thirds	-11.6061
hawk	-11.6061
▁alkali	-11.6063
▁credential	-11.6064
▁ethics	-11.6064
▁zebra	-11.6064
▁Thank	-11.6066
▁teens	-11.6068
opathic	-11.6068
lab	-11.6068
▁1988	-11.6068
▁240	-11.6069
▁whi	-11.607
blue	-11.6071
▁liner	-11.6076
▁runner	-11.6079
cott	-11.608
▁bamboo	-11.6081
▁autism	-11.6081
▁Study	-11.6082
▁synthesize	-11.6082
▁wheels	-11.6083
▁dump	-11.6084
▁curl	-11.6084
▁permission	-11.6085
▁rocky	-11.6085
▁textile	-11.6086
▁Regulation	-11.6087
▁injections	-11.6089
▁hor	-11.609
▁hardness	-11.609
▁py	-11.6093
▁rush	-11.6094
▁$99	-11.6095
▁suburb	-11.6095
▁angel	-11.6095
720	-11.6095
▁Cardiac	-11.6098
▁brisket	-11.6098
▁districts	-11.6099
▁hydrolysis	-11.6099
▁sprouts	-11.6099
▁distant	-11.6099
ethylene	-11.6102
▁assumption	-11.6102
▁Essential	-11.6105
brain	-11.6105
▁losses	-11.6107
▁outdoors	-11.6107
▁69	-11.6107
▁albumin	-11.6109
stead	-11.611
▁skilled	-11.611
▁sur	-11.611
▁gar	-11.6112
▁PSA	-11.6113
▁ADH	-11.6114
acting	-11.6114
▁spiders	-11.6116
▁gastro	-11.6116
▁Practice	-11.6116
▁vertigo	-11.6116
▁liquor	-11.6116
▁investigate	-11.6116
▁clerk	-11.6116
cam	-11.6116
odo	-11.6118
ridge	-11.6118
▁localized	-11.6118
▁Soul	-11.6119
permeable	-11.612
▁organize	-11.6121
▁Barr	-11.6122
▁toxicity	-11.6124
▁1975	-11.6126
▁3-5	-11.6128
▁Rica	-11.6131
▁$63	-11.6132
wall	-11.6132
esophageal	-11.6133
▁Medicaid	-11.6133
▁equilibrium	-11.6133
▁Finland	-11.6133
▁saint	-11.6134
▁resulted	-11.6134
▁thermo	-11.6136
risk	-11.6137
▁salads	-11.6139
▁Round	-11.6139
No	-11.614
▁filters	-11.6143
60,000	-11.6143
▁pod	-11.6144
▁Sum	-11.6145
bacteria	-11.6149
▁opaque	-11.615
▁morphine	-11.615
▁mumps	-11.6151
▁decimal	-11.6151
▁licence	-11.6151
▁synonymous	-11.6151
▁deoxygenated	-11.6151
▁Minister	-11.6152
▁dissolves	-11.6152
▁LO	-11.6153
▁publish	-11.6153
▁taxi	-11.6157
▁SAP	-11.6157
ffle	-11.616
▁reign	-11.6162
▁offset	-11.6164
▁flora	-11.6165
▁Albert	-11.6166
▁$62	-11.6167
▁expenditure	-11.6168
▁cocoa	-11.6168
▁proto	-11.6168
▁borrower	-11.6169
lene	-11.6169
▁slate	-11.6169
▁Resort	-11.617
▁Hunt	-11.6171
▁outstanding	-11.6174
▁cosmetics	-11.6176
▁earthquakes	-11.6176
calorie	-11.6176
▁Ring	-11.6177
fiber	-11.6181
eta	-11.6184
pods	-11.6184
▁Dakota	-11.6185
▁dinosaur	-11.6185
▁ultra	-11.6186
rho	-11.6186
▁Geography	-11.6186
▁protozoa	-11.6186
Lo	-11.6188
▁comb	-11.6189
UT	-11.619
▁invade	-11.619
▁Glass	-11.619
▁AP	-11.6192
▁Maine	-11.6192
pass	-11.6193
▁colorful	-11.6194
asse	-11.6196
▁attributes	-11.6197
▁induce	-11.6197
▁Poll	-11.6198
▁Mitochondria	-11.6203
▁poverty	-11.6203
▁primitive	-11.6203
▁semiconductor	-11.6203
▁headquarters	-11.6203
▁Pharmacy	-11.6206
▁Mauna	-11.6206
will	-11.6208
▁occurrence	-11.6208
▁Homo	-11.621
▁plains	-11.621
sugar	-11.6212
▁Au	-11.6213
▁Lock	-11.6216
▁ureters	-11.6218
▁mandatory	-11.622
▁Divide	-11.6221
▁highway	-11.6225
▁Mt	-11.6228
▁charter	-11.6229
▁notably	-11.6232
▁GM	-11.6233
▁dull	-11.6233
▁Sy	-11.6233
▁Rico	-11.6235
▁Library	-11.6238
▁conversation	-11.6238
▁RO	-11.6242
▁Cru	-11.6243
▁Norse	-11.6243
▁insertion	-11.6245
activity	-11.6247
alia	-11.6248
▁shirt	-11.6249
▁Meat	-11.6254
▁misdemeanor	-11.6255
▁alteration	-11.6256
▁loud	-11.6257
▁Chris	-11.6261
▁systematic	-11.6264
▁metro	-11.6265
payment	-11.6266
▁directory	-11.6272
▁corrosion	-11.6273
▁resonance	-11.6273
▁£3	-11.6273
▁sweetener	-11.6273
▁scrub	-11.6273
▁copyright	-11.6275
html	-11.6275
▁encompasses	-11.6279
......	-11.628
▁kitten	-11.6282
▁bug	-11.6283
▁quoted	-11.6285
▁searching	-11.6285
▁88	-11.6289
scribe	-11.629
▁Lou	-11.629
▁neutrophil	-11.6291
▁Abstract	-11.6291
▁Software	-11.6291
▁Adjust	-11.6291
▁delta	-11.6293
▁Lion	-11.6295
▁hemispheres	-11.6299
▁Bun	-11.6302
▁flakes	-11.6305
▁Holy	-11.6306
center	-11.6308
▁rhyme	-11.6308
▁noodles	-11.6308
▁remodeling	-11.6309
cad	-11.6309
▁cider	-11.631
idium	-11.631
▁chewing	-11.6311
▁1.1	-11.6311
2014	-11.6313
▁clan	-11.6315
▁counting	-11.6319
▁clicking	-11.632
▁glasses	-11.6323
▁statistical	-11.6325
▁FOR	-11.6325
▁conclusion	-11.6326
▁metabolize	-11.6326
▁theoretical	-11.6326
mont	-11.6327
▁Calculate	-11.6328
▁1987	-11.633
▁critic	-11.6331
▁elephant	-11.6334
season	-11.6335
▁4,000	-11.6342
▁grouped	-11.6342
▁Certificate	-11.6344
▁Hollywood	-11.6344
▁symmetry	-11.6344
▁polypeptide	-11.6344
▁Analysis	-11.6344
▁joining	-11.6351
▁outline	-11.6352
▁Stu	-11.6352
ONE	-11.6357
uct	-11.6358
found	-11.636
▁Columbus	-11.6362
▁desirable	-11.6362
▁hydrochloride	-11.6362
▁leukocyte	-11.6362
▁Tesla	-11.6362
▁Terms	-11.6362
▁Initial	-11.6363
▁1957	-11.6365
▁classify	-11.6366
bank	-11.6366
▁programme	-11.6369
▁posture	-11.637
▁monkeys	-11.6373
▁stab	-11.6375
▁accompany	-11.6379
▁freight	-11.6379
▁corpuscle	-11.638
▁Branch	-11.638
▁passion	-11.6381
▁settlers	-11.6381
7,500	-11.6381
▁jury	-11.6384
▁shortening	-11.6386
▁acetaminophen	-11.6386
▁monarch	-11.6387
▁coding	-11.6388
witch	-11.6388
▁formulation	-11.6389
▁compress	-11.639
pul	-11.6392
▁engage	-11.6396
wikipedia	-11.6397
▁Perhaps	-11.6397
▁stenosis	-11.6397
▁reservation	-11.6397
▁copied	-11.6397
▁82	-11.6398
asci	-11.6398
▁stuck	-11.6399
▁Rates	-11.6399
▁emerged	-11.6401
▁360	-11.6401
▁font	-11.6402
MG	-11.6402
ipped	-11.6403
5)	-11.6404
spire	-11.6404
▁sphere	-11.6405
▁Lean	-11.6405
▁Polar	-11.6406
▁elephants	-11.6407
rop	-11.6407
▁lap	-11.6408
▁gutters	-11.6411
▁Song	-11.6414
▁ji	-11.6415
▁diuretic	-11.6415
▁Dal	-11.6416
▁degeneration	-11.6417
▁PH	-11.6417
▁$7,000	-11.6418
mond	-11.6421
▁cyclone	-11.6421
▁Mol	-11.6423
speaking	-11.6424
▁follicle	-11.6425
▁machinery	-11.6427
▁Que	-11.6427
▁Cir	-11.6428
▁commit	-11.6429
▁watching	-11.6431
-$9	-11.6432
▁juvenile	-11.6433
▁monument	-11.6433
▁Player	-11.644
▁Left	-11.6441
2.1	-11.6441
glyco	-11.6442
▁fragment	-11.6444
▁daycare	-11.6445
▁pose	-11.6445
▁Pediatric	-11.6451
▁Protocol	-11.6451
▁mathematics	-11.6451
▁bloating	-11.6451
▁Train	-11.6451
▁Honey	-11.6452
▁curry	-11.6455
▁iris	-11.6456
▁thawed	-11.6456
▁gig	-11.6463
olite	-11.6464
▁floating	-11.6465
▁cardio	-11.6468
▁congestion	-11.6469
▁manganese	-11.6469
▁phenomena	-11.6469
▁afferent	-11.6469
fed	-11.6469
▁contest	-11.6471
▁Quin	-11.6472
▁1972	-11.6473
▁Tropical	-11.6475
▁101	-11.6476
between	-11.6478
▁ruin	-11.648
▁20,000	-11.6482
▁predator	-11.6482
▁pearl	-11.6484
▁brass	-11.6484
▁digits	-11.6484
bili	-11.6485
▁varicella	-11.6487
▁diesel	-11.6487
▁slender	-11.6488
▁Merc	-11.6488
▁sought	-11.649
Greek	-11.6496
▁mitochondrial	-11.6499
git	-11.6499
▁mall	-11.6501
▁Nat	-11.6504
▁Calculator	-11.6505
▁Rabbit	-11.6505
▁Croatia	-11.6505
▁paragraph	-11.6506
▁expertise	-11.6506
▁sacred	-11.6507
▁filament	-11.6509
tig	-11.6511
▁Resources	-11.6511
▁Herb	-11.6515
▁moderately	-11.6516
▁wise	-11.6521
▁cactus	-11.6523
▁crisis	-11.6523
▁Screen	-11.6523
▁pesticide	-11.6523
▁tennis	-11.6523
▁Bile	-11.6524
▁heartburn	-11.6528
GE	-11.6535
▁pineapple	-11.6541
▁piercing	-11.6541
▁groove	-11.6541
▁shrink	-11.6541
▁petition	-11.6543
▁Pit	-11.6545
▁1973	-11.6545
▁Steel	-11.6546
▁monomers	-11.6549
▁vulnerable	-11.6559
▁kinetic	-11.6559
cies	-11.656
▁southwestern	-11.656
▁Prevention	-11.6561
polis	-11.6563
▁taxpayers	-11.6563
▁inactive	-11.6564
▁existed	-11.6564
arily	-11.6565
▁Mini	-11.6567
ION	-11.6567
angio	-11.6569
▁disabled	-11.6569
▁obtaining	-11.6569
▁grilling	-11.657
▁cones	-11.6571
OA	-11.6572
▁clubs	-11.6572
▁lucky	-11.6573
▁Payment	-11.6574
dh	-11.6575
▁incidence	-11.6577
▁Friend	-11.6578
▁motorcycle	-11.6578
▁Hay	-11.6581
▁Risk	-11.6583
▁sear	-11.6585
▁eyelids	-11.6586
▁recommendation	-11.6587
bacter	-11.6589
▁smoker	-11.659
▁inmate	-11.6591
▁doctoral	-11.6591
▁Electronic	-11.6596
▁deepest	-11.6597
▁productivity	-11.6598
▁Half	-11.6599
▁Convert	-11.6599
▁Medium	-11.66
iana	-11.6601
▁bumps	-11.6602
function	-11.6605
▁Eric	-11.6606
▁analyst	-11.661
around	-11.6612
market	-11.6612
▁calculating	-11.6614
▁psychiatrist	-11.6614
▁Must	-11.6615
very	-11.6616
270	-11.6618
▁boneless	-11.6618
▁425	-11.6618
▁theatre	-11.662
▁tsp	-11.6621
▁Simon	-11.6622
▁Meta	-11.6627
-$6	-11.6629
▁fluctuate	-11.6632
▁Jacob	-11.6632
▁rodents	-11.6633
cyte	-11.6634
▁CE	-11.6636
▁Works	-11.6636
▁arteriole	-11.6639
▁sustained	-11.6641
▁Gang	-11.6645
▁reception	-11.665
▁Solution	-11.665
▁mango	-11.6652
good	-11.6653
▁suited	-11.6653
!!	-11.6658
▁hemo	-11.6658
▁secretions	-11.6662
▁86	-11.6663
▁biologist	-11.6663
▁$80,000	-11.6664
▁Secret	-11.6667
▁culinary	-11.6668
▁indicating	-11.6668
▁tonsils	-11.6669
▁bronchitis	-11.6669
▁embryonic	-11.667
▁coordinates	-11.667
▁batch	-11.667
ometric	-11.6671
typically	-11.6672
–19	-11.6673
▁ornamental	-11.6673
▁participants	-11.6673
▁fillet	-11.6673
▁Expression	-11.6674
▁Alternatively	-11.6675
▁accurately	-11.6676
who	-11.6677
▁sprinkler	-11.6679
▁thickening	-11.6679
emic	-11.668
▁teenager	-11.6681
▁editor	-11.6682
gran	-11.6682
hair	-11.6684
-200	-11.6685
floor	-11.6685
phospho	-11.6687
▁[1]	-11.6687
▁liberal	-11.6687
▁womb	-11.6688
▁discard	-11.6692
▁optional	-11.6694
bridge	-11.6702
▁picked	-11.6703
▁triggers	-11.6703
▁compatible	-11.6704
▁thicken	-11.6704
SB	-11.6704
▁Pyramid	-11.6705
▁physiology	-11.6705
▁tired	-11.6706
▁expire	-11.6708
3,500	-11.6709
▁acidity	-11.6709
nell	-11.671
acre	-11.6717
▁Duck	-11.6718
▁WW	-11.6719
acid	-11.6723
▁Delaware	-11.6724
▁Forensic	-11.6724
▁URL	-11.6724
▁fraud	-11.6724
▁dialysis	-11.6724
▁Cellular	-11.6724
▁shareholders	-11.6724
▁Eight	-11.673
▁perceived	-11.6732
Net	-11.6733
▁Flat	-11.6733
fri	-11.6735
rub	-11.6742
▁Clinton	-11.6742
▁enlargement	-11.6743
▁attendance	-11.6745
WH	-11.6745
▁mimic	-11.6745
▁stimulating	-11.6746
0000	-11.6747
/20	-11.6749
▁crimes	-11.675
▁chills	-11.6751
▁Bonus	-11.6752
▁shiny	-11.6753
▁taxed	-11.6754
▁needles	-11.6756
▁valued	-11.6756
▁deficit	-11.6761
▁exciting	-11.6761
▁advisor	-11.6761
▁Complex	-11.6761
▁distribute	-11.6763
▁trustee	-11.6763
▁10-15	-11.6765
crine	-11.6768
▁boxes	-11.6769
▁soldiers	-11.6772
HC	-11.6774
▁sticks	-11.6776
▁Rheumatoid	-11.6779
▁Problem	-11.6779
▁challenges	-11.678
▁PRO	-11.6781
▁Deal	-11.6783
▁seventh	-11.6784
0.7	-11.6787
▁Specific	-11.6788
byte	-11.6789
▁maxim	-11.6789
city	-11.679
idal	-11.6794
▁neuromuscular	-11.6798
▁premature	-11.6798
▁affair	-11.6798
▁Arteries	-11.6798
blast	-11.6801
▁Biology	-11.6802
▁cleaned	-11.6803
▁#2	-11.6804
fro	-11.6804
▁static	-11.6805
-50	-11.6805
▁dome	-11.6808
▁cracks	-11.6809
region	-11.6812
▁$130	-11.6815
shell	-11.6816
hydroxy	-11.6816
▁orientation	-11.6816
▁buttock	-11.6816
▁Oxford	-11.6817
▁CPU	-11.6822
human	-11.6825
HS	-11.6825
pac	-11.6828
▁funding	-11.683
▁Coat	-11.6831
tension	-11.6832
▁Wiktionary	-11.6835
▁Industrial	-11.6835
▁tutorial	-11.6835
▁FICO	-11.6835
▁concert	-11.6836
▁candle	-11.6836
▁trends	-11.6836
Bu	-11.6836
▁salty	-11.6838
▁imbalance	-11.6838
▁cheapest	-11.6839
▁Canal	-11.6839
▁provisions	-11.6839
-24	-11.6839
▁Tele	-11.6842
LU	-11.6844
▁fiction	-11.6846
▁4-6	-11.6851
hip	-11.6852
hibi	-11.6853
▁vertebrate	-11.6857
inate	-11.6858
▁preserved	-11.686
▁outpatient	-11.686
▁touching	-11.6866
opia	-11.687
▁forever	-11.687
▁Certification	-11.6872
▁Double	-11.6872
▁squeeze	-11.6872
▁Testament	-11.6872
▁Plastic	-11.6872
▁Hydrogen	-11.6873
▁subtle	-11.6877
▁wetland	-11.6881
▁invite	-11.6883
▁Northwest	-11.6885
pair	-11.6888
▁artistic	-11.689
▁Vehicle	-11.6891
▁hormonal	-11.6891
▁sneezing	-11.6891
▁Psychology	-11.6891
▁trench	-11.6891
▁Saturn	-11.6892
mediated	-11.6893
▁Mission	-11.6894
▁livestock	-11.6894
▁daytime	-11.6894
▁vest	-11.6894
▁1979	-11.6895
▁vegan	-11.6896
▁lesion	-11.6896
▁Sil	-11.6902
mart	-11.6902
▁ecosystems	-11.6903
kWh	-11.6904
▁shortly	-11.6905
rating	-11.6908
▁Bermuda	-11.691
▁Zinc	-11.691
▁interrupt	-11.691
▁Repair	-11.6912
▁standardized	-11.6913
▁Genes	-11.6913
3.3	-11.6914
▁relay	-11.6919
▁Arabian	-11.692
▁sim	-11.6921
▁inhibitor	-11.6922
▁Loan	-11.6927
▁strictly	-11.6928
▁dystrophy	-11.6928
▁resembling	-11.6928
▁sliding	-11.6928
▁Walk	-11.6929
▁dated	-11.693
▁winner	-11.6931
held	-11.6933
receptor	-11.6942
▁incomplete	-11.6945
▁accommodate	-11.6947
▁capacitor	-11.6947
▁impressive	-11.6948
both	-11.6949
graphic	-11.6949
▁outermost	-11.695
▁assuming	-11.6952
▁definite	-11.6955
▁commissions	-11.6955
▁Wine	-11.6956
▁Lar	-11.6956
▁Parent	-11.696
turn	-11.6964
▁Blu	-11.6964
▁Cash	-11.6965
▁accelerate	-11.6966
▁whey	-11.6966
▁adventure	-11.6967
▁shellfish	-11.6968
▁Mobile	-11.6969
▁paycheck	-11.697
▁Notice	-11.6971
▁LI	-11.6974
▁Basin	-11.6975
▁(50	-11.6981
px	-11.6984
▁shin	-11.6985
▁Eagle	-11.6985
riving	-11.6985
▁damaging	-11.6985
▁lend	-11.6985
open	-11.6986
▁tubular	-11.6986
▁XML	-11.6986
▁subscription	-11.6987
▁pint	-11.6987
▁2,500	-11.6988
▁1967	-11.6989
ingham	-11.6989
▁Dip	-11.699
▁Mechanical	-11.6995
bearing	-11.6995
▁pleura	-11.6997
imi	-11.6999
▁airway	-11.7
▁rolled	-11.7001
▁chemist	-11.7002
▁Emperor	-11.7004
▁octopus	-11.7004
▁Strait	-11.7007
▁1933	-11.701
songwriter	-11.7012
▁blooms	-11.7012
▁4%	-11.7014
▁Mayo	-11.7015
▁fri	-11.7015
▁Gla	-11.7019
▁Medi	-11.7019
▁flex	-11.7021
▁Smooth	-11.7023
▁pioneer	-11.7023
▁Dream	-11.7023
▁relates	-11.7023
▁pub	-11.7025
▁crash	-11.7025
▁foster	-11.7025
▁assign	-11.7027
▁welding	-11.7027
▁implementation	-11.703
ulus	-11.7031
▁recreational	-11.7032
UI	-11.7033
▁Specialist	-11.7039
▁$13,000	-11.7042
▁infrastructure	-11.7042
▁Sleep	-11.7042
▁differential	-11.7046
▁Phil	-11.7046
▁hanging	-11.7046
▁peanuts	-11.7047
▁electrolyte	-11.7048
▁Come	-11.7049
▁Package	-11.705
lide	-11.705
▁lizards	-11.7051
▁photographer	-11.7051
▁kale	-11.7052
▁monarchy	-11.7054
quarter	-11.7056
▁Story	-11.7056
▁similarities	-11.7057
▁pm	-11.7058
▁96	-11.7061
▁oblique	-11.7061
▁incur	-11.7061
▁primate	-11.7061
▁halfway	-11.7061
▁$76	-11.7064
▁preposition	-11.7064
▁spirits	-11.7067
▁[3	-11.7067
▁monkey	-11.7068
▁Lay	-11.7069
▁demonstrated	-11.707
gloss	-11.7072
▁Zoo	-11.7073
▁grid	-11.7074
▁observe	-11.7075
▁Matt	-11.7078
▁cerebellum	-11.708
▁nutritious	-11.708
▁Idaho	-11.708
▁Football	-11.708
▁stripes	-11.7081
credit	-11.7082
▁seaweed	-11.7082
▁Grade	-11.7082
▁Learning	-11.7082
▁$71	-11.7085
lian	-11.7086
▁1040	-11.709
male	-11.7091
▁pyramids	-11.7093
▁placement	-11.7094
▁byproduct	-11.7095
▁Arthritis	-11.7099
▁Practitioner	-11.7099
▁Recommend	-11.7099
▁portfolio	-11.7099
▁sacrifice	-11.7099
▁volunteer	-11.7099
▁socket	-11.7099
▁snails	-11.7099
▁unstable	-11.7099
▁correction	-11.71
▁railway	-11.7101
arrow	-11.7102
allow	-11.7102
▁analysts	-11.7103
▁painter	-11.7104
leaf	-11.7106
▁follicles	-11.7107
-17	-11.7111
▁AIDS	-11.7111
globulin	-11.7111
▁respective	-11.7113
▁hetero	-11.7114
▁borne	-11.7116
DC	-11.7117
▁contamination	-11.7118
▁google	-11.7118
▁scapula	-11.7118
▁Cloud	-11.7119
nica	-11.712
▁2-4	-11.7121
tsu	-11.7122
▁flagella	-11.7122
▁Update	-11.7122
etal	-11.7126
Ph	-11.7131
▁chicks	-11.7134
▁Contributions	-11.7135
▁Inside	-11.7136
oscope	-11.7137
azepam	-11.7138
▁Norwegian	-11.7138
▁confidence	-11.7138
▁penguin	-11.7138
▁Antonio	-11.7138
▁documented	-11.7139
▁Lind	-11.714
▁rashes	-11.7141
▁gal	-11.7141
▁tubules	-11.7142
gui	-11.7143
tonic	-11.7145
▁subunit	-11.7147
▁Seal	-11.7149
▁$96	-11.7151
genetic	-11.7151
▁weakened	-11.7157
▁explosive	-11.7157
▁platinum	-11.7157
▁wolves	-11.7157
▁meiosis	-11.7157
▁Fitness	-11.7157
▁Vinyl	-11.7157
▁mitosis	-11.7158
psych	-11.716
▁tilt	-11.7162
▁Hello	-11.7167
▁geological	-11.7167
▁lit	-11.7169
energy	-11.7171
▁conduction	-11.7172
▁Ear	-11.7172
ication	-11.7175
▁$79	-11.7175
▁asteroid	-11.7175
▁thyme	-11.7176
▁catheter	-11.7176
▁challenging	-11.7176
▁conservation	-11.7176
▁exocrine	-11.7176
▁politics	-11.7176
▁tortoise	-11.7176
▁proposal	-11.7176
▁Furthermore	-11.7176
▁shortened	-11.7178
▁Isle	-11.718
roid	-11.7183
▁Islamic	-11.7183
storm	-11.7184
▁flavoring	-11.7186
current	-11.7187
present	-11.7187
▁urge	-11.7188
▁bare	-11.719
borough	-11.719
▁Healthy	-11.7191
▁triggered	-11.7192
▁Phoenix	-11.7195
▁charcoal	-11.7195
▁jaundice	-11.7195
▁Tasmania	-11.7195
▁conscious	-11.7196
▁ingested	-11.7197
▁sculpture	-11.7197
▁Danish	-11.7197
▁collar	-11.7198
▁rope	-11.7204
▁Pick	-11.7206
▁retainer	-11.7206
▁intend	-11.7213
▁pleasant	-11.7215
▁Taylor	-11.7215
▁aluminium	-11.7215
▁xylem	-11.7215
▁integrity	-11.7215
ATP	-11.7216
▁compressed	-11.7218
▁remainder	-11.722
cyst	-11.722
▁herd	-11.7221
what	-11.7225
▁fir	-11.7228
▁waterproof	-11.723
▁determination	-11.7234
▁junior	-11.7234
▁fission	-11.7234
▁bearer	-11.7234
▁Arthur	-11.7234
▁spawn	-11.7235
▁Geo	-11.7237
▁Soil	-11.7243
▁rob	-11.7245
▁Anatomy	-11.7245
▁penta	-11.7246
▁Adults	-11.7248
▁lifting	-11.7248
Or	-11.7249
▁Kha	-11.7253
▁Village	-11.7254
▁temporarily	-11.7254
▁thirty	-11.7254
▁comparing	-11.7254
▁pellet	-11.7254
▁palsy	-11.7254
▁coordination	-11.7254
▁writers	-11.7254
▁Equi	-11.7258
▁Rice	-11.726
mental	-11.7261
▁Plains	-11.7262
▁Viral	-11.7262
▁ingest	-11.7262
▁proportional	-11.7264
▁accomplished	-11.7265
▁yellowish	-11.7265
▁Tin	-11.7266
poly	-11.7269
▁initiated	-11.727
▁Bangladesh	-11.7273
▁longitudinal	-11.7273
▁occupy	-11.7273
▁pleasure	-11.7273
▁rosemary	-11.7273
▁equate	-11.7273
▁illustration	-11.7275
▁Regional	-11.7275
▁Jen	-11.7275
▁Safe	-11.7281
▁Cass	-11.7283
▁columnar	-11.7283
▁goose	-11.7287
gne	-11.7288
world	-11.7288
GP	-11.7289
▁5-10	-11.729
▁ceremony	-11.7292
▁populous	-11.7292
▁advocate	-11.7292
▁aqueous	-11.7293
▁rhino	-11.7293
7.2	-11.7294
▁examined	-11.7296
immun	-11.7296
typical	-11.7298
▁mailing	-11.7298
▁pulling	-11.7299
FL	-11.7299
TOR	-11.7302
▁blast	-11.7302
chem	-11.7304
▁cookies	-11.7312
▁Knowledge	-11.7312
▁archipelago	-11.7312
▁Testing	-11.7314
▁minister	-11.7314
▁pastry	-11.7316
▁maid	-11.7317
▁Growth	-11.7317
▁obviously	-11.7317
▁cyto	-11.7319
▁$45,000	-11.7323
▁torn	-11.7323
▁climbing	-11.7327
UE	-11.733
▁Hz	-11.7331
carp	-11.7331
▁subsequently	-11.7331
▁Currency	-11.7332
▁disaster	-11.7332
▁ritual	-11.7332
▁incision	-11.7332
cop	-11.7333
▁Traditionally	-11.7333
▁trout	-11.7334
▁Zu	-11.7335
▁initiate	-11.7335
▁manic	-11.7339
▁verse	-11.7339
▁Lady	-11.7339
▁excreted	-11.734
▁downtown	-11.7343
▁3000	-11.7345
check	-11.7346
▁captured	-11.7346
▁sinuses	-11.7346
▁borrow	-11.7349
▁intravenous	-11.7351
▁appendix	-11.7351
▁Fan	-11.7351
▁Ltd	-11.7352
▁conviction	-11.7354
angle	-11.7356
▁fig	-11.7356
▁Charter	-11.7357
▁2014)	-11.7359
▁mint	-11.7361
▁Lot	-11.7363
ART	-11.7369
&#39;	-11.7371
itu	-11.7373
plastic	-11.7373
▁1977	-11.7375
chloro	-11.7376
UV	-11.7384
▁225	-11.7385
▁dun	-11.7386
▁glycol	-11.7387
▁actively	-11.7387
▁Carb	-11.7387
▁strongest	-11.7389
aq	-11.7389
▁chose	-11.739
▁Confederate	-11.739
▁Tissue	-11.739
▁internship	-11.7391
▁Display	-11.7391
▁capillary	-11.7391
▁Fiji	-11.7392
▁pressing	-11.7395
▁iOS	-11.7395
▁Leader	-11.7397
tropin	-11.74
▁deadline	-11.7401
▁achievement	-11.7402
▁Bus	-11.7402
▁flap	-11.7404
▁Individual	-11.7405
▁bail	-11.7405
▁Charge	-11.7407
6)	-11.7408
▁cooled	-11.741
▁licensure	-11.741
▁burrow	-11.7411
tube	-11.7411
▁prune	-11.7412
▁frog	-11.7413
▁guardian	-11.7416
▁mites	-11.742
3.2	-11.7421
▁payable	-11.7425
nat	-11.7425
ifera	-11.7425
plast	-11.7427
umble	-11.743
ctive	-11.743
▁analgesic	-11.743
▁philosopher	-11.743
▁niacin	-11.743
▁occipital	-11.743
▁statutory	-11.743
ocular	-11.7433
zole	-11.7434
▁$1,0	-11.7434
▁Stamp	-11.7434
note	-11.7436
▁pediatrician	-11.7437
▁seasoned	-11.7439
▁litre	-11.744
▁powdered	-11.744
▁chop	-11.7441
▁Ple	-11.7444
install	-11.7444
▁permitted	-11.7445
ennial	-11.7445
hur	-11.7447
release	-11.7447
DP	-11.7449
▁provision	-11.7449
▁warmth	-11.7449
▁allergen	-11.745
▁Clostridium	-11.745
▁lithosphere	-11.745
▁Gothic	-11.745
▁ignore	-11.745
▁governed	-11.745
▁remind	-11.7451
▁linguistic	-11.7452
▁DUI	-11.7454
▁Higher	-11.7458
▁Loa	-11.7461
fr	-11.7462
▁extensively	-11.7462
HP	-11.7468
▁essence	-11.747
▁Specifically	-11.7471
▁Had	-11.7471
▁binary	-11.7471
▁saute	-11.7471
CU	-11.7471
▁bald	-11.7472
through	-11.7474
▁Era	-11.7478
▁4.0	-11.7478
▁ALT	-11.7482
▁planner	-11.7483
bug	-11.7486
▁Extra	-11.7488
▁Quartz	-11.749
▁ancestry	-11.749
▁hydrophobic	-11.749
▁mollusk	-11.749
▁striking	-11.749
▁adipose	-11.749
▁Consumer	-11.749
▁monoxide	-11.749
▁organizational	-11.749
▁announce	-11.7493
▁cancerous	-11.7495
▁Aug	-11.7497
▁eco	-11.7497
▁enjoyed	-11.7497
rov	-11.7498
▁pleural	-11.7498
▁Ferr	-11.7498
▁joy	-11.75
▁Brad	-11.7502
gla	-11.7502
▁Congo	-11.7503
auto	-11.7503
▁Info	-11.7504
▁$500,000	-11.7504
▁busy	-11.7505
German	-11.7507
▁isotopes	-11.7509
▁Ethernet	-11.7509
▁autumn	-11.7509
▁creatine	-11.7509
▁fifteen	-11.7509
▁tsunami	-11.7509
▁variance	-11.7509
▁threatened	-11.751
▁supermarket	-11.751
▁ferment	-11.7513
▁charm	-11.7513
▁mash	-11.7518
660	-11.7519
▁grave	-11.7519
0.9	-11.752
nose	-11.7523
▁beak	-11.7524
▁porcelain	-11.7529
▁Wedding	-11.7529
▁Jews	-11.753
▁femur	-11.753
ige	-11.753
dog	-11.7531
DO	-11.7532
ouch	-11.7533
▁Senator	-11.7535
▁husk	-11.7535
▁regulator	-11.7538
seal	-11.754
▁electrolytes	-11.7543
data	-11.7543
fast	-11.7545
there	-11.7545
iah	-11.7546
▁(0.00	-11.7547
əl	-11.7547
mix	-11.7548
▁norepinephrine	-11.7549
▁computing	-11.7549
▁61	-11.7549
▁Hourly	-11.7549
▁testicle	-11.755
rush	-11.755
▁balloon	-11.755
▁innervate	-11.7551
▁deli	-11.7551
hou	-11.7552
value	-11.7552
▁Give	-11.7561
▁eliminated	-11.7568
affe	-11.7568
facing	-11.7568
▁spoil	-11.7569
▁collision	-11.7569
▁raccoon	-11.7569
▁uncomfortable	-11.7569
▁Culture	-11.7569
▁architectural	-11.757
▁Helen	-11.7571
▁($2	-11.7573
▁broadly	-11.7574
▁molar	-11.7576
▁suspected	-11.7576
▁6-8	-11.7578
▁Endo	-11.7578
▁Miss	-11.758
▁Larger	-11.7584
▁Synonyms	-11.7584
▁inhabited	-11.7588
▁HP	-11.7588
▁sprout	-11.7588
▁Exercise	-11.759
▁council	-11.759
▁efferent	-11.759
▁explosion	-11.759
▁Member	-11.759
▁sterile	-11.759
▁Madison	-11.759
▁vac	-11.7592
▁chrom	-11.7592
▁clad	-11.7593
ege	-11.7595
▁Smart	-11.7596
▁Brush	-11.7596
▁align	-11.7596
wort	-11.7596
▁bun	-11.7597
▁Develop	-11.7597
▁Mau	-11.7598
▁Francis	-11.76
▁ants	-11.7601
zel	-11.7602
▁immuno	-11.7604
glucose	-11.7607
solving	-11.7609
▁disadvantage	-11.761
▁disaccharide	-11.761
▁cliff	-11.7611
▁Pepper	-11.7612
▁ISO	-11.7612
▁1947	-11.7614
▁Individuals	-11.7615
▁franc	-11.7619
▁Track	-11.7621
▁frying	-11.7624
▁tit	-11.7627
▁Graduate	-11.763
▁dormant	-11.763
▁bronze	-11.763
ience	-11.763
▁confusing	-11.763
ego	-11.7631
▁Sear	-11.7632
▁Fur	-11.7633
▁precious	-11.7634
▁Derma	-11.7635
▁clue	-11.7635
1.6	-11.7636
MV	-11.7639
▁transcript	-11.764
lase	-11.7642
▁Damage	-11.7644
chron	-11.7646
▁adv	-11.7648
▁adolescents	-11.7648
▁atherosclerosis	-11.765
▁geothermal	-11.765
▁intrinsic	-11.765
▁mathematical	-11.765
▁sphincter	-11.765
▁Third	-11.765
charge	-11.7652
▁76	-11.7656
▁365	-11.7656
▁50,000	-11.7663
▁whereby	-11.7667
AND	-11.7667
▁projected	-11.7668
▁Send	-11.7668
▁Pot	-11.7668
yellow	-11.7669
▁Mont	-11.767
▁consecutive	-11.767
▁isotope	-11.7671
▁Nan	-11.7671
▁lumen	-11.7672
▁pathology	-11.7674
▁odorless	-11.7674
▁specially	-11.7675
SU	-11.7679
▁Nation	-11.768
▁reject	-11.7683
▁Arabia	-11.7686
blo	-11.7688
oderm	-11.769
▁Watson	-11.7691
▁Properties	-11.7691
▁Dys	-11.7691
▁marsh	-11.7692
dwelling	-11.7692
▁occasional	-11.7693
▁Mariana	-11.7694
▁accessory	-11.7694
▁colitis	-11.7695
cake	-11.7696
▁terrain	-11.7696
▁Butter	-11.7698
▁Original	-11.7698
▁literal	-11.7698
▁telling	-11.7698
chu	-11.7699
▁cloudy	-11.77
▁dominated	-11.77
▁distilled	-11.7701
▁cult	-11.7701
▁Route	-11.7701
▁Cad	-11.7702
▁hunter	-11.7704
▁Meats	-11.7704
▁1.8	-11.7705
ulating	-11.7705
rophy	-11.7706
BLS	-11.7709
▁substantially	-11.771
▁Adams	-11.7711
▁Thi	-11.7711
▁immigrate	-11.7711
▁stratosphere	-11.7711
▁immunoglobulin	-11.7711
▁specification	-11.7712
▁Saudi	-11.7712
▁tent	-11.7712
▁fecal	-11.7712
▁triglyceride	-11.7712
▁blister	-11.7713
micro	-11.7715
▁Mode	-11.7717
▁1955	-11.7717
▁Rich	-11.7717
▁jacket	-11.7719
▁Fig	-11.7724
▁$250,000	-11.7726
▁71	-11.7727
▁engaged	-11.773
▁Kreati	-11.7731
▁cholera	-11.7731
▁1948	-11.7736
▁Foot	-11.774
rata	-11.7743
▁bunch	-11.7744
▁peat	-11.7751
▁gametophyte	-11.7752
▁brood	-11.7752
▁railroad	-11.7752
egg	-11.7753
▁ureter	-11.7754
▁Rosa	-11.7756
▁lightweight	-11.7758
▁happening	-11.7758
–3	-11.7761
may	-11.7765
▁tracking	-11.7765
▁arrange	-11.777
▁captivity	-11.7772
▁disposal	-11.7772
[...]
