<unk>	0
<s>	0
</s>	0
▁the	-3.25132
,	-3.33437
.	-3.49679
▁	-3.64632
s	-3.72375
▁of	-3.77677
▁and	-4.01866
▁in	-4.13736
▁==	-4.31484
ed	-4.36048
▁a	-4.41341
▁to	-4.51488
ing	-4.66783
▁was	-4.82754
▁The	-4.87292
d	-4.9963
-	-5.0403
▁is	-5.19253
▁for	-5.31773
▁on	-5.36625
▁(	-5.38669
e	-5.3928
'	-5.39895
▁with	-5.39948
y	-5.40337
▁as	-5.43614
▁by	-5.44454
)	-5.46462
▁at	-5.51639
▁===	-5.54988
ly	-5.62101
▁from	-5.80009
▁"	-5.8562
:	-5.86529
▁A	-5.86631
▁be	-5.92919
▁that	-5.98445
▁an	-6.00416
n	-6.01535
al	-6.0271
▁E	-6.0511
a	-6.11121
er	-6.13728
t	-6.14466
▁his	-6.14495
▁In	-6.17551
were	-6.24766
"	-6.27403
▁it	-6.29675
▁first	-6.31072
▁which	-6.32105
o	-6.33271
▁he	-6.36396
▁R	-6.36546
an	-6.3796
th	-6.38782
▁F	-6.44943
also	-6.47092
▁Reference	-6.481
ir	-6.49146
▁are	-6.5082
▁C	-6.51981
▁S	-6.53031
▁He	-6.5883
▁New	-6.63643
▁or	-6.64624
r	-6.65632
▁It	-6.66246
▁one	-6.66439
in	-6.66773
▁who	-6.67685
;	-6.69417
es	-6.69887
▁its	-6.70243
–	-6.70753
en	-6.7258
st	-6.72627
▁B	-6.75586
on	-6.75801
▁T	-6.78423
h	-6.8065
l	-6.8292
▁two	-6.84883
i	-6.84931
▁ha	-6.85708
).	-6.89807
or	-6.90804
▁P	-6.9639
had	-6.97698
▁On	-6.99032
▁t	-7.02017
at	-7.04829
c	-7.0531
▁U	-7.0537
▁c	-7.06878
me	-7.08
▁her	-7.08558
▁River	-7.08936
▁K	-7.09381
▁United	-7.11317
ion	-7.11367
▁M	-7.12615
▁H	-7.1283
▁hav	-7.12896
▁re	-7.12948
▁League	-7.13389
▁other	-7.14727
▁but	-7.15685
m	-7.16086
▁D	-7.17119
▁coli	-7.17805
▁links	-7.17848
%	-7.17891
▁German	-7.17906
▁after	-7.1823
".	-7.19267
▁I	-7.1929
▁under	-7.19395
le	-7.19589
▁She	-7.2037
▁Ellsworth	-7.20477
▁season	-7.20724
▁f	-7.21065
A	-7.21964
▁this	-7.22707
has	-7.23381
▁more	-7.23428
▁American	-7.23464
▁1	-7.23672
▁work	-7.23705
▁not	-7.23757
▁s	-7.23945
▁St	-7.24914
xternal	-7.25143
▁part	-7.25645
The	-7.25815
ember	-7.27853
▁d	-7.28492
▁includ	-7.29274
▁over	-7.30327
to	-7.30336
▁new	-7.30741
▁years	-7.30887
/	-7.31631
▁b	-7.31856
▁number	-7.32567
▁later	-7.32818
▁m	-7.34224
ian	-7.35142
▁fashion	-7.35361
▁through	-7.35384
▁States	-7.36843
ce	-7.37451
k	-7.37926
▁2	-7.38298
▁time	-7.38615
▁County	-7.40906
▁known	-7.41107
▁all	-7.41793
▁state	-7.42588
ies	-7.42995
▁un	-7.43654
▁York	-7.43839
▁three	-7.43874
S	-7.44598
▁song	-7.45016
▁law	-7.45249
▁beca	-7.45602
▁Re	-7.45933
ic	-7.46641
▁up	-7.46806
▁N	-7.46938
ity	-7.47518
F	-7.48208
ve	-7.4922
▁second	-7.49996
▁May	-7.50578
able	-7.51053
▁w	-7.51612
▁L	-7.51938
▁than	-7.52627
▁made	-7.53559
▁played	-7.53606
▁when	-7.53797
▁State	-7.54707
▁Ma	-7.54967
ary	-7.55171
▁G	-7.55641
out	-7.5571
▁J	-7.56626
▁National	-7.56693
ation	-7.58491
▁O	-7.58685
us	-7.59029
▁only	-7.59239
▁football	-7.59898
&	-7.59984
▁John	-7.60119
ish	-7.60266
▁de	-7.61211
▁18	-7.61477
▁se	-7.61587
▁W	-7.62078
uring	-7.62695
B	-7.63225
re	-7.63537
▁Division	-7.63559
▁Thi	-7.65222
ould	-7.65654
ril	-7.66323
ng	-7.66711
▁5	-7.67155
▁Canada	-7.67351
M	-7.67643
▁km	-7.67843
ist	-7.67891
▁4	-7.67999
ar	-7.68142
▁four	-7.6838
▁system	-7.69133
ive	-7.69415
▁co	-7.69455
▁film	-7.70072
f	-7.70094
▁area	-7.70302
ry	-7.70853
▁gambling	-7.7111
▁country	-7.7111
▁established	-7.71129
▁home	-7.71244
▁Kieran	-7.71246
▁January	-7.71247
▁English	-7.71673
se	-7.72476
▁p	-7.73582
▁there	-7.75029
▁Music	-7.75108
▁again	-7.7511
▁History	-7.75116
▁career	-7.75128
▁some	-7.75196
▁June	-7.75214
▁found	-7.7592
is	-7.75995
▁end	-7.76012
man	-7.76088
▁most	-7.76141
p	-7.76249
▁As	-7.76677
▁follow	-7.77297
▁record	-7.77316
▁club	-7.77478
▁she	-7.77698
▁2017	-7.77765
▁bet	-7.78407
▁Ap	-7.78822
▁University	-7.79281
▁music	-7.79329
▁Sep	-7.79355
▁betting	-7.7937
▁Cup	-7.79397
▁while	-7.79431
▁station	-7.7946
▁City	-7.79468
▁both	-7.79587
▁no	-7.7975
▁earl	-7.79846
▁con	-7.80043
▁can	-7.80103
▁member	-7.81033
▁us	-7.81463
ts	-7.82608
▁l	-7.83606
▁Company	-7.83623
▁such	-7.83629
▁where	-7.8365
▁history	-7.83887
▁family	-7.83944
▁general	-7.84057
▁An	-7.84104
tember	-7.84496
C	-7.85725
fter	-7.85805
▁12	-7.85925
g	-7.86109
▁Co	-7.86146
▁place	-7.86309
▁3	-7.86557
▁form	-7.8682
▁th	-7.87137
ch	-7.87178
▁10	-7.87637
SR	-7.87903
ia	-7.88025
▁Lake	-7.88182
▁Union	-7.88204
▁online	-7.8827
▁War	-7.88394
▁Dec	-7.88575
▁former	-7.88654
▁along	-7.88677
▁No	-7.88948
▁north	-7.89035
▁then	-7.8912
▁call	-7.89797
te	-7.89818
▁used	-7.89826
u	-7.90303
▁20	-7.90622
tion	-7.90631
▁out	-7.90755
0	-7.91589
D	-7.91876
ween	-7.92543
▁al	-7.9257
▁large	-7.92707
▁Melaka	-7.92927
▁located	-7.92932
▁reduction	-7.92945
▁Santa	-7.92954
Waterton	-7.93022
▁Bain	-7.93099
I	-7.93296
▁name	-7.93644
ur	-7.93699
▁De	-7.93808
▁See	-7.93974
2	-7.94259
▁include	-7.9438
ame	-7.95499
many	-7.95633
the	-7.96904
▁south	-7.97171
▁Ro	-7.97798
z	-7.9783
▁California	-7.97927
▁Muskegon	-7.97927
▁Nov	-7.97949
▁river	-7.97951
▁children	-7.98096
each	-7.98224
▁Missions	-7.98294
into	-7.98391
."	-7.98897
up	-7.98994
▁present	-7.99304
▁Th	-7.99445
▁Ju	-7.99922
▁Ho	-8.01725
ers	-8.02143
▁ab	-8.02179
as	-8.0252
2)	-8.02601
▁year	-8.02738
▁Ballerini	-8.0319
▁result	-8.03214
▁World	-8.03362
▁Station	-8.03553
▁Be	-8.03592
▁city	-8.03657
N	-8.03849
▁North	-8.03859
el	-8.04049
et	-8.04075
▁For	-8.04216
nd	-8.06246
veral	-8.06805
ical	-8.06948
▁age	-8.07007
▁team	-8.07103
▁long	-8.07233
very	-8.07563
b	-8.07967
▁mi	-8.08508
▁Michigan	-8.08746
▁October	-8.08746
▁Sheriff	-8.08746
ck	-8.08881
ent	-8.08886
▁KKAM	-8.08921
▁Comberti	-8.08927
▁website	-8.08934
ern	-8.09336
▁line	-8.09851
▁There	-8.09981
▁7	-8.10023
▁states	-8.12242
nt	-8.12381
▁strain	-8.13312
▁8	-8.13779
▁so	-8.14296
!	-8.14628
ć	-8.14628
▁Education	-8.14628
▁International	-8.14675
▁consider	-8.14765
▁open	-8.14787
▁Home	-8.14803
▁built	-8.14812
▁August	-8.14815
▁Football	-8.14819
▁Law	-8.14836
▁well	-8.15308
▁Mi	-8.1631
age	-8.1639
▁six	-8.16578
▁direct	-8.16971
▁You	-8.17009
E	-8.17845
3	-8.18641
▁15	-8.18749
▁Gar	-8.19172
▁born	-8.19189
w	-8.19208
one	-8.19281
▁school	-8.19557
▁19	-8.20142
ine	-8.20445
ill	-8.20812
▁game	-8.2085
▁mother	-8.20987
▁2020	-8.21032
▁Maine	-8.21039
▁him	-8.21042
▁third	-8.21127
▁major	-8.21182
▁fin	-8.21257
▁Clemmensen	-8.21312
▁published	-8.21384
▁legal	-8.21472
▁event	-8.21564
▁17	-8.2202
▁====	-8.22116
▁2012	-8.22254
land	-8.22327
um	-8.22578
▁radi	-8.22916
▁national	-8.2305
il	-8.23098
▁high	-8.23403
side	-8.23903
ter	-8.24019
ut	-8.2437
▁di	-8.24524
▁Civi	-8.24533
▁main	-8.25141
other	-8.25522
▁sports	-8.27432
▁Dundee	-8.27545
▁receive	-8.27545
▁School	-8.27545
▁Department	-8.27545
Undang	-8.27562
▁county	-8.27602
▁local	-8.27663
▁current	-8.27688
ty	-8.27801
▁List	-8.27864
▁boards	-8.27929
▁chair	-8.28023
▁Park	-8.28048
▁South	-8.28049
▁Indian	-8.28184
▁All	-8.28239
ra	-8.28243
▁Le	-8.28486
▁Pa	-8.28733
▁books	-8.29306
▁25	-8.30482
▁dis	-8.31094
▁2,	-8.31155
ther	-8.31174
▁them	-8.31354
▁business	-8.31479
▁ft	-8.31638
▁9	-8.32315
▁mission	-8.32624
▁group	-8.32732
▁show	-8.32863
ted	-8.33113
▁2019	-8.33123
▁point	-8.33192
T	-8.33445
▁week	-8.33596
ball	-8.3364
est	-8.3365
ous	-8.33671
▁road	-8.34285
1	-8.34537
—	-8.34688
▁Clarita	-8.34688
▁Fashion	-8.34688
▁Podbrezová	-8.34688
▁video	-8.34688
▁Country	-8.34689
▁community	-8.34693
▁study	-8.34698
▁remain	-8.34704
▁since	-8.34708
▁may	-8.34774
▁Eminem	-8.34904
▁Second	-8.34904
▁language	-8.34912
▁appear	-8.34934
▁round	-8.34989
▁g	-8.35036
▁Game	-8.35071
oyal	-8.35135
ated	-8.35204
▁Marc	-8.35269
▁bookmakers	-8.35373
▁Hiralal	-8.35724
▁died	-8.36
am	-8.36327
▁Brit	-8.36574
▁start	-8.36896
▁Concert	-8.37007
til	-8.37123
▁strains	-8.37134
00	-8.37733
▁en	-8.37862
In	-8.38838
ne	-8.39439
and	-8.39574
▁2016	-8.40054
▁title	-8.40138
ment	-8.40206
▁2018	-8.40408
▁chart	-8.40674
▁base	-8.40759
owever	-8.4087
▁book	-8.41207
tory	-8.41736
-12	-8.4196
▁Ordinance	-8.4238
▁council	-8.4238
▁deconstruction	-8.4238
▁Scott	-8.4238
▁population	-8.4238
▁world	-8.42381
▁Kingdom	-8.42384
▁staff	-8.42387
▁small	-8.42388
▁various	-8.42407
▁official	-8.42415
▁1990	-8.42417
▁influence	-8.42455
▁single	-8.42465
▁Malaysia	-8.42465
▁1980	-8.4249
▁host	-8.42505
▁US	-8.42548
moved	-8.42576
▁Some	-8.42583
▁building	-8.42603
▁Powell	-8.42614
▁organization	-8.42651
▁last	-8.42679
▁Har	-8.42711
gan	-8.43055
▁26	-8.43145
ized	-8.43436
▁just	-8.43868
ad	-8.4392
▁Bo	-8.44354
▁i	-8.4438
▁2022	-8.44418
▁West	-8.45098
njam	-8.45137
ten	-8.45251
▁these	-8.45616
it	-8.46635
uary	-8.46712
na	-8.47223
▁6	-8.47288
ship	-8.47504
▁members	-8.47817
▁model	-8.48689
ought	-8.48758
▁player	-8.48786
ence	-8.4942
non	-8.49845
ried	-8.50097
▁America	-8.50165
▁design	-8.50369
ility	-8.5048
▁2014	-8.50551
▁philosoph	-8.50713
▁people	-8.50713
▁Cambridge	-8.50713
▁Street	-8.50713
▁French	-8.50714
▁Grenada	-8.50731
▁lake	-8.50744
▁Oza	-8.50775
▁Road	-8.50778
▁join	-8.50781
8	-8.50878
▁century	-8.51277
ok	-8.51341
▁allow	-8.51374
▁order	-8.51378
▁His	-8.5142
▁pass	-8.5144
▁continue	-8.51443
▁Han	-8.51474
▁Radio	-8.51626
▁committee	-8.52006
▁Comput	-8.52019
▁grant	-8.52108
▁16	-8.52147
ting	-8.52891
▁n	-8.53261
▁2007	-8.53546
▁h	-8.53953
▁win	-8.54153
ability	-8.54211
P	-8.54626
ose	-8.54706
▁add	-8.54813
ate	-8.55161
7	-8.55319
com	-8.56574
les	-8.57428
▁program	-8.57609
▁pro	-8.57692
finished	-8.5785
▁perform	-8.58142
▁11	-8.58379
▁Pi	-8.58632
▁Council	-8.5882
▁mar	-8.58827
K	-8.59486
▁head	-8.59583
▁do	-8.59637
▁politic	-8.59752
▁30	-8.59759
GISAD	-8.59804
▁Commission	-8.59804
▁available	-8.59804
▁“	-8.59804
▁life	-8.59807
▁Australia	-8.59808
▁Martin	-8.59808
▁Block	-8.5981
Headlights	-8.59811
▁government	-8.59818
▁box	-8.5982
▁Club	-8.59825
▁Women	-8.59826
▁addition	-8.59838
▁e	-8.59915
gue	-8.59942
▁will	-8.59967
▁sign	-8.59977
▁near	-8.60029
▁V	-8.60048
▁make	-8.60058
▁down	-8.60102
▁attend	-8.60133
▁common	-8.60155
▁Asian	-8.60164
▁Europe	-8.60174
▁2023	-8.60178
▁average	-8.60196
▁become	-8.60271
rí	-8.60417
▁services	-8.60671
▁position	-8.60678
▁need	-8.60761
▁use	-8.60803
▁Ba	-8.60872
tal	-8.60882
▁own	-8.60916
▁pen	-8.6092
intellectual	-8.60951
▁features	-8.60981
▁final	-8.61168
day	-8.61328
▁top	-8.6171
▁/	-8.61725
▁cars	-8.61738
ook	-8.61872
red	-8.61986
▁Pu	-8.62165
▁groups	-8.62384
now	-8.62565
tic	-8.62596
our	-8.6262
▁By	-8.62643
▁Act	-8.62851
▁car	-8.63133
▁st	-8.63515
▁land	-8.63614
▁Sol	-8.63659
remier	-8.64125
▁Ha	-8.64178
de	-8.64287
fore	-8.64894
▁Bar	-8.64897
▁offer	-8.65174
born	-8.65383
ver	-8.65418
▁lo	-8.65442
hip	-8.65464
den	-8.65701
ant	-8.65933
▁Dam	-8.65954
G	-8.66094
▁Na	-8.66169
▁side	-8.66521
▁unit	-8.66871
round	-8.66889
▁off	-8.66995
▁Bas	-8.67034
▁structure	-8.676
▁du	-8.67693
▁performance	-8.67757
ton	-8.68693
▁CNN	-8.68982
▁Daniel	-8.69092
▁Scouts	-8.69323
pp	-8.69442
▁Court	-8.69798
▁Cincinnati	-8.69804
▁Egypt	-8.69804
▁Movement	-8.69804
▁Personal	-8.69804
▁London	-8.69805
▁different	-8.6981
▁describe	-8.69812
▁competition	-8.6982
▁James	-8.69826
▁Valley	-8.6983
▁George	-8.69877
▁1946	-8.69888
▁students	-8.69939
▁extend	-8.69946
5	-8.69995
▁species	-8.70019
▁women	-8.70091
▁Slovak	-8.70092
▁Texas	-8.70092
▁screen	-8.70097
▁rules	-8.70168
▁represented	-8.70231
▁East	-8.70323
▁market	-8.70373
▁site	-8.70492
▁introduced	-8.70595
ebr	-8.70819
named	-8.7086
▁wide	-8.71028
der	-8.71113
▁west	-8.71242
▁Ed	-8.7128
old	-8.71384
▁Awards	-8.71401
ank	-8.71656
▁due	-8.71697
▁Germany	-8.7173
▁peak	-8.71865
▁sub	-8.72009
V	-8.72069
▁list	-8.72081
ior	-8.72138
▁Not	-8.72592
▁games	-8.73008
▁take	-8.73549
6	-8.74116
▁separate	-8.74262
▁Se	-8.74354
▁post	-8.74365
served	-8.7526
▁films	-8.75305
▁At	-8.75523
▁man	-8.75535
▁bets	-8.75626
▁formal	-8.75691
cadem	-8.75714
ength	-8.76307
5,	-8.76383
U	-8.77109
back	-8.77225
mile	-8.77375
cial	-8.77378
”	-8.77891
▁2021	-8.78329
▁2010	-8.78345
▁pre	-8.7861
28	-8.78744
▁league	-8.78884
long	-8.78921
▁settle	-8.79058
▁Al	-8.79079
▁Boy	-8.79594
▁Jo	-8.79647
ker	-8.79687
▁Br	-8.79725
▁mil	-8.80117
▁set	-8.80276
▁far	-8.80479
co	-8.80572
ure	-8.80625
▁Island	-8.80739
а	-8.80915
’	-8.80915
▁Branscomb	-8.80915
▁Creek	-8.80915
▁attempt	-8.80915
▁Adams	-8.80916
▁Museum	-8.80916
▁General	-8.80916
▁Spanish	-8.80916
▁reaction	-8.80918
▁activities	-8.80918
▁particular	-8.80919
▁Record	-8.80921
▁Penang	-8.80925
▁white	-8.80929
▁Federation	-8.8093
▁Assembly	-8.80933
▁extra	-8.80933
▁Two	-8.80942
▁series	-8.80957
▁computer	-8.80982
▁above	-8.80984
▁however	-8.8101
▁store	-8.81013
▁College	-8.81032
▁Art	-8.81053
▁France	-8.81063
▁type	-8.81078
▁interest	-8.81195
▁Deconstruction	-8.81241
▁Foundation	-8.81248
▁enter	-8.81257
▁spots	-8.81289
▁Iran	-8.8136
▁idea	-8.81386
▁education	-8.81429
▁(2	-8.8156
een	-8.81618
▁Pacific	-8.81668
▁elect	-8.81702
election	-8.81731
ld	-8.81819
▁full	-8.82313
▁Player	-8.82315
▁east	-8.82319
▁bee	-8.82619
ext	-8.82853
erre	-8.82904
deconstructivism	-8.82962
▁1,	-8.8312
▁Ital	-8.83225
aught	-8.83267
ded	-8.83582
▁2011	-8.83998
▁men	-8.84508
▁Malay	-8.84605
▁schools	-8.84614
▁-	-8.84649
▁give	-8.84685
id	-8.84792
▁Steve	-8.84905
econstructivism	-8.84929
▁produce	-8.85019
ew	-8.85051
▁son	-8.85065
▁teams	-8.8507
x	-8.85923
▁La	-8.85978
▁go	-8.86418
▁reduc	-8.86483
▁clubs	-8.86488
▁liv	-8.8654
▁get	-8.86766
▁2008	-8.86855
ance	-8.86948
▁publish	-8.86983
ga	-8.87085
▁run	-8.87328
4	-8.87381
led	-8.87454
▁serve	-8.87702
▁(19	-8.87971
wing	-8.88247
9	-8.8825
ock	-8.88961
▁consist	-8.89732
▁possib	-8.8974
head	-8.89878
year	-8.89891
roduction	-8.90452
R	-8.90606
all	-8.91031
efore	-8.91044
▁female	-8.91228
▁am	-8.91257
▁character	-8.91299
▁186	-8.91339
▁2003	-8.91354
▁album	-8.91368
ever	-8.91601
▁water	-8.91611
blo	-8.91745
▁r	-8.91818
more	-8.91911
tres	-8.92015
▁play	-8.92131
-19	-8.92207
way	-8.92325
▁India	-8.9236
▁race	-8.92365
lin	-8.92406
ities	-8.9242
▁2005	-8.92579
irst	-8.9264
▁Canad	-8.93109
▁original	-8.93319
▁princip	-8.93415
▁Collamore	-8.93415
▁Escherich	-8.93415
▁Laboratory	-8.93415
▁Massachusetts	-8.93415
▁Settlement	-8.93415
▁public	-8.93415
▁believe	-8.93415
▁surface	-8.93416
▁Canyon	-8.93416
▁Current	-8.93416
▁Bosnia	-8.93417
▁period	-8.93417
▁odds	-8.93417
▁Michael	-8.93417
▁Ruess	-8.93418
▁Pepper	-8.93419
▁wife	-8.93419
▁modern	-8.93421
▁racing	-8.93425
▁much	-8.93427
▁highway	-8.93437
▁annual	-8.93442
▁said	-8.93445
▁tradition	-8.93447
▁patrol	-8.93452
▁father	-8.93458
▁singer	-8.9346
▁1977	-8.93465
▁drive	-8.93466
▁regard	-8.9348
▁Further	-8.9349
▁Grand	-8.935
▁route	-8.93524
▁Historic	-8.93525
▁class	-8.93536
▁1920	-8.93537
▁natural	-8.93619
▁settlement	-8.9362
▁2009	-8.93688
▁information	-8.93708
▁Way	-8.93719
▁Sports	-8.93753
▁II	-8.93762
ory	-8.93771
▁Chinnappa	-8.93772
▁Black	-8.93773
▁contain	-8.93797
▁professional	-8.93805
▁actor	-8.93825
▁summer	-8.93827
▁court	-8.9384
▁bas	-8.93904
▁boy	-8.93906
▁section	-8.93925
▁Sen	-8.93933
ley	-8.93934
▁studies	-8.93966
▁Man	-8.93972
▁Code	-8.94101
▁mill	-8.94128
Great	-8.94146
▁every	-8.94169
▁Russian	-8.94266
▁Me	-8.94286
▁writing	-8.94354
▁representatives	-8.94385
▁ex	-8.9444
▁Ca	-8.94673
▁boat	-8.94706
▁close	-8.94763
▁power	-8.9478
▁hold	-8.94857
▁media	-8.94901
wards	-8.9494
▁election	-8.94976
▁turn	-8.95127
bert	-8.95143
▁Col	-8.95152
cal	-8.95188
▁late	-8.9523
▁Davis	-8.95282
▁less	-8.95624
▁Out	-8.95759
▁San	-8.9579
▁best	-8.96051
▁Inf	-8.96112
ful	-8.96234
▁Senat	-8.96271
▁Si	-8.96805
▁185	-8.96814
ional	-8.96854
nes	-8.97303
▁back	-8.97825
▁(3	-8.97951
▁train	-8.98284
▁young	-8.984
ma	-8.98494
▁ga	-8.98812
▁involv	-8.99215
▁Bry	-8.99273
od	-8.99659
▁sim	-8.99901
▁connect	-9.009
▁los	-9.00982
▁Wh	-9.01009
▁And	-9.01013
mental	-9.01178
son	-9.01871
om	-9.01926
▁laws	-9.02117
▁release	-9.02144
table	-9.02382
ally	-9.02492
▁lea	-9.02546
▁31	-9.02623
▁ne	-9.02917
▁works	-9.03013
▁Inter	-9.03065
▁special	-9.03138
O	-9.03281
weight	-9.0339
ong	-9.03465
▁news	-9.03631
field	-9.03869
board	-9.03885
ow	-9.04085
most	-9.0416
▁short	-9.04794
ide	-9.05013
ko	-9.0515
ard	-9.05237
▁district	-9.05343
▁edition	-9.05374
▁daughter	-9.055
▁29	-9.05514
▁role	-9.05623
▁Ki	-9.05735
anda	-9.05871
▁course	-9.05925
▁Award	-9.05963
▁Class	-9.06112
rding	-9.06241
á	-9.06351
▁process	-9.06501
▁ma	-9.0675
▁super	-9.07009
ol	-9.07011
hall	-9.07017
▁(1	-9.07155
▁Di	-9.07343
▁research	-9.07365
▁Bill	-9.0741
▁Asia	-9.07516
▁appoint	-9.07675
▁Port	-9.07679
hibition	-9.07701
▁Association	-9.07701
▁Herzegovina	-9.07701
▁Intellect	-9.07701
▁Stooges	-9.07701
▁William	-9.07701
▁costume	-9.07701
▁environment	-9.07701
▁plebeius	-9.07701
▁ketones	-9.07701
▁sponsor	-9.07701
▁Network	-9.07702
▁countries	-9.07702
▁horse	-9.07702
▁Boulder	-9.07703
▁distinct	-9.07704
▁Flag	-9.07705
▁corner	-9.07707
▁television	-9.07707
▁prominen	-9.07709
▁latter	-9.0771
▁beginning	-9.07711
▁bridge	-9.07714
▁left	-9.07714
▁lead	-9.07715
▁death	-9.07716
▁development	-9.07721
▁help	-9.07723
▁element	-9.07724
▁Director	-9.07726
▁Tech	-9.07726
▁department	-9.07727
▁Ex	-9.07729
-93	-9.07731
▁divide	-9.07734
▁Society	-9.07738
▁Charter	-9.07749
▁Three	-9.07756
▁Media	-9.07758
▁foreign	-9.07774
▁developed	-9.07798
▁accord	-9.07804
▁method	-9.07804
▁missionary	-9.07848
▁Fift	-9.07866
▁Other	-9.07872
▁Ainmanes	-9.07889
lav	-9.07889
▁branch	-9.07899
▁Senses	-9.07899
▁Reg	-9.07931
▁size	-9.07939
▁production	-9.07942
▁speed	-9.07952
▁Institute	-9.07956
▁disk	-9.07967
▁director	-9.07983
▁1940	-9.07983
▁mind	-9.0801
▁style	-9.08023
▁Hall	-9.08032
▁2002	-9.08042
▁together	-9.08068
▁nitrous	-9.08107
▁proteins	-9.08107
▁put	-9.0811
▁Ni	-9.08222
▁fall	-9.08237
J	-9.08323
▁Hill	-9.08354
▁Islander	-9.08375
▁sold	-9.08376
▁larger	-9.08412
▁right	-9.08419
▁Catalan	-9.08422
▁z	-9.08553
▁debuted	-9.08615
▁writ	-9.08636
▁TV	-9.08788
▁beg	-9.08926
92	-9.08976
▁eight	-9.09026
▁Notes	-9.09054
▁regular	-9.09188
▁int	-9.0924
▁Mar	-9.09283
im	-9.0974
IS	-9.09744
▁any	-9.09845
▁runs	-9.10006
▁Ku	-9.10182
▁Pan	-9.1057
▁units	-9.10692
lso	-9.10752
ft	-9.109
▁zin	-9.11158
my	-9.11676
▁points	-9.11683
▁45	-9.11724
▁wa	-9.11922
▁Gold	-9.12091
▁material	-9.12209
ors	-9.12244
▁Cap	-9.12616
arch	-9.12663
band	-9.12744
▁Fa	-9.12781
▁previous	-9.12821
▁So	-9.12893
ig	-9.12945
ily	-9.12979
▁return	-9.13206
pa	-9.13308
ha	-9.13311
if	-9.13408
ya	-9.1383
▁Los	-9.13992
▁pa	-9.14064
ternational	-9.14152
▁forms	-9.14176
▁Li	-9.14281
▁Hol	-9.14318
ke	-9.14329
gree	-9.14347
act	-9.14449
▁Ra	-9.1445
▁13	-9.14695
▁Rou	-9.14789
low	-9.14825
mes	-9.15206
▁Ant	-9.15524
▁14	-9.15667
▁1941	-9.16256
di	-9.16298
▁Nat	-9.1643
ector	-9.16466
line	-9.16649
▁Bre	-9.16831
cause	-9.16979
▁dr	-9.17149
▁come	-9.17262
▁Jul	-9.17601
▁champion	-9.17877
▁Lu	-9.17887
▁pr	-9.18325
▁Strai	-9.18389
sh	-9.18641
rd	-9.18714
▁inter	-9.18781
▁Chi	-9.18827
▁Ring	-9.19121
ti	-9.19421
▁9,	-9.19618
10	-9.19779
▁Da	-9.19835
rs	-9.20273
nja	-9.20748
ey	-9.21031
though	-9.2112
cy	-9.21136
▁hum	-9.21145
town	-9.21161
▁'	-9.21173
▁fi	-9.21296
▁mark	-9.21379
▁promote	-9.21416
▁Film	-9.21445
▁others	-9.21548
▁ear	-9.21582
▁Time	-9.22143
▁term	-9.22151
▁transfer	-9.22157
▁Gol	-9.22173
▁household	-9.2231
ult	-9.22322
▁seven	-9.22343
▁3,	-9.22423
4)	-9.22457
▁2013	-9.22465
▁goal	-9.22516
▁1340	-9.22638
▁80	-9.22832
▁dam	-9.22852
▁continu	-9.22903
▁produc	-9.22959
▁(16	-9.22965
ves	-9.23044
▁debut	-9.23324
▁hand	-9.23776
▁cover	-9.23911
50	-9.24032
dy	-9.24076
lower	-9.241
▁Water	-9.24156
▁popular	-9.24309
berg	-9.24312
▁Prince	-9.24315
▁black	-9.24318
▁High	-9.24356
]	-9.24368
▁Cardona	-9.24368
▁Committee	-9.24368
▁Doubleday	-9.24368
▁Kentucky	-9.24368
▁Lubbock	-9.24368
▁Public	-9.24368
▁Steenbeekdries	-9.24368
▁Tropic	-9.24368
▁deposit	-9.24368
▁significant	-9.24368
▁Christmas	-9.24368
▁England	-9.24368
▁eligib	-9.24368
▁Disney	-9.24368
▁support	-9.24368
▁Prayer	-9.24368
▁depth	-9.24368
▁multi	-9.24369
▁Joseph	-9.24369
▁Justice	-9.2437
▁Biblio	-9.24371
▁District	-9.24371
▁Design	-9.24372
▁federations	-9.24372
▁agencies	-9.24373
▁network	-9.24374
▁situat	-9.24375
▁destroye	-9.24376
▁project	-9.24376
▁interview	-9.24386
▁Albert	-9.24392
▁courthouse	-9.24398
▁Howard	-9.24404
▁upper	-9.24409
▁should	-9.24411
▁Vale	-9.24415
▁artist	-9.24423
▁Irish	-9.24425
▁promotion	-9.24427
▁Millar	-9.24441
▁House	-9.24455
▁Int	-9.2446
▁Battalion	-9.24461
▁politician	-9.24468
ick	-9.24472
▁gun	-9.24479
▁psychology	-9.24489
▁northern	-9.24493
▁attack	-9.24503
▁renamed	-9.24512
▁leg	-9.24523
▁operation	-9.24531
▁raise	-9.24539
▁African	-9.2454
ype	-9.24569
▁months	-9.24594
▁1919	-9.24615
▁classes	-9.2464
▁recognize	-9.24644
▁1985	-9.24647
▁fift	-9.24669
▁Poly	-9.24674
▁2001	-9.2469
ological	-9.2469
▁White	-9.24693
▁Board	-9.24741
▁lab	-9.24742
▁Live	-9.2485
▁Broadway	-9.24853
▁southwest	-9.24856
▁mak	-9.24864
▁region	-9.24876
▁even	-9.24901
▁completed	-9.24969
▁company	-9.24983
▁To	-9.25002
la	-9.25018
ny	-9.25049
▁collect	-9.25112
▁though	-9.25164
Journal	-9.25306
▁conditions	-9.25333
▁author	-9.25416
▁days	-9.25446
▁body	-9.25519
▁brown	-9.25528
▁Acco	-9.25589
6,	-9.25744
▁Fre	-9.25778
ite	-9.25796
▁ei	-9.25823
▁(198	-9.25828
▁Day	-9.25875
till	-9.25891
▁away	-9.25891
▁sense	-9.25893
▁65	-9.25955
ford	-9.25975
▁FC	-9.26005
▁operat	-9.26009
▁introduc	-9.26032
▁shops	-9.26059
▁town	-9.26083
Man	-9.26202
▁incorporate	-9.26263
▁SC	-9.26276
▁like	-9.26405
▁households	-9.26469
▁Inc	-9.265
▁courses	-9.26844
▁X	-9.26904
▁Escalante	-9.26949
oza	-9.27006
▁fish	-9.27037
1%	-9.27203
▁2015	-9.27303
▁cam	-9.27471
▁mov	-9.27475
▁mid	-9.27507
▁Hur	-9.27509
ple	-9.27589
sal	-9.27659
iz	-9.2776
ments	-9.27765
4,	-9.27874
▁Fan	-9.2805
sed	-9.28079
▁Sin	-9.28129
ie	-9.28137
▁Win	-9.28417
ach	-9.28805
▁Ja	-9.28917
▁23	-9.29288
▁fe	-9.29382
▁Whe	-9.29398
ial	-9.29415
▁missions	-9.2949
ging	-9.29669
▁Dr	-9.29759
fficial	-9.29924
dac	-9.29926
▁ever	-9.29986
east	-9.30082
13	-9.30164
▁48	-9.30219
oreign	-9.30371
▁featur	-9.30459
sko	-9.30477
ounc	-9.30519
▁table	-9.30697
ight	-9.30739
▁Ch	-9.30763
nce	-9.30783
▁Sa	-9.31577
▁King	-9.31779
went	-9.31823
un	-9.32004
▁Des	-9.32236
wood	-9.32246
▁28	-9.32372
55	-9.32506
▁societ	-9.32649
rade	-9.32739
cent	-9.32769
▁la	-9.33412
▁animat	-9.33621
3.	-9.33632
ep	-9.33636
mann	-9.3369
▁Lowe	-9.33709
▁focus	-9.33719
anna	-9.33761
hu	-9.33832
▁188	-9.33848
▁federa	-9.33858
▁act	-9.33997
▁Fe	-9.3418
▁2.	-9.34198
▁com	-9.34303
▁Do	-9.34344
aux	-9.3451
▁product	-9.34554
ala	-9.34606
7,	-9.34609
graphy	-9.34668
▁change	-9.34672
v	-9.34676
▁Prov	-9.34891
bu	-9.34896
▁feature	-9.34947
▁importan	-9.35106
▁Ric	-9.35118
▁met	-9.35153
▁read	-9.35156
ovi	-9.35205
val	-9.35256
q	-9.35258
▁areas	-9.3533
ood	-9.35703
▁59	-9.35705
▁2017.	-9.358
14	-9.35889
turned	-9.3596
▁ar	-9.35977
▁provid	-9.36004
▁ban	-9.3611
go	-9.36124
ber	-9.3622
▁Ann	-9.36232
nted	-9.3624
▁regulat	-9.36364
end	-9.36414
ved	-9.36443
▁bear	-9.36443
ough	-9.36566
9,	-9.36618
▁male	-9.3675
▁(15	-9.3683
▁Hal	-9.37091
tical	-9.37144
1,	-9.37206
ral	-9.37242
▁1994	-9.37429
4.	-9.37473
aw	-9.37489
▁abo	-9.37611
▁Vi	-9.37642
▁Kar	-9.37786
by	-9.37847
ta	-9.37899
ales	-9.379
▁isolate	-9.37938
▁Her	-9.38022
▁sp	-9.38111
25	-9.38134
be	-9.38138
▁o	-9.38355
▁comm	-9.38414
tail	-9.38503
▁me	-9.3861
▁201	-9.38649
dish	-9.38697
set	-9.38769
▁Ta	-9.38817
ists	-9.39021
own	-9.39295
less	-9.39387
▁Ne	-9.3943
hi	-9.39437
play	-9.39777
17	-9.39821
friend	-9.39946
cle	-9.39971
.7	-9.40075
reme	-9.40144
Peter	-9.40203
Ellsworth	-9.40227
br	-9.40229
time	-9.40278
▁1988	-9.40287
ward	-9.40454
▁Tre	-9.40455
vic	-9.40543
▁Mari	-9.40624
ll	-9.40631
▁wh	-9.40632
ot	-9.40681
kov	-9.40701
sports	-9.40946
sult	-9.41127
▁Gill	-9.41133
ca	-9.41168
▁1970	-9.41356
final	-9.41482
ni	-9.41548
▁21	-9.41562
op	-9.4166
ner	-9.41673
▁vari	-9.41757
mi	-9.41796
▁kno	-9.4196
▁collection	-9.42053
row	-9.4209
▁Play	-9.42115
▁Mitchell	-9.42143
▁movement	-9.42161
▁23,	-9.42255
tract	-9.42328
▁Bet	-9.42381
▁service	-9.42383
▁bookmaker	-9.42404
ja	-9.42684
▁Lo	-9.42816
▁disc	-9.42885
▁Davi	-9.43071
▁certifi	-9.434
▁complete	-9.43649
▁Mission	-9.4373
AC	-9.43873
▁Po	-9.43918
▁Jack	-9.43922
▁24	-9.44071
▁doi	-9.44079
▁church	-9.44153
▁Catal	-9.4416
▁bio	-9.44194
▁Tar	-9.44341
и	-9.44363
س	-9.44367
▁independent	-9.44368
Norwegian	-9.44368
†	-9.44368
▁Angeles	-9.44368
▁Democrat	-9.44368
▁Newaygo	-9.44368
▁Penobscot	-9.44368
▁Service	-9.44368
▁Singapore	-9.44368
▁Zondadari	-9.44368
▁alcohol	-9.44368
▁alternative	-9.44368
▁hindwing	-9.44368
▁laboratory	-9.44368
▁library	-9.44368
▁statistics	-9.44368
▁village	-9.44368
▁Jamaica	-9.44368
▁confirm	-9.44368
▁Jersey	-9.44368
▁college	-9.44368
°	-9.44368
▁account	-9.44368
▁chief	-9.44368
▁Catalonia	-9.44368
▁Jacobsen	-9.44368
▁concept	-9.44368
▁Bernard	-9.44369
▁newspaper	-9.44369
▁example	-9.4437
▁entire	-9.4437
▁Militar	-9.44371
▁premises	-9.44371
▁standard	-9.44372
▁violinist	-9.44373
▁division	-9.44374
▁Olympic	-9.44375
▁Chief	-9.44375
▁Boston	-9.44375
–11	-9.44376
▁(195	-9.44376
▁vocal	-9.44376
▁NBC	-9.44376
▁Township	-9.44377
▁watershed	-9.44377
▁little	-9.4438
▁capture	-9.44381
▁Tuzla	-9.44385
▁resources	-9.44385
▁mountain	-9.44385
▁expand	-9.44391
▁Francis	-9.44391
▁Richard	-9.44392
▁Year	-9.44394
▁earlier	-9.44394
▁Legislature	-9.44404
▁decide	-9.44409
▁columnist	-9.44409
▁conferences	-9.44412
▁Archive	-9.44412
▁sometime	-9.44421
▁profile	-9.44424
▁Place	-9.44429
▁manage	-9.4445
▁couple	-9.44452
▁Architecture	-9.44455
▁initial	-9.44458
▁Islam	-9.44461
▁China	-9.44474
▁Racer	-9.44477
▁physiology	-9.44481
▁semi	-9.44492
▁location	-9.44495
▁appearance	-9.44508
▁industry	-9.44514
▁Pink	-9.44525
-24	-9.44555
▁resid	-9.44564
programming	-9.44578
▁1908	-9.44588
▁UK	-9.44591
▁older	-9.44591
▁dedicat	-9.44592
j	-9.44594
▁affiliation	-9.44612
▁relations	-9.44635
▁Nature	-9.4467
▁Fang	-9.44693
▁Dale	-9.44711
▁1952	-9.44715
▁mean	-9.44756
▁1949	-9.44758
▁1928	-9.44761
▁Will	-9.44762
▁opposit	-9.4478
▁effective	-9.44785
▁external	-9.44788
▁Area	-9.4483
▁claim	-9.44851
▁review	-9.44858
▁defeat	-9.44865
▁love	-9.44897
▁originally	-9.44905
▁2006	-9.44922
▁level	-9.44922
▁2024	-9.44924
attalion	-9.44928
▁anchor	-9.44947
▁minister	-9.44957
▁hard	-9.44989
▁Fire	-9.44998
▁Mica	-9.45013
▁protect	-9.4507
▁Care	-9.45106
▁1978	-9.45145
▁master	-9.45201
▁log	-9.45219
▁Land	-9.4525
▁cross	-9.45295
▁bond	-9.45376
1999	-9.45473
native	-9.45491
front	-9.45492
▁Paul	-9.4557
ness	-9.45603
▁Books	-9.45606
▁Jud	-9.45752
▁flow	-9.4577
ilmography	-9.45773
▁families	-9.4582
qualify	-9.45869
▁whole	-9.45998
▁equal	-9.46157
▁refer	-9.46157
▁(8	-9.46237
Mobin	-9.46241
central	-9.46247
▁et	-9.46311
▁acquire	-9.46312
▁Mary	-9.46341
▁forces	-9.46387
of	-9.46389
▁you	-9.46476
▁champions	-9.46564
▁Red	-9.46573
▁evolution	-9.4679
▁Lee	-9.4689
▁shot	-9.46906
creation	-9.46923
▁sta	-9.46954
▁ann	-9.47037
▁cell	-9.47082
▁understand	-9.47204
▁Dor	-9.47217
oute	-9.47239
ntry	-9.47348
idge	-9.47463
ations	-9.47498
ques	-9.47531
▁(4	-9.47538
▁Sw	-9.47562
▁suit	-9.47598
▁squa	-9.47648
▁sq	-9.47681
▁Dan	-9.47806
▁Car	-9.47809
▁Din	-9.47843
try	-9.47865
▁hu	-9.47888
▁Yo	-9.47923
▁Comm	-9.47925
Estonian	-9.47999
overi	-9.48029
tive	-9.48096
ns	-9.48127
▁thought	-9.48137
▁exist	-9.48139
iff	-9.48146
7)	-9.48253
▁plays	-9.4838
ambling	-9.48402
▁Fri	-9.48615
ism	-9.48728
▁arm	-9.48743
▁Pat	-9.48749
▁AM	-9.48804
▁Sim	-9.48808
▁Ab	-9.48811
▁performances	-9.48851
▁Bha	-9.4894
wan	-9.49024
rts	-9.49053
▁Du	-9.49182
dicate	-9.49312
▁sons	-9.49341
2003)	-9.49367
,000	-9.49383
▁Winn	-9.4939
▁air	-9.49438
sorti	-9.49584
ored	-9.49622
▁aim	-9.49901
▁replac	-9.50219
ollow	-9.50223
▁Kel	-9.50241
▁VII	-9.50355
ink	-9.50423
▁Ben	-9.50445
▁weeks	-9.50451
▁defin	-9.5046
ade	-9.50487
ham	-9.50508
▁gain	-9.50518
urther	-9.50624
▁promot	-9.50625
off	-9.50652
▁rounds	-9.50721
med	-9.50812
use	-9.50982
▁News	-9.51067
duct	-9.51128
▁bec	-9.51433
nder	-9.51655
W	-9.51922
em	-9.51935
ue	-9.52094
▁sent	-9.52169
▁Big	-9.52276
range	-9.52343
▁2016.	-9.52433
net	-9.52443
▁Staff	-9.52485
for	-9.52558
▁Pri	-9.5268
▁view	-9.52686
ini	-9.52692
е	-9.52728
esult	-9.52857
▁compose	-9.53117
ssel	-9.53165
▁cit	-9.53327
ez	-9.5337
lies	-9.5345
▁names	-9.53476
isation	-9.53636
hose	-9.53644
▁compos	-9.5368
▁graduate	-9.53907
▁ten	-9.5392
▁occup	-9.53928
▁gen	-9.53999
rough	-9.54016
ring	-9.54082
▁Mid	-9.54165
▁old	-9.54265
▁increas	-9.54418
ney	-9.5447
39	-9.54478
ore	-9.54644
mph	-9.54745
unch	-9.54821
vas	-9.54898
▁("	-9.54928
▁per	-9.54941
▁dens	-9.55116
laz	-9.55174
▁Peter	-9.55213
▁records	-9.55249
ival	-9.55423
aking	-9.55611
raft	-9.55634
1941)	-9.55751
▁k	-9.55964
ka	-9.55966
▁Abd	-9.56051
ac	-9.56065
▁li	-9.56119
▁0.	-9.56191
oral	-9.56787
lar	-9.57629
pper	-9.57761
TC	-9.57831
▁statu	-9.57937
idence	-9.57966
▁primar	-9.57981
▁involve	-9.5802
▁Kr	-9.58071
ab	-9.58119
▁Un	-9.58343
▁1956	-9.58392
ding	-9.58873
▁100	-9.59042
▁Kha	-9.59088
8,	-9.59148
ced	-9.59282
▁Nev	-9.59294
eff	-9.59932
63	-9.60276
ul	-9.60308
ature	-9.60473
▁(18	-9.60584
▁Sh	-9.60699
ik	-9.607
pur	-9.60806
▁(7	-9.60831
▁great	-9.61083
rina	-9.61224
60	-9.6123
0,000	-9.61251
34	-9.61273
▁Whi	-9.61473
▁giv	-9.61562
ble	-9.61831
▁da	-9.61943
▁Ge	-9.61949
▁match	-9.62082
unning	-9.62239
▁real	-9.62269
west	-9.62395
H	-9.62459
ping	-9.62515
ions	-9.63088
é	-9.63358
lease	-9.63362
▁plan	-9.63394
adness	-9.63452
0)	-9.63562
▁scor	-9.63742
▁war	-9.63749
▁propos	-9.63875
▁geno	-9.63959
ately	-9.64285
▁origin	-9.64358
54	-9.64448
▁Tra	-9.64467
▁Hon	-9.64574
.)	-9.64972
▁house	-9.65024
▁Gu	-9.65037
▁Fi	-9.65097
evolution	-9.65115
▁Bur	-9.65148
English	-9.65347
")	-9.65413
Escalante	-9.65456
Council	-9.65459
Hiralal	-9.65492
X	-9.65496
released	-9.65527
▁(199	-9.65743
km	-9.66009
She	-9.66033
3,	-9.66224
read	-9.66246
19	-9.66263
ri	-9.66299
▁Mos	-9.66334
lf	-9.66454
que	-9.66464
▁av	-9.66526
▁im	-9.66533
ied	-9.66551
Y	-9.66686
▁1992	-9.66885
▁ambassador	-9.66939
▁sawmill	-9.66941
▁submarine	-9.6695
▁ba	-9.67089
▁purpose	-9.67133
▁organism	-9.67156
▁teacher	-9.67171
▁township	-9.6718
▁exchange	-9.67222
▁representative	-9.67336
▁Mo	-9.67341
ially	-9.67369
mobil	-9.67375
yan	-9.67392
▁Wal	-9.67443
▁Sport	-9.67531
room	-9.67566
lection	-9.67765
ome	-9.67937
metres	-9.67953
cast	-9.68071
sq	-9.68229
▁represent	-9.68365
▁live	-9.68387
ches	-9.68446
incorporate	-9.68475
▁office	-9.68727
▁effect	-9.68835
▁track	-9.68948
▁recogni	-9.69026
▁sh	-9.69054
▁compan	-9.69067
▁recent	-9.69122
▁confus	-9.69146
lem	-9.69186
ger	-9.69194
als	-9.69233
▁affiliat	-9.6924
script	-9.69268
▁intellect	-9.69283
▁specific	-9.69343
▁Legislat	-9.69352
ر	-9.69367
و	-9.69367
keeper	-9.69368
à	-9.69368
ü	-9.69368
ن	-9.69368
▁Abakumova	-9.69368
▁Ambassador	-9.69368
▁Barbados	-9.69368
▁Dhabi	-9.69368
▁Margiela	-9.69368
▁Milliken	-9.69368
▁Passamaquodd	-9.69368
▁Pennsylvania	-9.69368
▁System	-9.69368
▁Taylor	-9.69368
▁Weymouth	-9.69368
▁census	-9.69368
▁commission	-9.69368
▁criminal	-9.69368
▁decision	-9.69368
▁flagship	-9.69368
▁hundred	-9.69368
▁mechanis	-9.69368
▁percentage	-9.69368
▁threadfin	-9.69368
▁Špotáková	-9.69368
▁Affairs	-9.69368
▁Guatemala	-9.69368
▁MLS	-9.69368
▁Machine	-9.69368
▁caudal	-9.69368
▁evolve	-9.69368
▁villain	-9.69368
▁Parkinson	-9.69368
▁Wolper	-9.69368
▁photo	-9.69368
▁pioneer	-9.69368
favour	-9.69368
▁Cathedra	-9.69368
▁Thomas	-9.69368
▁clothing	-9.69368
▁Ireland	-9.69368
▁experience	-9.69368
р	-9.69368
▁instead	-9.69368
▁behind	-9.69368
▁Kalaa	-9.69368
▁wreck	-9.69369
▁hunting	-9.69369
▁weekdays	-9.69369
▁Compaq	-9.6937
▁straight	-9.6937
▁Bihar	-9.6937
▁Vienna	-9.6937
▁intersection	-9.6937
▁submerged	-9.6937
▁Politic	-9.69371
▁Hispani	-9.69371
▁Oakland	-9.69371
▁(2009)	-9.69371
▁Wiki	-9.69371
▁amount	-9.69372
▁street	-9.69372
▁(2006)	-9.69372
▁Perak	-9.69373
▁approach	-9.69374
▁Koda	-9.69375
▁expedition	-9.69375
▁potential	-9.69376
▁(1999)	-9.69376
▁Life	-9.69377
▁(2004)	-9.69377
▁visit	-9.69378
▁Malang	-9.69378
▁Regiment	-9.69379
▁compound	-9.6938
break	-9.6938
idae	-9.6938
▁trend	-9.69383
▁travel	-9.69385
metric	-9.6939
▁specifically	-9.69392
▁grew	-9.69393
▁outcome	-9.69393
▁Today	-9.69394
Chinese	-9.69395
▁Animat	-9.69395
▁phenomenon	-9.69395
▁lessons	-9.69399
▁bomb	-9.694
▁Bridge	-9.69403
▁Parik	-9.69408
phage	-9.69409
▁constituency	-9.69411
▁Frank	-9.69411
▁Olive	-9.69419
▁firm	-9.6942
▁Guard	-9.69424
ealth	-9.69426
security	-9.69426
▁ch	-9.69432
▁Spain	-9.69436
▁western	-9.6944
▁cricket	-9.69442
▁planned	-9.69442
▁warm	-9.69444
▁Princess	-9.69447
▁genus	-9.69454
▁Wood	-9.6946
▁frost	-9.69463
▁grade	-9.69472
▁issue	-9.69483
▁description	-9.69483
▁coast	-9.69491
▁retired	-9.69494
▁4,	-9.69494
▁Heath	-9.69498
▁guide	-9.69498
▁Foster	-9.695
▁Think	-9.69501
▁Party	-9.69506
▁solo	-9.69507
▁limit	-9.69511
▁touch	-9.69523
▁disul	-9.69532
▁1850	-9.69543
▁Saf	-9.69544
▁6,	-9.69544
▁dropped	-9.69547
▁computing	-9.6956
▁Production	-9.69564
▁rare	-9.69607
enko	-9.69624
▁1950	-9.69629
▁Wales	-9.69635
PNP	-9.6964
▁Tala	-9.69648
▁1960	-9.69669
▁ensure	-9.69694
▁winter	-9.69706
▁filaments	-9.69727
▁sensations	-9.69729
▁efforts	-9.69735
▁customer	-9.69736
▁casinos	-9.69737
▁1918	-9.69751
▁Hearts	-9.69758
▁contribut	-9.69767
▁crossings	-9.69772
▁hours	-9.69785
▁battle	-9.69795
▁Press	-9.69797
▁Jac	-9.69819
▁tanks	-9.69821
▁UT	-9.69827
DS	-9.6984
▁center	-9.69842
▁agency	-9.69876
▁grow	-9.69895
▁Bach	-9.69896
elephone	-9.69897
▁wound	-9.699
▁Wolf	-9.69904
▁Text	-9.69905
▁fighting	-9.69922
▁credit	-9.6993
▁1963	-9.69935
▁1987	-9.69938
▁better	-9.69964
▁bill	-9.69975
▁1931	-9.69984
▁1969	-9.69988
vangeli	-9.69999
▁possible	-9.70013
▁ad	-9.70016
▁1955	-9.70023
▁[	-9.70056
▁1876	-9.70057
-54	-9.70063
▁1995	-9.70064
atabase	-9.70089
▁annually	-9.70092
▁president	-9.70095
▁wrote	-9.70096
▁Lewis	-9.701
▁Flanders	-9.70105
▁steep	-9.70133
▁Jona	-9.70136
▁strong	-9.70138
▁successful	-9.70139
erto	-9.70153
▁Organi	-9.70166
▁Love	-9.70198
▁(1985	-9.70204
▁inspir	-9.70229
▁created	-9.70274
▁Sun	-9.70281
▁Hu	-9.70315
▁trans	-9.70333
▁praise	-9.70362
▁version	-9.70368
▁fire	-9.70379
▁begin	-9.70379
sphere	-9.70401
ppy	-9.7046
▁Sup	-9.70468
2004	-9.70486
▁rank	-9.70514
▁1972.	-9.70553
▁Fame	-9.70571
▁Mil	-9.70582
apid	-9.70621
amily	-9.70721
ered	-9.70785
▁1976.	-9.70788
▁React	-9.70805
▁Star	-9.70813
▁Pr	-9.70835
▁centre	-9.7085
▁shop	-9.70853
▁experiments	-9.70924
org	-9.7103
▁charge	-9.71061
▁critics	-9.71108
▁joint	-9.71155
▁Highway	-9.71254
ning	-9.71277
ommunication	-9.71303
▁dor	-9.71312
▁cut	-9.71336
▁8,	-9.7142
▁tru	-9.7148
come	-9.71536
▁With	-9.7154
▁exchanges	-9.71563
ned	-9.71595
94.	-9.7161
▁Member	-9.71634
▁1948	-9.71643
▁brand	-9.71696
▁mode	-9.71743
▁ca	-9.71819
▁WB	-9.71857
ertain	-9.71869
▁Par	-9.71871
▁resident	-9.71959
arbonyl	-9.71979
onw	-9.72037
▁Ave	-9.7207
▁lives	-9.72171
artoon	-9.72183
working	-9.72264
م	-9.72331
▁Lab	-9.72382
attle	-9.72408
▁formation	-9.72481
▁qui	-9.72492
▁substrate	-9.72498
▁dams	-9.72545
▁red	-9.72612
wer	-9.72747
▁2015.	-9.72788
▁critic	-9.72846
did	-9.73018
▁Del	-9.73078
▁sound	-9.73104
art	-9.73115
▁metres	-9.73337
▁roles	-9.73408
yard	-9.73432
port	-9.73434
rofessional	-9.73517
▁goals	-9.73568
05	-9.73612
ا	-9.73634
▁El	-9.73915
▁inher	-9.7398
▁albums	-9.74031
▁characters	-9.74033
▁races	-9.74052
▁Ira	-9.74135
▁shorts	-9.74153
▁Arts	-9.74222
▁settler	-9.7434
▁anti	-9.74393
▁Que	-9.7442
▁Juni	-9.74603
▁(20	-9.74695
▁ran	-9.74749
▁propert	-9.74753
▁see	-9.74815
ray	-9.74832
Misc	-9.74863
ackground	-9.75024
▁Sci	-9.75116
bi	-9.7513
▁we	-9.75245
▁leaders	-9.75299
bant	-9.75326
▁date	-9.75352
tip	-9.7541
▁historic	-9.75428
ants	-9.75589
tyl	-9.75661
issionary	-9.75723
▁hydro	-9.75759
denominational	-9.75862
▁programs	-9.75931
14,	-9.76037
▁Litt	-9.7606
pped	-9.76112
▁Tru	-9.7622
ros	-9.76358
▁relat	-9.76365
▁Per	-9.76455
▁models	-9.76456
▁charts	-9.76468
▁47	-9.76475
▁players	-9.76521
▁u	-9.7657
▁bu	-9.76661
cycle	-9.76694
▁Rob	-9.76891
▁Hep	-9.76964
osal	-9.76972
▁acre	-9.76986
▁pur	-9.77004
.”	-9.7707
▁finish	-9.77125
–0	-9.77264
ark	-9.77338
elimina	-9.77381
▁shows	-9.77409
▁force	-9.77426
45	-9.77455
▁fee	-9.7746
sk	-9.77853
▁way	-9.7786
▁Vo	-9.77897
oš	-9.77981
▁Air	-9.77982
men	-9.78014
▁active	-9.78047
▁admit	-9.7814
ba	-9.78216
▁ship	-9.78322
▁ac	-9.78324
▁associate	-9.78346
▁farm	-9.78353
▁action	-9.78552
▁Bir	-9.78715
▁Note	-9.7899
20	-9.79185
▁196	-9.79207
▁bi	-9.79233
▁earn	-9.79244
▁Fr	-9.79503
ties	-9.79581
▁organ	-9.7977
▁ru	-9.79851
▁KF	-9.80037
▁Ear	-9.80077
hile	-9.80511
98	-9.80567
▁seve	-9.80574
▁foundation	-9.80676
▁source	-9.80825
sto	-9.80862
▁bacteria	-9.81013
▁clos	-9.81114
ather	-9.81205
▁Cur	-9.81307
shire	-9.81366
ela	-9.81519
nts	-9.81522
dle	-9.81621
ually	-9.81649
ocking	-9.81835
▁twe	-9.81895
▁Und	-9.82011
▁sequence	-9.82322
uis	-9.82358
person	-9.82596
▁184	-9.82624
▁ill	-9.82821
▁hous	-9.83135
ander	-9.8325
ho	-9.83285
▁Juli	-9.8366
▁reach	-9.83689
▁follows	-9.8372
▁genera	-9.83783
mma	-9.83815
▁acid	-9.83816
▁Y	-9.83834
sey	-9.83871
▁shape	-9.84164
▁usual	-9.84222
41	-9.84227
▁ages	-9.84293
▁chang	-9.84317
gar	-9.84535
ours	-9.84541
jo	-9.84588
▁employ	-9.84813
lice	-9.84823
L	-9.84858
▁Name	-9.84923
▁systems	-9.84923
▁employe	-9.85026
ux	-9.85047
ij	-9.85225
over	-9.85811
dom	-9.85974
▁Acad	-9.86043
▁founde	-9.86067
rew	-9.8608
pe	-9.86241
rated	-9.86292
22	-9.86363
itz	-9.86388
po	-9.86537
▁pe	-9.86612
▁Mal	-9.86793
int	-9.86854
▁Ko	-9.87114
tam	-9.87117
va	-9.87287
▁Pea	-9.87411
escription	-9.8745
oth	-9.87725
sband	-9.87871
tain	-9.87955
▁po	-9.8874
dar	-9.88837
▁Con	-9.88858
▁songs	-9.89044
▁sam	-9.89114
▁(6	-9.89272
ip	-9.89315
▁29.	-9.89409
▁define	-9.89465
teen	-9.89706
▁Am	-9.9012
dys	-9.90272
tole	-9.90645
▁coin	-9.90645
▁Summ	-9.90662
▁ra	-9.91244
amo	-9.91267
elec	-9.91296
▁ball	-9.91298
▁associat	-9.91325
ety	-9.91373
▁Nor	-9.91577
2,	-9.9162
▁par	-9.91648
gy	-9.91711
▁Far	-9.91794
cess	-9.91875
▁1996	-9.92123
▁1964	-9.92186
▁1942	-9.92512
▁emerg	-9.92568
▁Peters	-9.92599
▁We	-9.92649
nna	-9.92715
▁cap	-9.9272
ph	-9.92861
▁don	-9.92904
etting	-9.92964
▁Bra	-9.93015
pit	-9.93055
OS	-9.93099
▁Ri	-9.93153
AR	-9.9317
▁su	-9.93992
ajor	-9.94203
III	-9.94246
ak	-9.94258
fer	-9.94277
▁1991	-9.94433
ge	-9.94452
ents	-9.94772
23	-9.94868
▁cooperat	-9.94883
tz	-9.95044
ung	-9.95057
ria	-9.9508
ay	-9.95143
▁tr	-9.95422
min	-9.95573
▁discuss	-9.95639
vents	-9.95641
not	-9.95675
▁Gro	-9.95761
▁j	-9.95857
ada	-9.95889
ax	-9.9601
egister	-9.96119
nty	-9.96188
▁Bi	-9.96206
gle	-9.9639
95	-9.96652
shop	-9.96899
ased	-9.97121
ami	-9.97177
light	-9.97282
ef	-9.97375
▁Ir	-9.97422
shed	-9.97428
ake	-9.97435
350	-9.97449
ro	-9.97546
80	-9.97581
▁40	-9.97683
ina	-9.97992
ole	-9.98087
United	-9.98088
▁occur	-9.98108
American	-9.98118
▁Char	-9.98341
stic	-9.9842
Q	-9.98462
aya	-9.98575
▁constitution	-9.98664
well	-9.98698
school	-9.98722
worth	-9.98734
yle	-9.98769
Radio	-9.98801
shot	-9.98831
power	-9.98847
▁27	-9.98866
cross	-9.98882
100	-9.98894
gu	-9.98932
was	-9.98938
strain	-9.99022
aunch	-9.99037
▁leader	-9.99072
book	-9.99125
▁(194	-9.9924
data	-9.9933
ster	-9.99339
force	-9.99342
AM	-9.99343
boat	-9.99371
▁deni	-9.99433
istance	-9.99806
gen	-9.99934
▁Book	-10.0002
ental	-10.0002
loo	-10.0004
▁(5	-10.0004
▁Brook	-10.0008
▁machine	-10.0026
▁railroad	-10.0026
▁brother	-10.0029
▁option	-10.0031
like	-10.0032
▁margin	-10.0034
▁background	-10.0037
▁1981	-10.004
▁experiment	-10.0058
▁Store	-10.0062
▁condition	-10.0064
▁1927	-10.0066
xim	-10.0069
refore	-10.0072
Paris	-10.0081
▁Su	-10.0089
tter	-10.0091
▁emotion	-10.0094
▁educat	-10.0099
resident	-10.0106
ken	-10.011
ron	-10.013
pplication	-10.0137
termin	-10.0138
Ex	-10.0145
▁accept	-10.0153
▁application	-10.0159
▁Andr	-10.0167
▁Due	-10.0173
▁micro	-10.0175
law	-10.0176
▁link	-10.0179
made	-10.0179
▁command	-10.0182
▁Eco	-10.0187
▁engine	-10.0193
tle	-10.0201
▁becom	-10.0209
how	-10.0211
▁Institut	-10.0214
Ra	-10.0216
▁difficult	-10.0217
▁appli	-10.0223
▁speak	-10.0234
▁Galle	-10.0236
▁parent	-10.0237
▁build	-10.0243
erdenominational	-10.0252
brand	-10.0254
▁fight	-10.0255
hat	-10.0256
his	-10.0259
▁Chemi	-10.026
▁Gil	-10.0261
▁construct	-10.0262
▁modifi	-10.0267
03	-10.0267
ouche	-10.0268
▁Sultan	-10.0268
▁surviv	-10.0268
▁success	-10.0269
с	-10.0269
+	-10.027
â	-10.027
▁1898–99	-10.027
▁2017–18	-10.027
▁Abbott	-10.027
▁Arecibo	-10.027
▁Bordet	-10.027
▁Brigade	-10.027
▁Caribbean	-10.027
▁Connecticut	-10.027
▁Croton	-10.027
▁Derrida	-10.027
▁Diploma	-10.027
▁Elijah	-10.027
▁Hyatt	-10.027
▁Kawakubo	-10.027
▁Lahore	-10.027
▁Lincoln	-10.027
▁Mechanis	-10.027
▁Ontario	-10.027
▁PCMCIA	-10.027
▁Philadelphia	-10.027
▁Plateau	-10.027
▁Sarawak	-10.027
▁Sharpey	-10.027
▁Suicide	-10.027
▁Synthesis	-10.027
▁Wilmot	-10.027
▁altitude	-10.027
▁demonstrate	-10.027
▁denominations	-10.027
▁distinguish	-10.027
▁explanation	-10.027
▁linguistic	-10.027
▁magazine	-10.027
▁melampus	-10.027
▁obtained	-10.027
▁occasion	-10.027
▁photograph	-10.027
▁substitute	-10.027
nephew	-10.027
▁Concession	-10.027
▁Czech	-10.027
▁Learning	-10.027
▁petition	-10.027
▁switch	-10.027
Criminal	-10.027
▁Algiers	-10.027
▁Baroque	-10.027
▁Census	-10.027
▁Coalition	-10.027
▁Library	-10.027
▁Progress	-10.027
▁Varney	-10.027
▁amendment	-10.027
▁chloride	-10.027
▁reflect	-10.027
▁virtual	-10.027
▁volume	-10.027
Apparel	-10.027
▁Corps	-10.027
▁Hamburg	-10.027
▁Pasteur	-10.027
▁Reserve	-10.027
▁depot	-10.027
▁Author	-10.027
▁Henrieville	-10.027
▁concentrat	-10.027
▁surround	-10.027
▁Qualification	-10.027
▁inaugura	-10.027
▁Utah	-10.027
▁reorganis	-10.027
▁Swedish	-10.027
Etemad	-10.027
▁StarDut	-10.027
▁suggest	-10.027
▁alkane	-10.027
▁junction	-10.027
keeping	-10.027
▁glass	-10.027
▁judge	-10.027
▁treatise	-10.027
▁Method	-10.027
▁acylation	-10.027
▁Wilkes	-10.027
▁depend	-10.027
▁pandemic	-10.027
▁Beaut	-10.027
▁(2005)	-10.027
▁Indonesia	-10.027
▁dispute	-10.027
▁provincial	-10.027
▁militants	-10.027
▁Athletics	-10.027
▁microbiology	-10.027
▁Bronx	-10.027
▁extensive	-10.027
▁Surry	-10.027
▁resistance	-10.027
▁Titan	-10.027
▁Mozart	-10.0271
▁normal	-10.0271
▁police	-10.0271
:10.10	-10.0271
click	-10.0271
ldehyde	-10.0271
▁Legend	-10.0271
▁university	-10.0271
▁Patrick	-10.0271
▁Leader	-10.0271
anthrop	-10.0271
▁Berlin	-10.0271
▁timber	-10.0271
utuel	-10.0271
▁communities	-10.0271
▁Governor	-10.0271
▁expresse	-10.0271
▁keyboard	-10.0271
▁Modern	-10.0271
▁Congressman	-10.0271
chedule	-10.0271
▁Neighbor	-10.0271
▁Chunder	-10.0271
▁Palame	-10.0271
▁DNA	-10.0271
▁eriphyle	-10.0271
▁provision	-10.0271
▁Kodagu	-10.0271
▁panel	-10.0271
▁opportunities	-10.0271
▁Bridgetown	-10.0272
broke	-10.0272
▁Abbas	-10.0272
▁contact	-10.0272
▁CBS	-10.0272
▁figure	-10.0272
▁factories	-10.0272
▁space	-10.0272
▁Runners	-10.0272
▁Alps	-10.0272
▁José	-10.0272
▁soldier	-10.0272
▁terror	-10.0272
▁climb	-10.0272
▁block	-10.0272
▁Niue	-10.0272
▁Iridology	-10.0272
▁honor	-10.0273
▁sunk	-10.0273
▁reverse	-10.0273
▁Sultanate	-10.0273
▁Bachelor	-10.0273
▁nomination	-10.0273
▁Abbes	-10.0273
▁Survey	-10.0273
kindergarten	-10.0273
▁1909	-10.0273
▁apolog	-10.0273
▁Punk	-10.0273
▁Former	-10.0273
▁Hindi	-10.0273
▁eleven	-10.0273
▁Support	-10.0273
▁Phil	-10.0273
▁affect	-10.0273
▁rankings	-10.0273
ík	-10.0273
▁Model	-10.0274
▁classification	-10.0274
▁justice	-10.0274
▁association	-10.0274
▁deriv	-10.0274
▁Forces	-10.0274
▁Professor	-10.0274
▁Oath	-10.0274
▁downtown	-10.0274
▁talent	-10.0274
▁Britain	-10.0275
▁reservoir	-10.0275
▁winner	-10.0275
▁activity	-10.0275
▁inhabitant	-10.0275
▁reception	-10.0275
▁money	-10.0275
▁watch	-10.0275
▁identify	-10.0275
▁begun	-10.0275
▁Claus	-10.0276
▁recharge	-10.0276
▁boost	-10.0276
▁Poverty	-10.0276
▁intermediate	-10.0276
▁emphasiz	-10.0276
▁aspect	-10.0277
▁460	-10.0278
▁implie	-10.0278
▁Grover	-10.0279
▁climate	-10.0279
▁journalist	-10.0279
▁construction	-10.0279
▁Off	-10.028
▁Edition	-10.028
▁(1964)	-10.0281
ease	-10.0281
▁(1991)	-10.0281
▁blackish	-10.0281
▁outfield	-10.0281
▁scene	-10.0281
rt	-10.0281
elez	-10.0281
▁Spring	-10.0282
▁(1994)	-10.0282
▁capacity	-10.0283
▁Judge	-10.0283
▁rays	-10.0283
handed	-10.0283
▁FCC	-10.0283
▁bald	-10.0284
▁978-	-10.0284
▁TVB	-10.0284
▁maintain	-10.0284
▁Achievement	-10.0284
▁Box	-10.0284
▁drama	-10.0284
▁Auto	-10.0285
▁Portugal	-10.0285
▁Trail	-10.0285
▁mention	-10.0285
▁contin	-10.0285
▁ground	-10.0286
▁rock	-10.0286
▁Gram	-10.0286
IAA	-10.0287
▁secretary	-10.0287
▁DH	-10.0287
▁preside	-10.0287
▁health	-10.0287
▁Hours	-10.0288
▁culture	-10.0288
▁Crow	-10.029
3,44	-10.0291
▁filmmaker	-10.0291
▁Later	-10.0291
▁manufacturer	-10.0291
▁Kristi	-10.0291
▁Six	-10.0291
▁Perth	-10.0292
▁deep	-10.0292
▁vol	-10.0294
▁meeting	-10.0294
▁Office	-10.0295
▁Bac	-10.0295
▁Pond	-10.0295
▁free	-10.0296
▁Clare	-10.0296
▁Byway	-10.0296
▁nerv	-10.0297
▁Ganga	-10.0298
▁2,7	-10.0299
▁Fé	-10.0299
▁studio	-10.0299
Storm	-10.0301
▁must	-10.0302
▁verse	-10.0302
▁Publish	-10.0303
annery	-10.0305
▁Vol	-10.0306
▁Over	-10.0306
▁43	-10.0307
▁Town	-10.0307
▁nine	-10.0307
speaking	-10.0308
▁Section	-10.0308
▁investigat	-10.0309
▁stunt	-10.0311
▁churches	-10.0311
▁kilo	-10.0311
▁saw	-10.0311
-89	-10.0311
▁vi	-10.0313
▁architecture	-10.0313
fare	-10.0314
▁Em	-10.0314
talk	-10.0316
▁1935	-10.0316
▁look	-10.0317
▁(2018)	-10.0317
▁Championship	-10.0319
▁lack	-10.0319
▁1937	-10.032
▁award	-10.0321
▁instincts	-10.0321
▁Belly	-10.0321
▁basis	-10.0321
▁Timbers	-10.0322
▁appetites	-10.0322
▁plasmids	-10.0322
▁Representatives	-10.0322
▁individuals	-10.0322
minute	-10.0323
▁1825	-10.0323
▁square	-10.0324
▁processes	-10.0326
▁draw	-10.0327
▁Robin	-10.0329
▁pages	-10.0329
▁Arch	-10.0329
▁clan	-10.033
▁1958	-10.033
▁1870	-10.0331
▁hook	-10.0333
2.	-10.0333
▁1605	-10.0335
LIP	-10.0336
ski	-10.0337
▁1983	-10.0338
▁Race	-10.0338
▁personal	-10.0343
▁Now	-10.0343
burgh	-10.0344
▁customs	-10.0345
▁(0.	-10.0345
▁Mei	-10.0346
▁engineer	-10.0348
▁Quarter	-10.0349
▁Mel	-10.035
▁1911	-10.035
▁format	-10.0351
ricket	-10.0352
▁Mill	-10.0353
▁Cri	-10.0353
▁path	-10.0354
ast	-10.0356
▁Mont	-10.0358
Special	-10.0358
ildlife	-10.036
▁colon	-10.0363
▁catalog	-10.0364
braham	-10.0366
Movie	-10.0367
▁Jackson	-10.0368
▁listen	-10.0368
▁Ž	-10.0369
verage	-10.037
▁1936	-10.037
mach	-10.037
▁knowledge	-10.0373
▁DSD	-10.0373
▁electric	-10.0374
▁Hero	-10.0374
▁bodies	-10.0374
▁Antonio	-10.0375
▁Trenton	-10.0375
▁licen	-10.0376
▁Just	-10.0376
▁relationship	-10.0377
▁colour	-10.0379
▁commander	-10.038
▁combin	-10.0382
ette	-10.0384
▁math	-10.0385
▁1855	-10.0386
▁accepted	-10.0389
▁stage	-10.039
48	-10.0391
▁Integr	-10.0392
▁relative	-10.0392
songwriter	-10.0395
▁seem	-10.0399
▁case	-10.04
isne	-10.0402
▁Bloo	-10.0403
nue	-10.0406
▁reached	-10.0406
▁Aki	-10.0407
▁God	-10.0409
▁lyrics	-10.041
▁techniques	-10.041
▁Scen	-10.0411
▁Fun	-10.0415
▁planes	-10.0416
▁notable	-10.0416
▁fail	-10.0417
▁approx	-10.0418
ject	-10.0418
▁1975	-10.0423
▁double	-10.0425
▁Of	-10.0425
bor	-10.0427
▁Born	-10.0428
▁required	-10.0429
▁ET	-10.043
▁finally	-10.0431
▁1993.	-10.0431
▁heav	-10.0433
ography	-10.0445
▁120	-10.0446
YA	-10.0448
hannel	-10.0448
▁Dark	-10.045
▁translation	-10.0452
▁outline	-10.0453
ertification	-10.0454
▁create	-10.0459
▁mayor	-10.046
▁recall	-10.0461
▁(1993)	-10.0464
gas	-10.0464
▁Van	-10.0465
▁Za	-10.0471
▁1968	-10.0472
▁constituen	-10.0473
▁Site	-10.0473
sche	-10.0475
▁Master	-10.0478
ium	-10.0478
icket	-10.0479
nnual	-10.0482
Database	-10.0484
limate	-10.0484
▁distal	-10.0486
tino	-10.0488
▁wild	-10.0489
▁pla	-10.0498
ath	-10.0498
inter	-10.0499
zan	-10.0499
▁parents	-10.05
▁Fried	-10.0501
os	-10.0503
▁organiz	-10.0504
marine	-10.0512
▁infan	-10.0512
▁Ray	-10.0512
▁Whit	-10.0512
▁44	-10.0514
ran	-10.0517
▁Old	-10.0518
▁footballer	-10.0521
mour	-10.0522
▁Source	-10.0523
▁scores	-10.0523
▁require	-10.0523
▁hit	-10.0525
▁integrate	-10.0532
–198	-10.0538
▁yellow	-10.054
rain	-10.054
▁select	-10.0541
▁Arabic	-10.0541
▁(201	-10.0541
▁.3	-10.0542
▁Daniele	-10.0542
wa	-10.0543
lit	-10.055
▁stream	-10.0551
▁portion	-10.0555
▁defend	-10.0555
▁cru	-10.056
▁lotter	-10.0562
▁1979	-10.0566
▁1921	-10.0566
▁ال	-10.0575
▁Song	-10.0581
CNNI	-10.0585
▁1947	-10.0586
▁Dona	-10.0587
▁organisms	-10.0589
▁townships	-10.0589
▁purposes	-10.059
▁teachers	-10.059
▁Z	-10.059
▁Found	-10.059
▁tracks	-10.0592
▁Main	-10.0594
rocedure	-10.0595
It	-10.0597
▁1997	-10.0597
▁spine	-10.0602
▁self	-10.0606
▁Brad	-10.0609
ivate	-10.0614
▁compet	-10.0615
▁writer	-10.0621
offs	-10.0621
itrogen	-10.0625
▁Protect	-10.0626
▁Rai	-10.0628
▁Christi	-10.0631
sure	-10.0636
▁person	-10.0643
▁stay	-10.0644
▁Wa	-10.0644
▁forward	-10.0645
alled	-10.0653
guard	-10.0653
▁scien	-10.0655
▁documentar	-10.0656
combina	-10.0664
▁Loy	-10.0666
▁64	-10.0677
▁Mitchells	-10.068
▁movements	-10.0681
▁Az	-10.0682
▁operations	-10.0695
▁drain	-10.0697
▁united	-10.0726
▁$3	-10.0726
▁hands	-10.0727
-23	-10.0727
wice	-10.0729
does	-10.0745
eg	-10.0745
▁batt	-10.0748
SL	-10.0757
▁towns	-10.0762
▁rep	-10.0768
▁profit	-10.0771
▁transfers	-10.0783
▁feed	-10.0785
▁terms	-10.0787
▁100.	-10.0797
▁reference	-10.0801
▁90	-10.0807
▁ways	-10.0809
200	-10.0814
▁financial	-10.0817
dale	-10.082
▁Intern	-10.082
49.	-10.0825
rat	-10.083
▁compil	-10.0831
▁qu	-10.0838
▁fair	-10.0849
▁explor	-10.085
anguage	-10.0855
elle	-10.0859
▁daughters	-10.0861
are	-10.0862
ix	-10.0866
qua	-10.0868
▁178	-10.0869
▁fill	-10.0874
iding	-10.0875
▁Natur	-10.0877
3,3	-10.0885
▁Hayn	-10.0892
pine	-10.0899
ff	-10.0906
▁Les	-10.091
▁port	-10.0915
lly	-10.0924
▁Ali	-10.0925
▁Vill	-10.0932
▁Ti	-10.0938
▁Marga	-10.0945
▁females	-10.0949
▁equi	-10.0963
▁elections	-10.0965
▁Stand	-10.0983
▁pay	-10.099
▁14.	-10.0994
areer	-10.1001
unt	-10.1005
▁Min	-10.1008
▁gol	-10.1009
▁v	-10.1014
▁rest	-10.1026
lus	-10.103
base	-10.1041
ze	-10.1068
40-	-10.1076
▁Ka	-10.1082
▁board	-10.1088
▁gene	-10.109
uld	-10.1101
si	-10.1104
rgent	-10.1119
dine	-10.112
▁Mon	-10.1121
▁performe	-10.1123
▁score	-10.113
▁fore	-10.1138
▁155	-10.1148
li	-10.1152
ub	-10.1155
▁Goo	-10.1183
elect	-10.119
47	-10.1201
▁Mu	-10.1206
king	-10.1217
adikeri	-10.1231
self	-10.1232
▁contro	-10.1242
▁Wom	-10.1245
.4	-10.1248
▁Dela	-10.1248
▁2008.	-10.1249
▁histori	-10.1255
bal	-10.1258
▁3-	-10.1261
▁advertis	-10.1261
▁stat	-10.1278
▁Sp	-10.128
▁Stadi	-10.128
1988)	-10.1281
▁2010.	-10.1291
econ	-10.1296
cean	-10.1301
▁topograph	-10.131
▁tons	-10.1322
▁fil	-10.1329
lder	-10.1335
▁Fir	-10.134
▁8.	-10.1354
▁lay	-10.1355
ize	-10.1357
hal	-10.136
▁designer	-10.1364
▁bases	-10.1372
ines	-10.1379
▁appro	-10.1387
▁Tale	-10.1393
107	-10.1394
ons	-10.1401
za	-10.1409
rom	-10.1412
even	-10.1427
▁activ	-10.1429
erich	-10.1473
mon	-10.1481
▁premi	-10.1487
▁defen	-10.1497
▁2014.	-10.15
order	-10.1518
ourthouse	-10.1521
▁cop	-10.1527
ree	-10.1527
▁star	-10.1529
▁art	-10.1533
ret	-10.1545
ere	-10.155
▁deb	-10.1565
▁del	-10.1568
▁greate	-10.1568
ency	-10.157
▁fins	-10.157
loga	-10.1579
▁ho	-10.1581
▁192	-10.16
no	-10.163
▁Universe	-10.1634
▁1922	-10.1647
2008)	-10.1651
2021–	-10.1655
▁diver	-10.1657
▁Wy	-10.166
▁Lia	-10.1665
▁Tu	-10.1669
race	-10.1679
▁day	-10.1679
▁179	-10.1685
▁Mat	-10.1692
▁ve	-10.1693
▁imp	-10.1701
lling	-10.1704
ave	-10.173
▁si	-10.1732
ó	-10.1738
ely	-10.1756
9–20	-10.1761
ls	-10.1766
▁conv	-10.1781
ecretary	-10.1793
▁mon	-10.1804
▁177	-10.1805
▁br	-10.1806
нн	-10.1815
▁statut	-10.1832
▁provide	-10.1838
▁fund	-10.185
▁respon	-10.1857
umb	-10.1858
▁189	-10.1886
ang	-10.1895
▁Lega	-10.1897
▁Ke	-10.1905
▁Sel	-10.1907
▁67	-10.1918
lines	-10.1932
eet	-10.1944
CO	-10.1945
▁Hug	-10.1952
▁tra	-10.1957
▁187	-10.1971
ems	-10.1983
16	-10.1986
▁Ou	-10.199
è	-10.1991
▁Ya	-10.202
▁tw	-10.2039
Rogers	-10.2043
▁Pul	-10.2047
orthern	-10.205
▁definit	-10.2051
▁vic	-10.2057
ute	-10.2061
▁15,	-10.2064
egency	-10.2065
-07	-10.2067
ition	-10.207
79	-10.208
▁embe	-10.2085
30	-10.2108
▁Sch	-10.2109
era	-10.2115
/200	-10.2125
▁places	-10.2126
▁73	-10.2131
▁Gra	-10.2134
▁182	-10.2159
he	-10.2173
▁compare	-10.2187
tro	-10.219
▁Rei	-10.2199
▁cha	-10.2218
▁Las	-10.2228
▁Sal	-10.2235
eature	-10.2237
5.3	-10.224
position	-10.225
22)	-10.2274
▁Hand	-10.2279
▁(12	-10.2279
▁administrati	-10.2308
▁shore	-10.2311
▁52	-10.2316
atur	-10.2318
rius	-10.233
▁broade	-10.2331
▁sil	-10.2347
VI	-10.2349
ió	-10.2373
legal	-10.2374
imul	-10.238
sper	-10.2383
ris	-10.2385
▁Rem	-10.2399
gest	-10.2401
nomi	-10.2417
sta	-10.2425
ile	-10.243
▁acc	-10.2454
▁flo	-10.2481
per	-10.2486
▁divers	-10.2498
▁shi	-10.2513
ain	-10.252
ua	-10.2527
▁Bacteri	-10.253
▁Bla	-10.2556
▁primari	-10.2565
▁animate	-10.2567
▁je	-10.2573
urs	-10.2582
▁trade	-10.2585
▁shap	-10.2588
than	-10.2596
tch	-10.2601
▁fast	-10.2601
eservoir	-10.2625
▁Roma	-10.2626
▁administrat	-10.2627
▁regulate	-10.263
evo	-10.2639
ans	-10.2644
ars	-10.2646
take	-10.2651
▁soci	-10.2651
▁Is	-10.2661
pi	-10.2668
ville	-10.2688
cally	-10.2692
▁50	-10.2698
closed	-10.2698
▁Ru	-10.2701
term	-10.2703
▁participat	-10.2724
▁Dar	-10.2731
seek	-10.2732
50.	-10.2745
ware	-10.2753
1.	-10.2757
▁140	-10.2772
▁stoo	-10.279
▁tool	-10.2808
ction	-10.2814
egislature	-10.2822
hrough	-10.2823
▁Arm	-10.2831
tball	-10.2839
ational	-10.2854
aš	-10.2871
▁Hono	-10.2873
▁Naz	-10.2925
tra	-10.2928
writer	-10.2932
eta	-10.2939
code	-10.2939
▁reduce	-10.2953
▁Q	-10.2956
FM	-10.2968
▁le	-10.297
42	-10.2971
ught	-10.2972
hen	-10.298
74	-10.3017
▁Kan	-10.3024
ki	-10.3031
dge	-10.304
10.	-10.3053
▁des	-10.3056
els	-10.3061
oo	-10.3063
▁0.2	-10.3064
car	-10.3068
empo	-10.3074
▁Vin	-10.3076
any	-10.3081
▁physi	-10.3085
▁amo	-10.3114
dad	-10.3115
▁Perform	-10.3117
right	-10.3125
▁75	-10.3132
emical	-10.3144
н	-10.3159
ен	-10.3163
▁partner	-10.3174
27	-10.3179
vo	-10.3187
thing	-10.322
ace	-10.322
rail	-10.3239
versati	-10.3241
ransfers	-10.3244
▁inc	-10.3274
2000	-10.3284
sion	-10.3286
Bo	-10.3296
bol	-10.3298
ear	-10.3298
ique	-10.3299
urea	-10.3301
aster	-10.3321
▁deta	-10.3344
▁Cha	-10.3363
mo	-10.3367
-9	-10.3375
▁gam	-10.3397
▁(193	-10.342
38	-10.3425
▁count	-10.3429
▁Cross	-10.3439
▁Mount	-10.344
ich	-10.3475
espec	-10.3519
borne	-10.353
▁Te	-10.3531
oft	-10.3536
let	-10.357
ati	-10.359
formation	-10.3605
vi	-10.3611
▁import	-10.3613
▁Had	-10.3621
▁Camp	-10.3627
revi	-10.3631
▁160	-10.3633
▁bo	-10.3635
26	-10.3639
ert	-10.3654
▁Nic	-10.3656
ل	-10.3658
arne	-10.3663
▁stripe	-10.3667
▁Prem	-10.3715
affords	-10.3729
▁replace	-10.3736
fers	-10.3737
eception	-10.3745
reviously	-10.3755
▁sen	-10.3756
ative	-10.376
mil	-10.3771
▁Jun	-10.3802
eight	-10.3807
eries	-10.3814
ecuti	-10.3815
▁cor	-10.3823
▁Provi	-10.3824
▁Lum	-10.3827
anks	-10.3864
▁fell	-10.388
▁Sc	-10.3885
▁regula	-10.3894
lo	-10.3913
▁access	-10.3919
-1	-10.3943
▁wag	-10.3945
standing	-10.3962
ctively	-10.3973
cation	-10.3982
▁Cali	-10.399
mote	-10.4028
9.	-10.4032
responde	-10.4042
lis	-10.4091
ike	-10.4114
ek	-10.4121
46	-10.4126
▁Fat	-10.4146
turb	-10.4151
ifie	-10.4159
nk	-10.4164
▁Spa	-10.4172
ire	-10.4188
▁Jai	-10.4191
▁ro	-10.4206
orus	-10.4212
rate	-10.4225
▁respons	-10.423
ste	-10.4234
▁Estonia	-10.4284
▁Aqu	-10.4291
▁Cla	-10.4301
asure	-10.4307
▁und	-10.4313
▁194	-10.4314
د	-10.4315
58	-10.4316
▁Henr	-10.4316
presented	-10.4327
wi	-10.4329
ovie	-10.4336
▁partners	-10.4339
▁190	-10.434
▁Go	-10.4366
▁assu	-10.4368
rig	-10.4378
ual	-10.438
5.	-10.4392
▁Map	-10.4403
▁Va	-10.4416
da	-10.4427
RT	-10.4439
anc	-10.4461
▁prior	-10.4469
tac	-10.4482
6)	-10.4486
cum	-10.4488
▁sho	-10.4494
66	-10.4497
ication	-10.4507
andra	-10.4512
nic	-10.4519
▁Cit	-10.4523
log	-10.4536
io	-10.455
tsche	-10.4551
7/	-10.4556
which	-10.4556
work	-10.4581
ingham	-10.4586
derland	-10.4586
ubsequently	-10.4591
▁observ	-10.4592
acre	-10.4593
stuf	-10.4594
▁spr	-10.4604
▁Rec	-10.4619
profit	-10.4621
▁composit	-10.4626
▁requir	-10.4626
two	-10.4627
▁col	-10.463
cha	-10.463
6.	-10.4642
▁Ve	-10.4648
85	-10.4648
▁Bio	-10.465
present	-10.4655
Revi	-10.4664
alist	-10.4666
New	-10.4686
Partner	-10.4687
▁Je	-10.4689
who	-10.4691
fair	-10.4695
uli	-10.4708
▁har	-10.4718
▁Prote	-10.4725
9)	-10.4726
▁Arn	-10.4728
▁Karl	-10.4729
▁compete	-10.4729
ellow	-10.4735
ola	-10.4742
oxy	-10.4743
▁admi	-10.4747
League	-10.4748
functional	-10.4786
▁acqui	-10.4787
▁7,	-10.4791
known	-10.4794
7–	-10.4795
four	-10.4807
Persian	-10.4809
north	-10.4813
64	-10.4813
▁report	-10.4814
MHz	-10.4815
ottery	-10.4834
▁pari	-10.4836
stream	-10.4839
family	-10.484
▁ent	-10.4844
With	-10.4844
Arabic	-10.4845
week	-10.4845
Clemmensen	-10.4846
forward	-10.4854
Highway	-10.4858
Kish	-10.4859
century	-10.4861
families	-10.4864
Acco	-10.4865
Pacific	-10.4866
Russian	-10.4868
track	-10.4869
Davis	-10.4874
brown	-10.4874
Sports	-10.4875
chair	-10.4877
▁studie	-10.4877
fflin	-10.4881
Z	-10.4882
author	-10.4882
yellow	-10.4883
mark	-10.4884
mberg	-10.4886
body	-10.4888
▁Lit	-10.4888
charge	-10.4891
und	-10.4891
trie	-10.4891
On	-10.4898
▁stabl	-10.49
TV	-10.4901
rupt	-10.4901
Day	-10.4901
▁Gam	-10.4901
graduate	-10.4902
Dec	-10.4904
Note	-10.4906
▁Ad	-10.4907
portion	-10.492
▁creat	-10.492
classifi	-10.4926
▁1974	-10.4927
▁1953	-10.4927
MS	-10.4933
temporary	-10.4934
▁Conservat	-10.4936
stat	-10.4946
emp	-10.4958
rad	-10.4958
SC	-10.496
FC	-10.496
▁Pro	-10.4965
▁1976	-10.4966
▁fla	-10.4978
▁Pop	-10.4987
collect	-10.4999
hoo	-10.5002
▁53	-10.5007
found	-10.5011
▁Barb	-10.5011
Cle	-10.5011
ield	-10.5012
▁tournament	-10.5025
▁cobble	-10.5026
▁chapter	-10.5029
37	-10.5031
▁wi	-10.5033
parent	-10.5037
gna	-10.5037
join	-10.5046
▁technique	-10.5046
illa	-10.5054
▁lyric	-10.5055
▁fel	-10.5055
Her	-10.5057
ier	-10.5058
ternal	-10.5061
▁moth	-10.5071
▁Fro	-10.5074
▁serv	-10.5078
six	-10.5083
-95	-10.5087
▁35	-10.5088
yal	-10.509
▁1972	-10.5096
300	-10.5108
▁spot	-10.5114
ologist	-10.5117
alogue	-10.5118
▁prepar	-10.5119
rit	-10.5121
2018)	-10.5122
ained	-10.5122
▁meta	-10.5122
▁drop	-10.5123
893	-10.514
▁request	-10.5143
bec	-10.5143
encies	-10.5144
▁outlin	-10.5146
lowe	-10.5146
Cl	-10.5152
olution	-10.5155
▁display	-10.516
▁Winni	-10.5162
▁function	-10.5175
erged	-10.5176
ref	-10.5179
tribution	-10.518
▁Sea	-10.5181
▁structur	-10.5182
▁Opera	-10.5182
▁Republic	-10.5184
compos	-10.5185
▁share	-10.5187
1–2	-10.519
phone	-10.519
▁Geograph	-10.5193
▁Pe	-10.5197
▁Centr	-10.5201
▁Wil	-10.5205
hur	-10.5206
▁Colleg	-10.5208
▁influen	-10.5212
hird	-10.5213
▁Africa	-10.5214
hallenge	-10.5217
▁notabl	-10.522
cogniti	-10.5224
▁architectur	-10.5225
nning	-10.5226
spective	-10.5229
▁financ	-10.523
▁deploy	-10.5233
▁rel	-10.5234
▁restrict	-10.5235
68.	-10.5235
ø	-10.5244
▁Achieve	-10.5247
▁Punjab	-10.5248
▁govern	-10.5249
▁industri	-10.5252
ebsite	-10.5257
▁column	-10.5258
reamery	-10.5259
unicipality	-10.526
strict	-10.5262
▁Org	-10.5262
▁respect	-10.5263
▁fact	-10.5264
xpansion	-10.5265
▁carrie	-10.5265
scribe	-10.5265
▁differ	-10.5268
▁Final	-10.5268
Assembl	-10.5269
▁£	-10.5269
technology	-10.527
9788175968295.	-10.527
▁978-967-	-10.527
▁assassinat	-10.527
▁sovereignty	-10.527
Diagno	-10.527
▁KDUB	-10.527
▁Virgin	-10.527
▁authentic	-10.527
$50,000	-10.527
.191404701	-10.527
:10.1039/	-10.527
Köppen	-10.527
LASD	-10.527
NRHP	-10.527
gruppe	-10.527
tagonist	-10.527
′′	-10.527
▁1,051	-10.527
▁Aesthetic	-10.527
▁Afghanistan	-10.527
▁Aladdin	-10.527
▁Amarnath	-10.527
▁Arkansas	-10.527
▁Beresford	-10.527
▁Berkeley	-10.527
▁Bombay	-10.527
▁Bowdoin	-10.527
▁BraveStarr	-10.527
▁Britannica	-10.527
▁Clothes	-10.527
▁Costume	-10.527
▁Customers	-10.527
▁DeMonts	-10.527
▁Demeulemeester	-10.527
▁Enactment	-10.527
▁Florianópolis	-10.527
▁Ghostbusters	-10.527
▁Grotesque	-10.527
▁Hawaii	-10.527
▁Independen	-10.527
▁Indosiar	-10.527
▁KLBK	-10.527
▁Kaleidoscope	-10.527
▁Kitchener	-10.527
▁Kolkata	-10.527
▁Malacca	-10.527
▁Manitoba	-10.527
▁McGuire	-10.527
▁Mecosta	-10.527
▁Mendocino	-10.527
▁Mermaid	-10.527
▁Noctuidae	-10.527
▁Panguitch	-10.527
▁Peninsula	-10.527
▁Pravda	-10.527
▁Problem	-10.527
▁Roscommon	-10.527
▁Salzburg	-10.527
▁Scotland	-10.527
▁Soccer	-10.527
▁Sponsors	-10.527
▁Stuttgart	-10.527
▁Sydney	-10.527
▁Technology	-10.527
▁UNESCO	-10.527
▁Vzglyad	-10.527
▁Wisconsin	-10.527
▁Writers	-10.527
▁Yevgen	-10.527
▁affairs	-10.527
▁autobiography	-10.527
▁bacteriophages	-10.527
▁bankruptcy	-10.527
▁carbenoid	-10.527
▁celebrate	-10.527
▁centuries	-10.527
▁cholestane	-10.527
▁colleagues	-10.527
▁conjugation	-10.527
▁corporation	-10.527
▁diploma	-10.527
▁enzymes	-10.527
▁framework	-10.527
▁gunfire	-10.527
▁holiday	-10.527
▁independence	-10.527
▁institutes	-10.527
▁klimeschiella	-10.527
▁locomotive	-10.527
▁manipulation	-10.527
▁orchestras	-10.527
▁pedestrian	-10.527
▁permission	-10.527
▁phenotype	-10.527
▁prototype	-10.527
▁recommend	-10.527
▁reputation	-10.527
▁sluggi	-10.527
▁troops	-10.527
▁waterfowl	-10.527
coordinate	-10.527
▁Keeler	-10.527
▁sediment	-10.527
▁target	-10.527
olfpacks	-10.527
▁Catholic	-10.527
▁Davenport	-10.527
▁Isaac	-10.527
▁Laxmi	-10.527
▁Methylengruppe	-10.527
▁Organization	-10.527
▁People	-10.527
▁SABR	-10.527
▁Specific	-10.527
▁Temenggung	-10.527
▁Viljandi	-10.527
▁Widtsoe	-10.527
▁audience	-10.527
▁behavior	-10.527
▁glycosylation	-10.527
▁grandfather	-10.527
▁gristmill	-10.527
▁instrumental	-10.527
▁latitud	-10.527
▁memory	-10.527
▁motorcycles	-10.527
▁torpedo	-10.527
123909	-10.527
Cooperative	-10.527
▁(1969)	-10.527
▁ESPN	-10.527
▁Liaison	-10.527
▁intestine	-10.527
▁judicia	-10.527
▁scouting	-10.527
▁Benzer	-10.527
▁Calcu	-10.527
▁Closet	-10.527
▁Cobras	-10.527
▁Gratia	-10.527
▁Origin	-10.527
▁Salmonella	-10.527
▁Violin	-10.527
▁Yamamura	-10.527
▁cardinal	-10.527
▁laptop	-10.527
▁lecture	-10.527
▁partisans	-10.527
HAER	-10.527
▁stretch	-10.527
▁2013–14	-10.527
▁20:20	-10.527
▁Wreck	-10.527
▁suicide	-10.527
▁Nieves	-10.527
▁conservat	-10.527
▁Mohammad	-10.527
▁enhanc	-10.527
ategory	-10.527
▁ideology	-10.527
▁schooner	-10.527
▁problem	-10.527
▁suffer	-10.527
▁creek	-10.527
▁Buchan	-10.527
▁temper	-10.527
▁tennis	-10.527
▁Vedej	-10.527
▁broadcast	-10.527
▁pattern	-10.527
▁Guarneriana	-10.527
▁Lenski	-10.527
▁metaphysic	-10.527
▁thoroughfare	-10.527
▁correlate	-10.527
▁differences	-10.527
onymous	-10.527
▁Rosier	-10.527
▁batsman	-10.527
▁collaborat	-10.527
▁journey	-10.527
▁Encyclopedia	-10.527
▁shingles	-10.527
bilities	-10.527
Aarau	-10.527
▁civic	-10.527
▁Friedrich	-10.527
▁Locke	-10.527
▁Profil	-10.527
▁vehicle	-10.527
▁Pauper	-10.527
▁drinks	-10.527
▁future	-10.527
Tauris	-10.527
▁actress	-10.527
▁consciousness	-10.527
▁unionist	-10.527
▁metaboli	-10.527
▁pursue	-10.527
▁fresh	-10.5271
▁Brezn	-10.5271
▁Ardmore	-10.5271
KMK	-10.5271
▁Hartley	-10.5271
▁Polynesia	-10.5271
▁Troms	-10.5271
▁cabin	-10.5271
▁racecourse	-10.5271
▁biotechnology	-10.5271
▁2013–201	-10.5271
▁molecul	-10.5271
▁recruit	-10.5271
Arte	-10.5271
▁Rockport	-10.5271
▁nineteen	-10.5271
▁cancer	-10.5271
▁exposure	-10.5271
▁voice	-10.5271
▁Handbook	-10.5271
▁Japan	-10.5271
▁Chemistry	-10.5271
▁Wesley	-10.5271
▁Passion	-10.5271
▁Program	-10.5271
▁Sudan	-10.5271
▁domain	-10.5271
PSP	-10.5271
▁Eagle	-10.5271
▁exception	-10.5271
oxygen	-10.5271
▁Project	-10.5271
▁hetero	-10.5271
▁treatment	-10.5271
▁ocz	-10.5271
▁Bluff	-10.5271
▁address	-10.5271
▁deput	-10.5271
hunters	-10.5271
▁£20	-10.5271
▁Eben	-10.5271
▁dinner	-10.5271
▁metaph	-10.5271
▁anhydrous	-10.5271
▁extension	-10.5271
▁child	-10.5271
▁volunt	-10.5271
▁antigen	-10.5271
translation	-10.5271
▁Shield	-10.5271
▁improv	-10.5271
▁ŠK	-10.5271
▁Dodgers	-10.5271
▁plywood	-10.5271
▁clear	-10.5271
ин	-10.5271
▁administer	-10.5271
▁bottom	-10.5271
▁decline	-10.5272
▁(1951)	-10.5272
ес	-10.5272
▁candida	-10.5272
▁epis	-10.5272
▁narrow	-10.5272
▁Trinity	-10.5272
escap	-10.5272
▁Theatres	-10.5272
1759	-10.5272
▁arrang	-10.5272
▁Reduction	-10.5272
▁deliver	-10.5272
▁Kanun	-10.5272
▁strength	-10.5272
▁Luria	-10.5272
ENM	-10.5272
▁Korth	-10.5272
▁pictures	-10.5272
biology	-10.5272
▁Drama	-10.5272
▁civilian	-10.5272
▁spread	-10.5272
▁absence	-10.5273
▁beneath	-10.5273
▁words	-10.5273
▁Hersey	-10.5273
▁Vilj	-10.5273
▁campaign	-10.5273
▁losses	-10.5273
▁survivors	-10.5273
▁bottle	-10.5273
inemane	-10.5273
▁Markus	-10.5273
▁Monument	-10.5273
▁desert	-10.5273
▁doctor	-10.5273
▁stories	-10.5273
aircraft	-10.5273
▁Nú	-10.5273
▁(1986)	-10.5273
▁Intensive	-10.5273
scope	-10.5273
▁Gulf	-10.5273
pontane	-10.5274
▁disorder	-10.5274
51–	-10.5274
Buzz	-10.5274
▁assistance	-10.5274
▁Fortun	-10.5274
▁beaut	-10.5274
▁tribe	-10.5274
lub	-10.5274
▁Entertainment	-10.5274
▁glacia	-10.5274
▁relegation	-10.5274
▁Birds	-10.5274
▁himself	-10.5274
▁compris	-10.5275
▁favor	-10.5275
▁correct	-10.5275
▁constant	-10.5275
▁Morning	-10.5275
▁boundary	-10.5275
▁medium	-10.5275
▁expansion	-10.5275
▁confront	-10.5276
▁Kardar	-10.5276
▁Sportsline	-10.5276
▁analys	-10.5276
▁conflict	-10.5276
▁Princeton	-10.5276
▁Woll	-10.5276
EEA	-10.5276
▁Atlantic	-10.5276
▁$25	-10.5276
▁exact	-10.5276
▁shake	-10.5277
▁1857.	-10.5277
▁Sessions	-10.5277
▁Castle	-10.5277
▁novel	-10.5277
▁681	-10.5277
▁Sinha	-10.5277
▁modification	-10.5277
▁rapid	-10.5278
▁Mathers	-10.5278
▁eighteenth	-10.5278
▁associationist	-10.5278
ticipa	-10.5278
▁adopt	-10.5278
▁Rouge	-10.5278
expected	-10.5279
▁riding	-10.5279
▁29.3	-10.5279
▁brick	-10.5279
▁Atlant	-10.528
▁detect	-10.528
▁Money	-10.528
▁immatur	-10.528
▁legalisation	-10.528
▁Point	-10.528
▁Municipality	-10.528
▁Columb	-10.528
je	-10.528
▁exclu	-10.5281
▁appointment	-10.5281
▁translat	-10.5281
cumen	-10.5281
omestead	-10.5281
EL	-10.5281
▁paler	-10.5281
▁Hopper	-10.5282
▁Frost	-10.5282
▁creamery	-10.5282
▁assign	-10.5282
overty	-10.5282
▁Singh	-10.5283
▁guest	-10.5283
▁Stan	-10.5283
▁unreleased	-10.5283
Tu	-10.5283
▁wildlife	-10.5284
▁regency	-10.5284
▁Kids	-10.5284
▁expir	-10.5284
▁YC	-10.5284
▁Domin	-10.5285
▁Comb	-10.5285
▁respectively	-10.5285
▁Thorn	-10.5285
▁governor	-10.5285
▁attach	-10.5285
▁monthly	-10.5285
▁Grave	-10.5285
▁Crew	-10.5285
▁Draft	-10.5285
▁traffic	-10.5286
▁oak	-10.5286
▁appeal	-10.5286
▁facility	-10.5286
Stanwood	-10.5287
crop	-10.5287
▁stool	-10.5287
▁Score	-10.5288
▁genetic	-10.5289
▁Hague	-10.5289
isk	-10.5289
schu	-10.5289
▁faculty	-10.5289
▁(1996)	-10.529
▁descend	-10.529
▁Buck	-10.5291
▁Strange	-10.5291
-09	-10.5291
▁popularity	-10.5291
▁(1956)	-10.5291
▁cartoon	-10.5291
▁fluent	-10.5291
Hil	-10.5291
▁1–0	-10.5292
▁Encyclop	-10.5292
▁Punjabi	-10.5292
▁Channel	-10.5292
▁Laut	-10.5292
ædia	-10.5292
▁Vla	-10.5293
ization	-10.5293
chule	-10.5293
▁grass	-10.5294
▁Baden	-10.5294
▁Brun	-10.5294
▁academic	-10.5294
▁innovation	-10.5295
Gazette	-10.5295
▁authorit	-10.5295
▁hydrogen	-10.5295
▁(2014)	-10.5295
▁(1942)	-10.5296
▁Earth	-10.5296
▁Moz	-10.5296
▁intro	-10.5296
▁97.	-10.5296
søy	-10.5296
▁Chair	-10.5296
▁Work	-10.5297
▁concern	-10.5297
▁Body	-10.5298
▁Defen	-10.5298
▁advance	-10.5298
▁1787	-10.5299
▁achievement	-10.5299
▁classical	-10.5299
▁psycholog	-10.5301
▁Communication	-10.5301
printed	-10.5302
▁Doct	-10.5303
oxins	-10.5303
teca	-10.5304
▁lobe	-10.5304
▁replay	-10.5305
▁fighter	-10.5305
▁Suz	-10.5305
▁Commerc	-10.5305
▁33-	-10.5305
▁1,1	-10.5306
ák	-10.5306
ophan	-10.5307
▁highlight	-10.5307
▁deployment	-10.5308
motions	-10.5308
▁1838	-10.531
▁Oz	-10.531
ively	-10.531
pathy	-10.5311
▁deadl	-10.5311
▁Sound	-10.5312
▁Elvi	-10.5312
enact	-10.5312
▁sym	-10.5313
▁Beast	-10.5313
laugh	-10.5314
▁Comp	-10.5314
▁pick	-10.5314
▁2001–	-10.5314
▁observation	-10.5315
▁restriction	-10.5315
▁crow	-10.5315
▁topic	-10.5316
▁feeling	-10.5316
▁vac	-10.5317
▁unlocked	-10.5317
▁Finally	-10.5317
▁registered	-10.5317
▁pop	-10.5318
▁1824	-10.5318
mediate	-10.5318
▁1877	-10.5319
lain	-10.5319
▁dismissed	-10.5319
estone	-10.5319
▁segment	-10.5319
APIA	-10.532
▁Moses	-10.532
▁1972)	-10.532
▁Hoff	-10.532
▁autonomy	-10.5321
▁Cata	-10.5321
▁Sub	-10.5322
▁medal	-10.5322
737	-10.5323
▁donation	-10.5323
▁Palaz	-10.5323
▁manu	-10.5323
▁challeng	-10.5323
▁(11	-10.5324
▁Army	-10.5324
▁insight	-10.5325
Harris	-10.5326
roads	-10.5326
▁fix	-10.5326
▁bird	-10.5326
▁1826	-10.5329
mbass	-10.533
▁Up	-10.533
geme	-10.5331
tension	-10.5331
▁1792	-10.5333
▁obs	-10.5333
▁enable	-10.5334
▁vary	-10.5334
▁attract	-10.5336
▁Indo	-10.5336
0.65	-10.5337
▁sixty	-10.5338
▁key	-10.5338
▁1981)	-10.5339
solid	-10.5339
▁Gallen	-10.534
▁1933	-10.5341
ensen	-10.5342
▁Gila	-10.5344
▁button	-10.5345
▁kille	-10.5346
▁2010-4	-10.5346
kum	-10.5347
▁lessen	-10.5349
▁Step	-10.5351
▁1929	-10.5353
bacterium	-10.5353
▁1842	-10.5353
▁attain	-10.5353
▁122	-10.5353
▁confusa	-10.5354
▁USA	-10.5355
carriage	-10.5355
nnes	-10.5357
▁difficulty	-10.5357
▁recently	-10.5357
▁applica	-10.5357
▁Ahm	-10.5359
▁Alg	-10.5359
phy	-10.5359
▁Post	-10.5361
▁Operation	-10.5361
▁Kost	-10.5362
▁Long	-10.5362
▁hotels	-10.5363
▁decades	-10.5363
safe	-10.5363
▁pupils	-10.5363
▁matters	-10.5363
▁1950)	-10.5363
▁girls	-10.5364
▁studi	-10.5364
▁Guer	-10.5364
▁slo	-10.5365
▁1880	-10.5365
▁slow	-10.5366
▁1939	-10.5366
▁slots	-10.5366
stant	-10.537
9.5	-10.537
▁doors	-10.5371
▁speakers	-10.5371
▁1959	-10.5371
▁musician	-10.5371
522.	-10.5371
▁Luci	-10.5374
▁bits	-10.5374
▁1973	-10.5376
▁army	-10.5376
satisf	-10.5376
Studies	-10.5377
▁2009–	-10.5379
alk	-10.538
flex	-10.538
▁researchers	-10.5382
▁195	-10.5384
▁Giu	-10.5385
▁agreed	-10.5386
▁camp	-10.5386
▁Dance	-10.5386
ji	-10.5388
harves	-10.5388
ool	-10.539
▁retain	-10.539
▁App	-10.539
udio	-10.5393
diman	-10.5394
▁1951	-10.5394
▁workers	-10.5398
▁Sway	-10.5399
▁Sales	-10.5399
▁requested	-10.54
▁displayed	-10.5402
cousin	-10.5404
▁7.6	-10.5406
▁2016–	-10.5406
▁1984.	-10.5406
▁1998.	-10.5407
▁IT	-10.5407
▁1923	-10.5407
-20	-10.5408
▁1945	-10.5408
▁1890	-10.5409
migrat	-10.541
▁1871	-10.5411
hood	-10.5412
▁detail	-10.5414
▁1967	-10.5415
▁Night	-10.5417
▁adapt	-10.5418
onqu	-10.5419
azon	-10.5419
▁bookies	-10.542
rwo	-10.542
▁Rock	-10.5421
▁Plan	-10.5421
Pri	-10.5422
▁gui	-10.5423
▁Fin	-10.5424
kW	-10.5425
▁(37.	-10.5426
▁Marsh	-10.5426
8.3	-10.5426
▁1879	-10.543
▁votes	-10.543
▁vein	-10.543
14).	-10.5432
▁wit	-10.5434
▁gangs	-10.5434
types	-10.5435
▁Jose	-10.5435
1.5/	-10.5435
ég	-10.5437
▁Mrs	-10.5439
▁Havi	-10.544
aire	-10.5441
▁Daya	-10.5442
▁PC	-10.5443
▁carbon	-10.5444
▁data	-10.5444
▁Nest	-10.5444
▁cellul	-10.5445
▁drift	-10.5446
▁apart	-10.5446
▁Portug	-10.5448
▁moral	-10.5448
▁1807	-10.5449
▁Poll	-10.5449
▁ap	-10.545
▁clu	-10.545
▁Farm	-10.545
▁voyage	-10.5453
▁registration	-10.5454
▁Business	-10.5454
▁Coleophor	-10.5454
▁230	-10.5455
▁Johann	-10.5455
▁Turk	-10.5455
▁Kri	-10.5456
▁Bul	-10.5459
ocated	-10.5463
▁stroke	-10.5464
▁synthesis	-10.5467
▁Portland	-10.5467
▁1916	-10.5468
▁shares	-10.5468
▁grey	-10.5469
▁Green	-10.547
▁1.4	-10.5471
▁86	-10.5471
▁industries	-10.5472
▁Bap	-10.5472
Dun	-10.5472
istry	-10.5472
▁motor	-10.5475
Minor	-10.5475
▁shipp	-10.548
▁1851	-10.5484
venture	-10.5484
3.9	-10.5487
1965)	-10.549
olk	-10.5491
▁letter	-10.5492
▁scale	-10.5496
▁Eye	-10.5498
denominationally	-10.5499
▁Bang	-10.5505
moni	-10.5506
limb	-10.5507
msel	-10.5509
rcade	-10.5511
ookmakers	-10.5513
onville	-10.5514
▁Mou	-10.5515
▁criticiz	-10.5518
▁Raj	-10.5519
▁cobbles	-10.552
▁chapters	-10.552
▁tournaments	-10.5521
▁(14	-10.5527
▁forests	-10.5527
▁Bro	-10.5534
▁1924.	-10.5535
ters	-10.5539
ata	-10.5542
var	-10.5544
bour	-10.5545
▁moths	-10.5545
▁Op	-10.5546
apped	-10.5547
▁enact	-10.5553
ardo	-10.5555
▁Nali	-10.5555
▁Republican	-10.5556
▁imag	-10.5557
▁Sab	-10.5558
▁Head	-10.5558
▁slid	-10.5558
▁Ar	-10.556
▁Fu	-10.5563
▁Hom	-10.5566
azz	-10.5566
▁simpl	-10.5567
▁supervisi	-10.5568
▁(17	-10.5568
▁(186	-10.557
▁Scoutsp	-10.557
cl	-10.5571
▁Command	-10.5574
▁Hof	-10.5575
raffic	-10.5577
sville	-10.5581
4–	-10.5581
▁Ferr	-10.5582
▁Joy	-10.5583
▁1932	-10.5583
▁forest	-10.5583
▁discusse	-10.5586
▁gro	-10.5588
▁Cats	-10.5589
▁Cast	-10.559
tial	-10.559
▁viol	-10.5594
rovi	-10.5596
reš	-10.5597
▁Maria	-10.5598
▁Fish	-10.5599
▁ruler	-10.5601
▁56	-10.5603
898	-10.5604
▁explorer	-10.5604
▁Kent	-10.5604
▁Smit	-10.5609
▁1907	-10.5609
▁Dres	-10.5616
▁(1946	-10.5617
▁temporary	-10.5617
boo	-10.5621
mouth	-10.5622
form	-10.5623
transparent	-10.5623
▁classifi	-10.5625
orning	-10.5629
▁Heav	-10.5631
▁cons	-10.5633
avor	-10.5634
▁emotions	-10.5636
aty	-10.5636
▁spo	-10.5637
alkyl	-10.564
▁1953.	-10.564
rvey	-10.564
▁1974.	-10.5643
thletic	-10.5644
▁Dra	-10.5649
▁beach	-10.565
1982	-10.5651
late	-10.5652
▁flat	-10.5654
▁Bean	-10.5655
▁But	-10.5657
▁concert	-10.5657
▁Tom	-10.5658
▁Rau	-10.5661
ON	-10.5663
▁1861	-10.5667
▁raid	-10.5668
▁margins	-10.5668
▁trip	-10.567
000	-10.5672
ctuary	-10.5673
▁observe	-10.5674
matical	-10.5676
adha	-10.5677
▁options	-10.5678
▁brothers	-10.5681
▁Lib	-10.5682
▁machines	-10.5682
▁railroads	-10.5682
▁backgrounds	-10.5683
eme	-10.5686
▁applications	-10.5686
▁Stores	-10.5687
-12)	-10.5688
gic	-10.5693
▁Don	-10.5693
uda	-10.5695
ited	-10.5697
daco	-10.5698
▁processing	-10.57
rned	-10.5703
onso	-10.5703
▁cost	-10.5704
▁officer	-10.5705
▁num	-10.5711
iscover	-10.5712
▁(200	-10.5718
ana	-10.5719
lage	-10.5721
▁agree	-10.5727
▁102	-10.573
IP	-10.5731
arding	-10.5735
▁unif	-10.5738
▁namely	-10.5742
nau	-10.5746
▁MHz	-10.5746
▁bring	-10.5746
▁Hole	-10.5751
▁Paha	-10.5752
▁how	-10.5753
▁Persian	-10.5753
▁Mc	-10.5756
sensi	-10.5757
alists	-10.5758
▁1924	-10.5764
▁speci	-10.5769
▁1927.	-10.5774
4-	-10.5781
zo	-10.579
elles	-10.5792
▁$2	-10.5793
▁Can	-10.5794
strate	-10.5798
▁1981.	-10.5799
4/	-10.5801
▁capita	-10.5809
▁Cent	-10.581
yards	-10.5811
▁Cope	-10.5819
▁care	-10.5826
02	-10.5839
▁CF	-10.5842
▁sawmills	-10.5844
▁submarines	-10.5844
▁ambassadors	-10.5844
mployee	-10.5848
aq	-10.5852
▁Foot	-10.5852
lement	-10.5854
night	-10.5855
▁161	-10.586
▁Disco	-10.586
–19	-10.5862
▁status	-10.5866
▁89	-10.5867
▁nav	-10.588
che	-10.588
▁functional	-10.5881
ages	-10.5881
31	-10.5893
2,0	-10.5901
rich	-10.5902
Ha	-10.5903
▁insist	-10.591
Studio	-10.591
▁provided	-10.5911
ag	-10.5911
▁Capit	-10.5916
▁standing	-10.5916
▁deer	-10.5925
llocation	-10.5927
▁means	-10.5927
ckel	-10.5928
▁diagnos	-10.5938
iya	-10.5942
ries	-10.5942
team	-10.5943
▁Redu	-10.5945
terf	-10.595
1,000	-10.5954
rapper	-10.5955
▁Geographic	-10.5958
ading	-10.5963
▁Federat	-10.5973
▁corr	-10.5975
▁wars	-10.5976
eum	-10.5977
▁Need	-10.5981
mora	-10.5988
▁1992.	-10.5989
▁listing	-10.5991
later	-10.5993
▁Edit	-10.5993
constitutional	-10.5993
▁subsequent	-10.6
▁Stat	-10.6
mixed	-10.6004
tin	-10.6007
▁Dary	-10.6009
▁collections	-10.601
ella	-10.6011
ributaries	-10.6012
▁1340"	-10.603
rish	-10.603
uan	-10.6031
▁Mad	-10.6033
96	-10.6039
▁Spi	-10.6043
quer	-10.6045
▁fas	-10.6055
▁reg	-10.6057
1.9	-10.6057
▁10.1	-10.6061
▁Osc	-10.6064
▁conce	-10.6064
▁today	-10.6069
▁MS	-10.607
▁Keda	-10.6086
Ed	-10.6087
▁occurr	-10.6089
▁Prim	-10.6091
ently	-10.6095
overnment	-10.6096
onference	-10.6098
ahara	-10.6099
1953)	-10.61
▁1966	-10.6102
▁notes	-10.6102
▁treat	-10.6103
▁Spo	-10.6107
▁agent	-10.6111
▁FM	-10.6117
orrow	-10.6118
▁actual	-10.6119
▁Im	-10.6121
▁Mathe	-10.613
▁م	-10.6131
Duel	-10.6136
omputer	-10.615
▁Raider	-10.6152
▁priorit	-10.6159
▁Times	-10.6173
dict	-10.6184
▁shorte	-10.6184
▁Tart	-10.6204
enna	-10.6205
▁Kom	-10.6209
mitte	-10.6217
▁22	-10.6219
Han	-10.6223
siast	-10.6229
constructivism	-10.6236
ings	-10.6239
▁Chart	-10.6244
stance	-10.625
▁Swi	-10.6256
anavudu	-10.6257
▁Kal	-10.6257
bb	-10.626
▁mor	-10.6261
▁1970.	-10.6268
ked	-10.627
▁prepare	-10.6279
▁charit	-10.6279
▁Sha	-10.629
▁migra	-10.6291
▁alon	-10.6292
esse	-10.6304
▁editions	-10.6321
اد	-10.6323
▁districts	-10.6328
▁organi	-10.6334
pri	-10.6335
▁discre	-10.6352
▁ski	-10.6357
5–1	-10.6361
pedi	-10.6368
▁Lay	-10.637
iv	-10.6372
76	-10.6387
rise	-10.64
BL	-10.6408
ob	-10.6415
ously	-10.6416
3–2	-10.643
▁chemi	-10.6434
carbon	-10.6439
obi	-10.6442
▁191	-10.6442
rrn	-10.6449
▁prote	-10.6452
▁fam	-10.6452
▁owner	-10.6453
▁6.2	-10.6454
yl	-10.6454
▁2013.	-10.6467
▁Seri	-10.6475
elve	-10.6476
tures	-10.6476
▁jo	-10.6481
▁stores	-10.6495
▁50.	-10.6504
fi	-10.6531
ré	-10.6531
▁Bell	-10.6538
▁whe	-10.6551
▁Even	-10.6561
..	-10.6567
▁0.4	-10.6571
imate	-10.6578
ds	-10.6579
ece	-10.6584
▁Thame	-10.6585
uart	-10.6587
ract	-10.6601
▁waters	-10.6613
spi	-10.6614
terminate	-10.6628
1.5	-10.6639
▁span	-10.6641
laci	-10.6643
ched	-10.6649
▁Blu	-10.665
arrier	-10.6653
sea	-10.6667
▁Henri	-10.6672
▁leagues	-10.6673
▁fined	-10.6677
▁friend	-10.6679
▁Sey	-10.6686
van	-10.6687
▁1910	-10.6696
▁25.	-10.6703
lay	-10.6736
▁habit	-10.6749
tta	-10.6752
igation	-10.6755
▁indi	-10.676
▁0.9	-10.6763
▁Jos	-10.6769
▁2005.	-10.6774
rek	-10.6783
▁hal	-10.6787
BA	-10.679
len	-10.6794
▁carri	-10.6803
evelopment	-10.6806
▁Or	-10.681
etc	-10.6825
eased	-10.6831
du	-10.6832
commenc	-10.6834
▁structures	-10.6838
▁plane	-10.6848
SA	-10.6855
ient	-10.6865
tar	-10.6868
mpou	-10.6869
▁Darr	-10.6869
epression	-10.687
▁frequent	-10.6881
▁strea	-10.689
strange	-10.6894
▁Cle	-10.6899
▁underg	-10.6908
▁elevat	-10.691
oqui	-10.6927
▁Sand	-10.6933
ej	-10.6933
▁Pari	-10.6937
▁Aadh	-10.6944
ept	-10.6979
▁Councils	-10.698
har	-10.6988
roup	-10.6992
▁Hus	-10.702
tters	-10.7025
poor	-10.7043
▁assur	-10.7046
32	-10.7047
▁Gau	-10.7057
▁sa	-10.7062
▁solve	-10.7063
▁Bri	-10.7065
ud	-10.7076
fan	-10.7076
ash	-10.7077
gua	-10.7077
▁complexit	-10.708
celerating	-10.7082
gula	-10.7086
rious	-10.7088
rice	-10.7099
▁Shor	-10.7099
▁Wor	-10.7103
illingham	-10.7104
▁Gor	-10.7126
▁(165	-10.714
▁Bal	-10.7158
▁commun	-10.7171
atic	-10.7173
inning	-10.7186
prehen	-10.7188
kk	-10.7189
▁strip	-10.7197
gon	-10.7202
▁Tat	-10.7208
ID	-10.7212
▁thr	-10.722
▁emerge	-10.7252
▁Cont	-10.7272
steer	-10.7273
LT	-10.728
▁Mau	-10.729
▁titles	-10.729
▁say	-10.7313
kant	-10.7313
▁Holly	-10.7319
portswriter	-10.7322
ways	-10.7329
ress	-10.733
rch	-10.7332
hwa	-10.7334
117	-10.7344
Basin	-10.7347
ummer	-10.7352
▁weight	-10.7355
▁Norma	-10.7363
ange	-10.737
▁medic	-10.7371
▁Af	-10.7381
MA	-10.7389
pel	-10.7397
▁field	-10.74
sible	-10.7405
▁natur	-10.7423
▁2023.	-10.7436
2000)	-10.7436
▁193	-10.7439
▁advi	-10.7447
ennes	-10.7449
rane	-10.7455
eturn	-10.7456
▁123	-10.7462
ream	-10.7475
▁entrepreneur	-10.7476
uild	-10.7482
ius	-10.7488
rik	-10.7489
ames	-10.7497
▁Fine	-10.7499
ountain	-10.7503
▁professor	-10.7508
ermin	-10.7511
kund	-10.7516
lle	-10.7555
▁Eug	-10.7578
▁isolat	-10.7579
▁Four	-10.7582
▁vo	-10.7583
▁acet	-10.7583
ttle	-10.7584
▁Fore	-10.761
▁200	-10.7614
then	-10.7615
▁(182	-10.7621
OM	-10.7625
▁theatr	-10.7633
▁Indi	-10.7637
rival	-10.7641
phi	-10.7657
▁pri	-10.7664
▁cent	-10.768
▁2018.	-10.768
2015)	-10.7688
GM	-10.7693
,600	-10.7696
▁mo	-10.7702
40	-10.7751
▁Est	-10.7755
andon	-10.7771
▁47.	-10.7773
63.	-10.7774
▁Transf	-10.7784
8.	-10.7787
▁Christin	-10.7792
▁16.	-10.78
▁speciali	-10.7805
▁Hunt	-10.7836
▁insur	-10.7861
nel	-10.7862
reb	-10.7873
harp	-10.7912
sburg	-10.7928
ah	-10.7949
cleo	-10.7962
ented	-10.7969
▁1962	-10.7982
ngley	-10.801
egal	-10.8055
▁arti	-10.8058
▁Ble	-10.8072
–6	-10.808
938	-10.8095
pat	-10.8125
▁dive	-10.8134
Palest	-10.8145
▁park	-10.8154
itted	-10.8158
▁Unit	-10.8175
▁(75	-10.8176
▁Ga	-10.8192
Regan	-10.8199
iled	-10.8242
▁Mac	-10.8253
▁posit	-10.8299
iography	-10.8304
▁Cop	-10.8304
lung	-10.8313
▁Š	-10.8315
ale	-10.8322
tum	-10.834
ographic	-10.834
71.	-10.8353
pher	-10.8353
▁legislat	-10.8353
unda	-10.8372
▁Py	-10.8379
▁Nazi	-10.8379
▁tri	-10.8385
search	-10.839
rive	-10.8391
▁physiolog	-10.8392
.5	-10.8394
cher	-10.8405
city	-10.8405
faced	-10.8407
44	-10.8412
▁den	-10.8416
riv	-10.842
nflict	-10.8425
lent	-10.8427
▁3–	-10.8432
SK	-10.844
▁exercis	-10.844
▁res	-10.8471
▁Pena	-10.8479
plasm	-10.8496
nding	-10.8498
▁light	-10.8505
▁1-	-10.8528
▁173	-10.8533
ller	-10.8538
▁desir	-10.8555
▁IR	-10.8557
▁identifi	-10.8563
lph	-10.8566
▁rule	-10.8571
–3	-10.8575
amb	-10.8594
ivil	-10.8599
▁let	-10.8612
▁move	-10.8612
ible	-10.8614
uous	-10.862
tation	-10.8623
▁Proce	-10.8637
lie	-10.8644
itts	-10.8649
▁participa	-10.8658
▁achiev	-10.8665
▁Bran	-10.8714
ony	-10.8722
▁Sta	-10.8734
▁pat	-10.8741
balanc	-10.8751
enne	-10.8754
▁connecti	-10.8757
ncia	-10.8799
▁generat	-10.8802
hod	-10.8814
▁spen	-10.8815
▁starr	-10.8818
▁presen	-10.8823
counter	-10.8824
▁Wing	-10.8864
▁Rat	-10.8875
▁entertain	-10.8921
▁hi	-10.8931
▁Sara	-10.8971
▁Cas	-10.8981
gap	-10.8993
▁Frid	-10.9014
▁Ver	-10.9014
uff	-10.9029
company	-10.903
An	-10.9033
▁17.	-10.9033
▁Hel	-10.904
ugh	-10.9042
Ada	-10.9048
▁144	-10.9054
ail	-10.9055
▁vote	-10.907
tics	-10.9073
TO	-10.9086
think	-10.9088
ess	-10.9097
▁63	-10.9103
▁Full	-10.911
nded	-10.9113
adi	-10.9117
missed	-10.9148
▁Conve	-10.9155
▁ki	-10.9161
1832	-10.9184
▁focuse	-10.9204
tting	-10.9205
producer	-10.9223
tyle	-10.9238
ingle	-10.9247
▁Pl	-10.9254
nie	-10.9266
iko	-10.9273
nks	-10.9292
ów	-10.9297
avi	-10.93
raham	-10.9302
cen	-10.9306
emi	-10.9323
▁inten	-10.9333
▁practic	-10.9337
▁realis	-10.9362
ys	-10.9375
shi	-10.938
eless	-10.9382
▁nam	-10.9385
▁rul	-10.9389
▁mu	-10.9397
▁cont	-10.9436
▁Asto	-10.9445
▁releas	-10.9456
raj	-10.9468
trains	-10.9482
ilian	-10.9484
▁Hay	-10.9489
Mo	-10.9503
egan	-10.9511
▁practice	-10.9523
balance	-10.9536
ranch	-10.9538
ades	-10.954
▁anal	-10.9544
etone	-10.9557
69.	-10.956
93.	-10.956
gate	-10.9564
▁achieve	-10.958
▁remo	-10.9581
llow	-10.959
▁na	-10.9597
▁ones	-10.9599
440	-10.9601
eadquarter	-10.961
▁Gal	-10.9616
ically	-10.9622
▁map	-10.9625
av	-10.9639
rance	-10.9642
9–	-10.9646
hire	-10.9651
▁gl	-10.9665
▁Cos	-10.9682
▁57	-10.969
9.9	-10.9705
wever	-10.9722
▁Christ	-10.9743
▁increase	-10.9788
▁fl	-10.9788
3-	-10.9792
hallow	-10.9797
ost	-10.9798
▁151	-10.9803
▁Mus	-10.9816
▁sequenc	-10.9826
▁desire	-10.9856
spy	-10.9867
▁Uni	-10.987
ifi	-10.987
tur	-10.9871
▁exercise	-10.9875
▁shel	-10.9886
▁miss	-10.9887
llerton	-10.99
rill	-10.9903
ama	-10.992
flict	-10.9937
erman	-10.9937
▁Hod	-10.9959
▁separat	-10.9963
nard	-10.9964
▁fo	-10.9966
uel	-11.0006
dow	-11.0011
▁Špo	-11.0018
▁Roger	-11.004
endenc	-11.0057
lex	-11.0059
gal	-11.0078
▁Ford	-11.0079
▁Emi	-11.0079
▁Kath	-11.0097
▁fa	-11.0103
èn	-11.0104
neous	-11.0107
anti	-11.0116
▁sli	-11.014
▁raci	-11.015
netic	-11.0152
▁Dal	-11.0161
ss	-11.0167
caps	-11.0173
dha	-11.0173
uses	-11.0191
▁Hor	-11.0209
artnership	-11.0217
mportant	-11.0224
dors	-11.0241
rdan	-11.0267
done	-11.0275
▁Alde	-11.0287
▁Neg	-11.0295
▁180	-11.0347
▁verif	-11.0387
routine	-11.039
inc	-11.0391
ks	-11.0393
78.	-11.0413
▁card	-11.0414
▁insul	-11.0418
790	-11.0436
▁49	-11.044
igrant	-11.0492
turn	-11.0497
▁Secret	-11.051
▁Nam	-11.051
ces	-11.0519
ond	-11.054
lls	-11.0545
▁Slo	-11.0579
mber	-11.0583
▁(22	-11.0587
emier	-11.0591
emb	-11.0615
win	-11.0621
ycling	-11.063
bby	-11.0637
aka	-11.0641
▁Qu	-11.0641
pt	-11.0655
tator	-11.0659
cycl	-11.0683
equ	-11.0685
qui	-11.0686
▁graduat	-11.0689
ins	-11.0697
mó	-11.0698
ev	-11.0717
sket	-11.0724
tance	-11.0754
ferences	-11.0768
▁impa	-11.0773
▁Squa	-11.0779
▁183	-11.0782
▁Ag	-11.0784
sis	-11.0791
▁Dem	-11.0798
▁uph	-11.0802
7.	-11.0937
lan	-11.0946
▁Hans	-11.0947
erm	-11.0955
bay	-11.0956
▁Sy	-11.0966
▁MG	-11.0972
▁tak	-11.0988
▁Malaya	-11.1003
▁remov	-11.102
lphi	-11.1049
▁professors	-11.1054
▁Qua	-11.1055
▁60	-11.1072
au	-11.1096
nsecu	-11.1101
▁entrepreneurs	-11.1103
▁nationali	-11.1106
anco	-11.112
▁ed	-11.1122
nant	-11.1162
67	-11.1215
lif	-11.1224
Be	-11.1232
0,	-11.1277
▁ult	-11.1284
tted	-11.1291
–1	-11.1292
air	-11.1297
▁DO	-11.1308
so	-11.1325
▁adv	-11.1337
oid	-11.1352
ndan	-11.136
▁lighte	-11.1366
dem	-11.1374
eam	-11.1374
waite	-11.1378
3)	-11.1386
vision	-11.1406
▁aboli	-11.1414
15	-11.1415
▁Mano	-11.1436
7.7	-11.1444
used	-11.1465
ltra	-11.1473
sen	-11.1474
zes	-11.1477
ience	-11.1478
AB	-11.1495
gs	-11.1495
▁(24	-11.1524
15-	-11.1528
▁cooperate	-11.1543
ica	-11.1562
▁trad	-11.1565
▁Powe	-11.1574
propri	-11.1575
▁Mur	-11.1576
▁Dev	-11.1591
geno	-11.1592
▁Bu	-11.1601
him	-11.1604
10-	-11.1609
ates	-11.1623
evi	-11.1638
▁pres	-11.1659
ska	-11.1673
ccelerat	-11.168
▁complex	-11.1684
listed	-11.1694
AT	-11.1696
7–0	-11.1697
gles	-11.1698
▁remove	-11.1703
▁face	-11.1721
▁Americans	-11.1721
▁val	-11.1751
ban	-11.1754
22,	-11.1756
ymp	-11.1761
07.	-11.1766
ith	-11.1766
▁seasons	-11.1779
▁capt	-11.1782
xi	-11.1787
rder	-11.1793
▁fur	-11.1797
▁Ze	-11.1804
houses	-11.1817
products	-11.1819
ort	-11.1858
▁beat	-11.1874
emarkable	-11.1892
nvas	-11.1903
▁advertise	-11.1906
ord	-11.1915
unction	-11.1931
6%	-11.1931
publican	-11.1932
▁69	-11.1967
▁tur	-11.1969
2–	-11.1979
plain	-11.1987
udd	-11.199
▁conve	-11.1994
uge	-11.2001
▁ea	-11.2004
▁forme	-11.2006
▁gr	-11.2022
we	-11.2024
▁Ev	-11.2034
06	-11.2035
▁qualifi	-11.206
600	-11.2062
4–1	-11.2064
hol	-11.2064
56	-11.2071
▁terr	-11.2086
▁relate	-11.2095
▁Mich	-11.2095
▁Ph	-11.2096
▁Germans	-11.2112
hone	-11.2127
▁vot	-11.2146
pr	-11.2149
ets	-11.2151
1930	-11.2155
rest	-11.2184
otic	-11.2212
abitat	-11.2223
ndar	-11.2228
ndicate	-11.2237
▁Ham	-11.224
ailway	-11.2262
dat	-11.2263
uck	-11.2266
07-	-11.2274
▁thre	-11.2289
▁Cal	-11.2301
rly	-11.2304
▁AS	-11.2309
tree	-11.2316
curing	-11.2319
65	-11.233
cell	-11.2341
–8	-11.2361
bo	-11.2366
▁diss	-11.2383
▁aid	-11.2392
–194	-11.2395
rn	-11.2412
dium	-11.2429
werf	-11.2434
▁ag	-11.2438
oes	-11.2459
requently	-11.2459
▁SM	-11.247
▁$	-11.2479
sitions	-11.2491
version	-11.2507
22.	-11.2536
tful	-11.2541
▁cope	-11.2544
▁hel	-11.2545
gne	-11.2551
mpo	-11.2572
▁Eve	-11.2578
mitted	-11.2588
ctor	-11.2601
▁contr	-11.261
No	-11.2633
infer	-11.2639
▁Adv	-11.2646
▁Com	-11.2651
arry	-11.2662
iaw	-11.2668
aint	-11.267
▁Dom	-11.2701
▁maker	-11.2727
▁geo	-11.2731
del	-11.2747
rbert	-11.2753
▁Ash	-11.2755
ffi	-11.2762
▁Vic	-11.2765
▁Mod	-11.2766
dru	-11.2792
ann	-11.2797
special	-11.2808
chest	-11.2814
▁pl	-11.2819
-11	-11.2821
▁Fer	-11.2841
1888	-11.2842
mal	-11.2848
ai	-11.285
ious	-11.2851
nage	-11.2855
▁ge	-11.2866
mad	-11.2869
ske	-11.2878
▁93	-11.2887
with	-11.289
▁Universi	-11.2892
ged	-11.2895
reign	-11.2904
shan	-11.2908
etic	-11.2916
0.	-11.2919
▁proper	-11.292
▁exp	-11.2934
sted	-11.2939
▁il	-11.2942
▁cl	-11.2982
porter	-11.2988
unge	-11.3018
crete	-11.3019
▁explore	-11.302
rides	-11.3034
gang	-11.3051
▁encou	-11.3052
aga	-11.3075
ice	-11.3111
gency	-11.3126
▁merge	-11.3145
rsh	-11.3159
▁va	-11.3167
run	-11.3186
aft	-11.3189
ee	-11.3198
▁Mol	-11.3218
▁constitute	-11.3219
▁por	-11.3237
23-	-11.3244
72	-11.3247
▁bri	-11.3264
axon	-11.3265
ula	-11.3272
▁compile	-11.3274
rnes	-11.3279
Ta	-11.3282
eve	-11.3292
han	-11.33
anta	-11.3316
hara	-11.3322
2023)	-11.3331
rie	-11.3332
▁KT	-11.3337
▁inte	-11.3345
▁preparat	-11.3385
▁undert	-11.3396
ign	-11.3406
240	-11.3429
▁Fo	-11.3437
▁Gla	-11.3446
vale	-11.3461
atu	-11.3468
▁nomina	-11.3471
05-0	-11.3515
from	-11.3526
quarter	-11.3526
▁Adh	-11.3536
cure	-11.3539
inancially	-11.3544
▁Stud	-11.3575
▁tributar	-11.358
dividual	-11.3605
ships	-11.361
ndon	-11.3611
ubstrates	-11.3618
her	-11.3626
▁Cult	-11.3637
▁Brav	-11.364
ask	-11.3649
90	-11.3668
undar	-11.3673
▁stee	-11.369
dur	-11.3695
WA	-11.3701
▁mix	-11.372
▁committe	-11.3729
diagnosti	-11.3731
Our	-11.3751
819	-11.3754
yed	-11.3763
ecede	-11.3766
▁factor	-11.3776
arva	-11.3777
rine	-11.3789
▁Federa	-11.3789
▁document	-11.3802
▁Leg	-11.3823
3).	-11.3825
▁exc	-11.3842
ound	-11.3856
varian	-11.3866
▁Ext	-11.3869
860	-11.3877
▁stri	-11.3886
inine	-11.389
08	-11.3903
1936	-11.3911
36	-11.3917
rger	-11.3926
▁guar	-11.3934
ampus	-11.3937
mic	-11.3944
dustry	-11.3945
gat	-11.3948
▁Recogni	-11.3953
eine	-11.3958
ugu	-11.3959
▁Ram	-11.3965
hr	-11.3966
▁Ala	-11.3983
▁Consu	-11.3984
▁11.	-11.3992
▁Discog	-11.3993
2013	-11.3994
bet	-11.3995
01	-11.3999
lights	-11.4003
▁220	-11.4014
akis	-11.4023
ident	-11.4024
▁Contr	-11.4025
▁Os	-11.4045
nished	-11.4046
▁More	-11.4048
raphy	-11.4057
iles	-11.4072
leg	-11.4088
anin	-11.4088
ird	-11.411
pring	-11.4145
stitution	-11.4161
84	-11.417
▁mom	-11.4174
2022	-11.4178
▁journal	-11.418
▁pi	-11.4189
▁Journ	-11.4196
▁2.2	-11.4199
83	-11.4205
▁fan	-11.4207
▁opera	-11.4229
▁integra	-11.4249
í	-11.4249
▁Cli	-11.4273
iga	-11.4274
pell	-11.4278
188	-11.4281
▁practi	-11.4292
▁Select	-11.4296
▁Mobi	-11.4298
athematic	-11.4303
▁Bos	-11.4304
43.	-11.4313
clud	-11.4322
ena	-11.4324
▁Kon	-11.4336
ished	-11.4352
▁operate	-11.4368
He	-11.4383
cide	-11.4387
opra	-11.4388
ormation	-11.4395
▁athlet	-11.4397
list	-11.4415
ari	-11.4418
Acadi	-11.4432
▁transparen	-11.4436
ota	-11.4442
▁Res	-11.4446
Deconstructivis	-11.4447
▁Pas	-11.445
23,	-11.4463
▁pu	-11.4476
eekly	-11.4485
orced	-11.4487
180	-11.4494
nique	-11.4511
raf	-11.4517
mits	-11.452
▁def	-11.4524
▁Sir	-11.4528
ophi	-11.4531
▁1993	-11.4535
source	-11.4538
German	-11.4539
▁Cat	-11.4541
water	-11.4544
view	-11.4547
pen	-11.4549
writ	-11.4555
season	-11.4555
but	-11.4555
▁physiologi	-11.4562
▁Rev	-11.4563
iveness	-11.4567
transl	-11.4569
treat	-11.4576
89	-11.4579
refer	-11.4579
ape	-11.4582
ppi	-11.4591
fashion	-11.4593
includ	-11.4595
▁explo	-11.4598
▁crus	-11.4606
▁Ast	-11.4614
communicat	-11.462
iate	-11.4627
▁Bel	-11.4633
ruit	-11.4634
zz	-11.4636
tinct	-11.4641
▁Unf	-11.4644
▁fishe	-11.4646
983	-11.4649
rim	-11.4658
football	-11.4662
National	-11.4665
ture	-11.467
II	-11.4674
lot	-11.4682
John	-11.469
January	-11.4693
Kieran	-11.4697
rne	-11.4704
gene	-11.4705
▁promo	-11.4716
Source	-11.4716
casino	-11.4718
Karl	-11.4719
nnel	-11.472
▁Cl	-11.4737
when	-11.4738
while	-11.4742
2019	-11.4743
children	-11.4743
res	-11.4744
▁prai	-11.4746
corn	-11.4748
▁scr	-11.4749
club	-11.4749
web	-11.4751
history	-11.4752
aske	-11.4752
▁Coll	-11.4754
▁spher	-11.4754
Hug	-11.4754
perform	-11.4755
through	-11.4757
▁custom	-11.4759
Comberti	-11.4759
grand	-11.476
World	-11.4763
Football	-11.4768
You	-11.4772
prote	-11.4772
committee	-11.4772
website	-11.4773
Station	-11.4774
▁doubl	-11.4774
August	-11.4774
Mission	-11.4775
KKAM	-11.4778
▁Has	-11.4782
built	-11.4782
Camp	-11.4782
CM	-11.4787
stroke	-11.4792
organization	-11.4798
Eminem	-11.4799
Second	-11.4799
eu	-11.4803
Powell	-11.4807
Green	-11.481
bri	-11.4812
Coleophor	-11.4813
Business	-11.4813
Turk	-11.4814
May	-11.4814
registration	-11.4814
Republican	-11.4814
Johann	-11.4815
industries	-11.4818
voyage	-11.4818
Portland	-11.4819
whe	-11.4822
change	-11.4823
motor	-11.4826
Law	-11.4828
Deconstruction	-11.4829
provided	-11.483
Slovak	-11.483
Europe	-11.483
Foundation	-11.4831
league	-11.4831
contain	-11.4831
Catalan	-11.4831
short	-11.4832
screen	-11.4833
Texas	-11.4833
gul	-11.4834
market	-11.4835
women	-11.4837
minister	-11.4838
Chinnappa	-11.4839
critic	-11.4839
strong	-11.4841
15–1	-11.4844
Black	-11.4845
Trenton	-11.4845
Antonio	-11.4845
language	-11.4846
relationship	-11.4846
proteins	-11.4848
stigate	-11.4848
electric	-11.485
bodies	-11.485
southwest	-11.4851
class	-11.4851
Code	-11.4852
letter	-11.4852
Flanders	-11.4853
knowledge	-11.4853
colour	-11.4856
Lewis	-11.4856
Broadway	-11.4856
Island	-11.4857
Port	-11.4857
wrote	-11.4857
cellul	-11.4858
films	-11.4859
Love	-11.4859
Organi	-11.486
professional	-11.4861
court	-11.4862
grey	-11.4865
Ž	-11.4868
trans	-11.4868
inspir	-11.4869
Integr	-11.4871
anchor	-11.4876
[	-11.4879
DSD	-11.4883
160	-11.4883
together	-11.4884
mid	-11.4885
Mica	-11.4885
nitrous	-11.4887
Out	-11.4889
level	-11.4891
scale	-11.4892
Big	-11.4894
master	-11.4895
onsider	-11.4898
▁Gr	-11.4899
active	-11.49
▁Aud	-11.4901
Aki	-11.4902
wide	-11.4905
regular	-11.4906
earl	-11.4912
releas	-11.4914
third	-11.4917
Hill	-11.492
claim	-11.4921
186	-11.493
Due	-11.493
Kent	-11.4934
Mobi	-11.4935
respective	-11.4936
adapt	-11.4944
unds	-11.4944
drift	-11.4944
Rec	-11.4949
▁Quarte	-11.4949
Dut	-11.4954
Gold	-11.4958
1890	-11.4959
Marsh	-11.4963
▁1984	-11.4963
build	-11.4966
page	-11.497
writing	-11.497
Rei	-11.4974
credit	-11.4975
lat	-11.4975
major	-11.4983
ffic	-11.4983
▁pai	-11.4989
rov	-11.4993
006	-11.4996
1.4	-11.4997
Main	-11.4999
male	-11.5
news	-11.5004
ags	-11.5005
uccessful	-11.5007
synthesis	-11.5011
oreover	-11.5012
-15	-11.5013
▁1998	-11.5014
Pro	-11.5015
▁Batt	-11.5018
settl	-11.5026
just	-11.5027
ulu	-11.5032
Pod	-11.5033
▁Mor	-11.5034
kind	-11.5037
▁pupil	-11.5037
▁synthesi	-11.5038
▁girl	-11.5039
stav	-11.5039
▁hotel	-11.5041
viol	-11.5045
▁decade	-11.5046
▁matter	-11.5052
Of	-11.5054
goal	-11.5055
▁appetite	-11.5056
▁plasmid	-11.5059
▁Timber	-11.506
▁typ	-11.5063
high	-11.5063
▁filament	-11.5064
▁effort	-11.5065
▁(31	-11.5065
▁Representative	-11.5067
▁mot	-11.5067
Al	-11.5069
201	-11.507
▁Ainmane	-11.5071
▁student	-11.5072
▁sensation	-11.5076
03)	-11.5077
Chap	-11.5082
current	-11.5082
psychologi	-11.5083
metre	-11.5084
▁Europ	-11.5085
inqui	-11.5086
▁bookie	-11.5087
phin	-11.5087
notes	-11.509
▁Cros	-11.5094
occup	-11.5095
successful	-11.5098
2.8	-11.5099
serv	-11.5104
lm	-11.511
▁month	-11.5111
1993).	-11.5122
phal	-11.5122
1340	-11.5123
gent	-11.5127
▁styl	-11.5128
▁comput	-11.5131
▁instinct	-11.5134
▁Appea	-11.5136
Elect	-11.5138
curr	-11.514
▁relation	-11.5142
raduate	-11.5143
.1	-11.5144
▁frequen	-11.5146
▁doub	-11.515
▁dismiss	-11.515
▁prim	-11.515
Call	-11.5151
bear	-11.5156
▁emoti	-11.5157
▁Georg	-11.516
ttack	-11.516
▁unlock	-11.5162
▁(37	-11.5163
ffiliat	-11.5163
asqu	-11.5164
▁trap	-11.5165
▁slot	-11.5165
▁develop	-11.5165
Bel	-11.5166
▁div	-11.5168
▁establish	-11.517
possible	-11.5171
utonomy	-11.5171
▁bat	-11.5174
1948)	-11.5175
▁invest	-11.5176
▁atten	-11.5179
1927	-11.5181
▁manufacture	-11.5182
▁register	-11.5182
▁API	-11.5186
ilding	-11.5187
▁speaker	-11.5187
arriage	-11.519
476	-11.5191
wick	-11.5193
▁memb	-11.5194
▁retire	-11.5198
▁Heart	-11.52
iola	-11.5204
Bet	-11.5204
▁Architectur	-11.5205
rage	-11.5206
▁cultur	-11.5206
▁Sense	-11.5206
branch	-11.5207
▁innovati	-11.5208
▁individual	-11.5209
Jan	-11.5209
▁architect	-11.521
obacter	-11.521
▁symp	-11.5212
yclopædia	-11.5214
game	-11.5219
barr	-11.5219
president	-11.5221
azette	-11.5221
▁facult	-11.5222
rican	-11.5224
wars	-11.5225
hous	-11.5225
cular	-11.5226
▁capacit	-11.5227
waters	-11.523
▁facilit	-11.523
▁Institu	-11.5232
For	-11.5232
▁Valle	-11.5233
broad	-11.5236
▁Grenad	-11.5236
8-03	-11.5237
rift	-11.524
▁mod	-11.524
▁patro	-11.5243
▁emphasi	-11.5244
itrous	-11.5246
onferen	-11.5248
▁intermedia	-11.5249
ssembly	-11.5249
▁inhabit	-11.525
▁Direct	-11.5252
▁bookmak	-11.5253
lim	-11.5253
▁phenomen	-11.5254
fin	-11.5255
omo	-11.5255
▁profession	-11.5256
gram	-11.5256
peaker	-11.5256
▁Divisi	-11.5257
NP	-11.5258
uzla	-11.5258
indergarten	-11.5259
ridology	-11.526
▁alum	-11.526
kspor	-11.5261
871	-11.5261
▁famili	-11.5262
ú	-11.5262
mont	-11.5262
section	-11.5262
Runner	-11.5263
oppos	-11.5263
▁televis	-11.5263
83-	-11.5264
▁relegat	-11.5264
ustrali	-11.5264
▁opportunit	-11.5264
rrect	-11.5264
riphyle	-11.5265
ntrepreneurs	-11.5265
potentia	-11.5265
eighbor	-11.5265
▁Product	-11.5266
▁Olymp	-11.5266
▁Congress	-11.5266
▁depart	-11.5267
nfluence	-11.5267
▁anhydr	-11.5267
xperiment	-11.5268
thropo	-11.5268
ituate	-11.5268
ailroad	-11.5268
nstruction	-11.5268
mprov	-11.5268
▁Surv	-11.5269
Operati	-11.5269
▁conscious	-11.5269
achelor	-11.5269
970	-11.527
▁Guarneri	-11.527
′0	-11.527
Champion	-11.527
æ	-11.527
ncyclopedi	-11.527
dbrez	-11.527
ö	-11.527
▁Cambri	-11.527
hysics	-11.527
▁secret	-11.527
lagsh	-11.527
tific	-11.527
▁Trini	-11.527
▁Yamam	-11.527
▁Qualif	-11.527
oubled	-11.527
▁glyco	-11.527
hurches	-11.527
03′	-11.5271
ngineer	-11.5271
▁thorough	-11.5271
▁Archa	-11.5271
grounds	-11.5271
gam	-11.5272
▁Jacob	-11.5272
▁Temeng	-11.5272
▁Salmon	-11.5272
essions	-11.5272
xpress	-11.5272
lamor	-11.5273
▁competiti	-11.5273
▁Arab	-11.5273
▁Representati	-11.5273
fforts	-11.5273
ifference	-11.5274
ehicle	-11.5274
▁expos	-11.5274
▁Dodge	-11.5274
chlori	-11.5275
51)	-11.5275
dolog	-11.5275
▁pleb	-11.5275
▁techni	-11.5275
iosyn	-11.5275
▁expedi	-11.5275
▁McG	-11.5276
ethyl	-11.5277
urname	-11.5277
▁Colum	-11.5277
played	-11.5277
ffici	-11.5278
iversity	-11.5278
ocumentar	-11.5278
figur	-11.5279
laborat	-11.5279
▁phil	-11.5279
▁brig	-11.5279
ortun	-11.5279
▁Moham	-11.5281
▁Muni	-11.5281
▁Grove	-11.5281
osé	-11.5282
857	-11.5282
▁descripti	-11.5283
▁eighteen	-11.5283
XI	-11.5285
roach	-11.5286
estroy	-11.5288
cric	-11.529
matic	-11.529
lator	-11.5291
21.	-11.5291
ogi	-11.5291
onument	-11.5291
ensur	-11.5292
▁meet	-11.5293
fession	-11.5293
▁interes	-11.5294
gically	-11.5294
motiv	-11.5294
876	-11.5295
ictures	-11.5295
sters	-11.5296
▁carbo	-11.5298
▁assist	-11.53
elegation	-11.5301
Bru	-11.5301
elegate	-11.5302
▁Monu	-11.5303
1981	-11.5304
▁foot	-11.5305
ozin	-11.5305
▁Chun	-11.5306
eology	-11.5307
ogram	-11.5307
▁summ	-11.5308
icular	-11.5308
Cr	-11.5309
▁Conne	-11.5309
▁signifi	-11.5311
▁promi	-11.5311
▁scho	-11.5313
ulated	-11.5313
ven	-11.5313
▁civil	-11.5315
undla	-11.5315
Sch	-11.5315
▁oppo	-11.5319
▁Oak	-11.532
kshi	-11.5321
hology	-11.5321
raig	-11.5322
toms	-11.5323
elane	-11.5323
prise	-11.5324
▁Stor	-11.5325
722	-11.5325
▁phen	-11.5326
75.	-11.5326
▁resu	-11.5326
▁feel	-11.5327
gments	-11.5327
▁hour	-11.5327
rotes	-11.533
▁Polyne	-11.533
unab	-11.5332
▁Imp	-11.5335
▁Intel	-11.5335
▁1965	-11.5336
eneath	-11.5336
PI	-11.5342
▁violin	-11.5343
▁insec	-11.5343
oundary	-11.5344
info	-11.5346
consider	-11.5347
▁bad	-11.5347
olka	-11.5348
▁exam	-11.5348
▁bound	-11.5349
954	-11.5352
frican	-11.5352
gration	-11.5353
EN	-11.5354
spir	-11.5356
nesia	-11.5356
mentality	-11.5358
lij	-11.536
▁researcher	-11.536
▁guid	-11.5361
PN	-11.5363
ortland	-11.5364
iously	-11.5364
TM	-11.5365
Est	-11.5366
▁Ac	-11.5367
▁lim	-11.537
▁Supp	-11.5371
pleted	-11.5372
▁classic	-11.5373
tonian	-11.5374
Cur	-11.5374
partment	-11.5378
rene	-11.5382
sale	-11.5384
conte	-11.5384
▁milita	-11.5386
▁supp	-11.5389
Card	-11.5391
views	-11.5391
.5/	-11.5391
▁Iris	-11.5392
UB	-11.5393
▁stren	-11.5396
1,0	-11.5396
summer	-11.5397
ER	-11.5398
Fort	-11.5398
acqu	-11.5399
pro	-11.54
EE	-11.5401
▁door	-11.5401
▁Haw	-11.5402
bre	-11.5407
▁Tel	-11.5411
rvation	-11.5414
▁Tim	-11.5416
ticul	-11.5418
▁prep	-11.5419
▁Moo	-11.5422
▁Franc	-11.5422
dopte	-11.5426
6/	-11.5426
unct	-11.5429
achel	-11.5429
isla	-11.5434
aughters	-11.5434
rks	-11.5439
federat	-11.5442
ardar	-11.5443
▁Back	-11.5444
angel	-11.5449
arrow	-11.5449
▁tank	-11.545
9.2	-11.5453
▁sno	-11.5454
7-5	-11.5454
DN	-11.5454
slam	-11.5461
2019–	-11.5466
▁Count	-11.5469
pay	-11.547
ampaign	-11.547
Ant	-11.547
▁diet	-11.5471
lik	-11.5473
lumni	-11.5474
hapter	-11.5474
▁lap	-11.5475
14)	-11.5477
BR	-11.5478
lu	-11.5479
swor	-11.5483
▁Ind	-11.5485
▁Deco	-11.5485
ngru	-11.5486
nivers	-11.5487
▁nu	-11.549
▁68	-11.5491
▁pale	-11.5492
fall	-11.5493
▁Say	-11.5495
inating	-11.5498
4.6	-11.55
▁coll	-11.5501
inted	-11.5501
▁medi	-11.5503
mania	-11.5504
▁Soci	-11.5506
lming	-11.551
ratis	-11.5512
ordin	-11.5513
▁Carr	-11.5516
85–	-11.5519
▁Clar	-11.552
▁Financ	-11.5521
▁Atla	-11.5521
▁Mark	-11.5522
omy	-11.5523
ilma	-11.5524
▁spin	-11.5526
hree	-11.5527
▁Joh	-11.5531
5)	-11.5533
▁peri	-11.5543
▁fourt	-11.5543
Whe	-11.5548
6–1	-11.5548
740	-11.555
▁33	-11.5551
imin	-11.5554
aterial	-11.5556
▁Trav	-11.5557
▁Miss	-11.5557
-83	-11.5558
letic	-11.556
▁dropp	-11.556
69	-11.5561
▁edit	-11.5562
039	-11.5562
bad	-11.5563
proxim	-11.5567
ilj	-11.5568
▁Missi	-11.557
ug	-11.5573
▁cul	-11.5576
actory	-11.5576
hio	-11.5579
works	-11.5582
▁Cann	-11.5583
ncies	-11.5584
ren	-11.5585
chard	-11.5586
tionally	-11.5586
▁coup	-11.559
ules	-11.5591
ourney	-11.5593
cou	-11.5593
species	-11.5594
▁Wild	-11.5595
▁proto	-11.5599
idea	-11.56
ulation	-11.56
▁poss	-11.5604
itles	-11.5605
tionist	-11.5608
iq	-11.5608
▁Gul	-11.5621
1975	-11.5624
0.7	-11.5624
Fun	-11.5624
8–	-11.5625
▁casino	-11.5628
▁Mela	-11.5629
239	-11.5629
▁der	-11.563
▁tea	-11.5633
▁mag	-11.5639
irls	-11.564
dike	-11.5643
ential	-11.5644
pass	-11.5647
Jer	-11.5648
verge	-11.5649
down	-11.5649
sm	-11.5651
ongwriter	-11.5651
Comput	-11.5653
ec	-11.5655
rative	-11.5658
▁(13	-11.5666
esidents	-11.5671
▁Steen	-11.5671
BC	-11.5672
▁microb	-11.5672
▁Bib	-11.5673
9.4	-11.5675
ontan	-11.5677
▁Lei	-11.5679
kson	-11.568
otes	-11.5682
etary	-11.5683
▁Edu	-11.5685
▁scen	-11.5686
▁deco	-11.5687
▁Kind	-11.5688
▁sportsw	-11.5688
▁tie	-11.5689
mall	-11.5691
elph	-11.5692
lbo	-11.5692
after	-11.5703
▁respective	-11.5704
3.5	-11.5704
erature	-11.5705
▁amb	-11.5705
▁Sund	-11.5707
inals	-11.571
MC	-11.5711
paper	-11.5713
tensive	-11.5713
ppearance	-11.5717
nspire	-11.5718
aliz	-11.5727
0-	-11.5732
1993.	-11.5733
▁legalis	-11.5739
atche	-11.5739
▁stand	-11.574
▁Bact	-11.5741
▁Medi	-11.5742
▁adver	-11.5746
08.	-11.5754
▁comb	-11.5756
sa	-11.5756
near	-11.5762
ppen	-11.5768
laus	-11.5775
ichard	-11.5778
▁(9	-11.5779
atory	-11.5782
▁kind	-11.5786
▁Part	-11.5792
gian	-11.5793
raw	-11.5805
elations	-11.5807
▁mus	-11.581
apacity	-11.5813
▁sport	-11.5826
AD	-11.5836
sources	-11.5844
ecruit	-11.5846
estra	-11.5848
2017–	-11.5851
dren	-11.5852
Sc	-11.5853
▁Fourt	-11.5859
uilding	-11.5867
Re	-11.5868
▁emp	-11.5869
▁Awar	-11.587
nada	-11.587
Kal	-11.587
antly	-11.5884
homes	-11.5886
kus	-11.5888
live	-11.5888
61.	-11.5891
eli	-11.5892
rests	-11.5896
▁page	-11.5899
stinct	-11.5903
▁winn	-11.5906
CF	-11.5906
inally	-11.5907
kol	-11.5908
▁q	-11.5908
▁commen	-11.5912
▁Emp	-11.5913
▁Sum	-11.5915
shore	-11.5918
ondi	-11.5923
▁cur	-11.5928
lbum	-11.5935
sport	-11.5937
97	-11.594
zed	-11.5948
▁assistan	-11.5948
mate	-11.595
amili	-11.595
iph	-11.5959
▁Chin	-11.5961
stigat	-11.5963
▁observa	-11.5964
▁hot	-11.597
▁sol	-11.5971
5-	-11.5973
tically	-11.5977
square	-11.5985
ogen	-11.5988
make	-11.5995
Le	-11.5998
▁Dau	-11.5999
ene	-11.6005
rry	-11.6007
indi	-11.6008
▁vers	-11.601
▁sum	-11.6011
▁crossing	-11.6014
▁Nei	-11.6027
rmore	-11.6028
arked	-11.6029
mped	-11.6036
ago	-11.6043
sides	-11.6047
eric	-11.6052
▁web	-11.6059
▁Gran	-11.6062
tudents	-11.6067
raine	-11.6068
▁ا	-11.6073
istical	-11.6076
▁Ste	-11.6076
pre	-11.6076
egu	-11.6082
▁Hind	-11.6083
St	-11.6092
tat	-11.6094
mus	-11.6094
tiveness	-11.6094
home	-11.6099
ego	-11.6107
▁Sant	-11.6107
ciation	-11.611
▁compl	-11.6111
chen	-11.6123
rwen	-11.6126
81.	-11.6131
▁Sul	-11.614
▁maj	-11.6162
▁teach	-11.6167
▁Conservati	-11.6171
rence	-11.6175
▁flu	-11.6177
Bi	-11.6178
arde	-11.618
wher	-11.6184
▁scre	-11.6185
coli	-11.619
guis	-11.6193
ura	-11.6199
▁ox	-11.6213
link	-11.6217
oriz	-11.6221
▁Pet	-11.6235
neri	-11.6236
▁proce	-11.6239
77	-11.6245
orne	-11.6267
▁grand	-11.6277
0-6	-11.6279
ywood	-11.6283
shops	-11.6285
▁introduce	-11.6292
nam	-11.6295
▁ev	-11.6296
▁bol	-11.6308
tland	-11.6309
ridge	-11.6313
rio	-11.6336
rank	-11.6338
cop	-11.6349
resul	-11.6349
volution	-11.6356
▁Pre	-11.6372
tances	-11.6382
▁provinc	-11.6403
zen	-11.6404
yz	-11.6416
.8	-11.6418
▁disco	-11.642
cepti	-11.6421
ming	-11.6425
4,00	-11.6425
aps	-11.6426
▁Net	-11.6431
▁journalis	-11.6436
▁Bron	-11.6436
▁anni	-11.6448
itat	-11.6453
aug	-11.6454
▁CB	-11.6455
ase	-11.6475
sc	-11.6477
▁enc	-11.6477
▁Boul	-11.6479
tech	-11.6482
▁bit	-11.6486
roadway	-11.6488
tants	-11.6488
bring	-11.6491
onstitution	-11.6492
San	-11.6507
atives	-11.6509
odes	-11.6511
cyl	-11.6514
▁Brookl	-11.6518
odifi	-11.6518
▁dec	-11.6519
▁invo	-11.6519
▁Rad	-11.6521
airs	-11.6524
ories	-11.6529
ues	-11.6535
its	-11.6537
1864	-11.654
Tal	-11.6543
▁exper	-11.6544
▁3.	-11.6549
04)	-11.6551
950	-11.6552
hem	-11.6552
mobili	-11.6562
rah	-11.6562
etails	-11.6562
wed	-11.6562
▁ref	-11.6563
▁Histori	-11.6575
scend	-11.6576
▁wel	-11.6577
sual	-11.6577
gamma	-11.6579
onia	-11.6579
ega	-11.6582
▁grad	-11.659
▁reve	-11.6591
84.	-11.6605
.42	-11.6612
79.	-11.6613
▁Cu	-11.6617
lood	-11.6627
AF	-11.663
▁fra	-11.663
š	-11.664
85.	-11.6647
nown	-11.6648
versi	-11.6649
▁Spe	-11.6652
▁Pres	-11.6659
ndustry	-11.666
artic	-11.6664
top	-11.6675
rupp	-11.6681
lvi	-11.6681
▁Tas	-11.6687
jun	-11.6702
▁try	-11.6712
tner	-11.6714
ui	-11.6714
▁prob	-11.6718
ná	-11.6724
lays	-11.6731
▁metho	-11.6733
ddition	-11.6742
ague	-11.6742
hold	-11.6752
egon	-11.6755
rates	-11.6758
liv	-11.6758
landsc	-11.6759
▁prope	-11.6761
oine	-11.6794
ounding	-11.6797
▁identi	-11.6801
22–	-11.6812
▁Pot	-11.6823
▁expe	-11.6824
ecognize	-11.6837
134	-11.6838
vern	-11.6847
▁gamb	-11.6852
▁(4,	-11.6852
bbi	-11.6858
▁Ada	-11.6859
Der	-11.6874
▁stu	-11.6876
riev	-11.6878
▁legislati	-11.6898
nclud	-11.6901
resent	-11.6904
bod	-11.6906
ou	-11.6908
▁too	-11.6916
Ma	-11.6919
▁mono	-11.692
ija	-11.6932
▁Ai	-11.6938
▁underst	-11.6939
▁bot	-11.6953
logic	-11.6954
▁Met	-11.6956
urch	-11.696
▁Hum	-11.6968
▁53.	-11.6968
▁Wat	-11.6977
mb	-11.6984
Ci	-11.6984
anne	-11.6991
eri	-11.6998
▁trai	-11.7022
▁Barba	-11.7026
▁lot	-11.7029
ndividual	-11.7041
Cal	-11.705
▁fr	-11.7051
▁inco	-11.7062
factory	-11.7067
▁Ger	-11.7077
▁comme	-11.7081
pin	-11.7084
star	-11.7107
ssi	-11.7117
nose	-11.7119
▁Math	-11.7122
▁clas	-11.7122
1945	-11.713
lassification	-11.7134
▁46	-11.7154
▁Amar	-11.7169
▁Vid	-11.7181
gers	-11.7181
anno	-11.7182
▁ju	-11.7186
▁wor	-11.7186
atures	-11.7193
tuary	-11.721
▁carb	-11.722
stered	-11.722
sworth	-11.7222
anthr	-11.7229
kes	-11.7231
▁74	-11.724
41,	-11.7253
7-	-11.7254
ero	-11.7284
Co	-11.7292
▁deno	-11.7303
,7	-11.7326
efe	-11.7332
▁prev	-11.7364
omon	-11.7372
yc	-11.7375
ambu	-11.7381
ulture	-11.7409
▁importe	-11.7412
.29	-11.7413
▁Tele	-11.7426
▁Wit	-11.7442
-0	-11.7445
▁constituenc	-11.7448
▁nin	-11.7459
inder	-11.7464
▁know	-11.7465
▁rout	-11.7472
▁nominat	-11.7477
▁Kie	-11.7481
1989	-11.7482
mill	-11.7482
otable	-11.7489
ndemic	-11.7514
mers	-11.7534
wh	-11.7547
enter	-11.7551
hist	-11.7554
ocial	-11.7555
ric	-11.7563
ater	-11.7565
▁Dod	-11.7601
▁Len	-11.7608
21	-11.7616
ounds	-11.7624
mp	-11.7632
ori	-11.7642
every	-11.7651
ansas	-11.7657
▁Karls	-11.7658
tria	-11.7659
▁thir	-11.7672
tudy	-11.7677
▁app	-11.7683
ndi	-11.7696
'2	-11.7712
▁lowe	-11.7717
▁Eur	-11.7718
▁Trac	-11.7725
01–	-11.7728
edia	-11.7733
imi	-11.7747
▁Patri	-11.7749
enetic	-11.776
▁colo	-11.7763
ngar	-11.7771
iness	-11.7775
▁Buc	-11.7784
▁discussi	-11.7784
▁(1993	-11.7785
▁Lig	-11.7796
organ	-11.7816
dition	-11.7865
mun	-11.7871
▁Ful	-11.7912
radica	-11.7937
50,	-11.7955
siz	-11.7987
arty	-11.8006
gangs	-11.8009
King	-11.8017
▁mad	-11.8032
rtie	-11.8038
ila	-11.8047
87	-11.8058
▁Men	-11.8085
▁Ret	-11.8094
▁wr	-11.81
handra	-11.8104
▁sad	-11.812
▁movi	-11.8123
urvey	-11.813
222	-11.814
give	-11.8153
mens	-11.8168
stering	-11.8183
part	-11.8184
At	-11.8198
fa	-11.82
▁100,	-11.8223
▁southe	-11.8245
▁Hi	-11.8254
Mon	-11.8259
2006	-11.8263
las	-11.8287
▁qualif	-11.8288
ives	-11.829
17.	-11.8291
30.	-11.8297
▁fle	-11.83
▁cy	-11.8308
lope	-11.8308
bats	-11.8311
vid	-11.8317
cur	-11.8338
tist	-11.8347
▁origina	-11.8348
▁1.	-11.8368
▁Sher	-11.8379
ected	-11.8381
gr	-11.8387
craft	-11.8399
▁Universit	-11.8405
81	-11.8416
onomy	-11.8427
nner	-11.8435
▁tour	-11.8438
odger	-11.8446
ating	-11.8447
merged	-11.8497
ci	-11.8501
▁(3.	-11.8506
ebe	-11.8533
hro	-11.8631
quir	-11.8636
▁Zon	-11.8665
inst	-11.8676
xas	-11.868
▁norther	-11.8689
▁bett	-11.8709
inde	-11.8715
▁gu	-11.875
par	-11.8751
share	-11.8803
isc	-11.8838
▁Revi	-11.8874
osed	-11.8886
entral	-11.8886
▁Are	-11.8897
uk	-11.8914
nburg	-11.8933
▁Brea	-11.8934
ano	-11.8962
▁rate	-11.8973
stern	-11.8988
▁roa	-11.9014
rust	-11.9023
sign	-11.9025
لم	-11.9025
▁Carib	-11.9036
Red	-11.9054
Ne	-11.9059
teur	-11.9064
▁Gaz	-11.9067
▁Pau	-11.9078
▁Eva	-11.9092
esses	-11.9111
▁fol	-11.9168
82	-11.9173
inished	-11.9197
grant	-11.9201
▁min	-11.9214
▁constitut	-11.9216
ositions	-11.9217
nat	-11.9234
tte	-11.9248
eated	-11.9255
▁fir	-11.9267
6-	-11.9275
▁Chemis	-11.9277
▁Shar	-11.9281
hum	-11.9289
▁Hea	-11.9293
ower	-11.9297
fen	-11.9298
-03	-11.9327
1)	-11.9382
eets	-11.9386
ayers	-11.9386
▁uni	-11.9416
amp	-11.9419
11	-11.9445
event	-11.9445
rob	-11.9493
brid	-11.9496
orce	-11.9529
iza	-11.9588
nclu	-11.9619
▁stra	-11.9643
omest	-11.9651
hap	-11.9665
▁bon	-11.9665
▁Sei	-11.9702
rrow	-11.9704
▁4.	-11.9751
.10	-11.976
▁accessi	-11.9765
iage	-11.979
dvance	-11.9816
▁Ber	-11.9824
▁descen	-11.9831
21–	-11.9836
▁sevent	-11.984
course	-11.9861
2009	-11.9877
bru	-11.9884
▁Cole	-11.9899
jor	-11.9903
1910	-11.9905
£	-12.9068
′	-12.9069
Š	-12.907
$	-12.9071
“	-12.9072
(	-12.9073
=	-12.9074
